[PAD]
[UNK]
[CLS]
[SEP]
[MASK]
##한다면
##대조
어호
지하근
애틀랜타
풍계
한주영
##페르마
현재희
왕매발톱나무
의병
과곡리
규정
##행렬식
이정언
약목면
함일
정지표
##축조
성경숙
죽지
유지일
이태주
눈매
자기저항효과
타
여익현
유물주의
너그러워졌
박재석
##성병
사대부가
돛대
##영협
은상
육좌
##고사리
은평
청정
##해이
##셀렌
##모노레일
협상국
브링
##홍기
신데렐라
이강숙
##알킬
안정기
백상훈
진눈깨비
북대
전술관
##원자가
이새롬
##달품
조정찬
##치상
서윤호
이강민
체게바라
전탑
장기원
국신사
국어학사
우디
녹말
##의거
최규희
겹장
##학생
발아기
윤은영
중앙교육연구소
##상대국
캐럴
서머스쿨
철중석
프라이어
무르
석상
윤관석
콩고
짝짝
##용성
스웨터
유동일
##광점
조갑제
대장염
한샘
##적응도
##둥관
##취암
##소술
##백국
##귀교
얼굴선
쇄토기
삼릉침
최선우
##훅
지종옥
##슈투트가르트
상떡
이내수
신출
직육면체
근대정신
##육방
갓돌
페시
최미
##페이스북
##버저
열띤
문풍
##대화
##템즈
주름
정두희
##천종
우산고로쇠
색바램
##플레이크
##할로겐램프
늘려라
비즈니스맨
턱살
##쿠퍼
최빛나
##비주기
김호기
헤스먼
김재권
추임새
오양
홍보석
##이동파
항일군
##문송
반나체
학부모
포악
##구정리
도마크
행해진다면
##합류점
비씨카드
전해동
양자강
꼬리치
서진환
##사얀
임경민
##옥정
비상계엄
장성민
변석
##징수액
##라야
##샘암
다다다다다
##을라고
방종
##랭킹
##온장
이범섭
시가지
##공공요금
##왕광
##그곳
리빙스톤
책꽂이
블라지
헝
영생
굴러간다는
##물수
제작자
웃풍
느린데
수직원
##부용
##정부기
맹정호
시린
##김갑수
탐승객
##마과
외견
념
##항원
최주엽
토하라
##삥
내곡리
설문지
파이로갈롤
잔금
##소독
##솔리
##지레
신준섭
얽히
##사교육
김평중
##로겐
##연암
##주요
동류의식
연형
향일
##요리점
안복
반비례
참례
인공생명
왕궁리
##현지인
대응설
차선화
##존타
흔쾌히
추계
기름콩
##스러웠
끄덕끄덕
오석규
유광수
아실
자가운전
표사
타래과
발렌타인
##풍경
격해
도망간다고
안골
이화수
꼬챙이
이른다
방사포
##미로
수동식
박종준
월광보살
체신부
가져와야지
촤표값의
전은진
코위
공약수
타라
안소연
소비조합
##다더라고
영단
로저스
##정상조
산출물
##양산천
투쟁기
권역
매유
##뉼린의
##독도
정우식
##심진
고운
##김찬모
손정수
클라키
활판본
##긍당
전준호
##러플
살아왔었
##산농
흔이
투유
실속각
몰려다니
백목련
함입
금소
조련
김건기
근덕면
마음자리
##생활기
정일민
당뇨
올라옴
너그러움
참고
결석생
외풀
##미숫가루
##앞부분
황과채
##리즈
새꼬막
루산
범한판토스
공중
열배
유은진
##사목
약골
##윤성
박성빈
##자욕
##쇄도
누리장나무
예고편
##소아의
표류현상
##가시리
눈뜸
염통
신성식
문젠데
박정웅
모랫벌
##겸손
모델링
중애
전상운
쥐여
##과판
이루어졌었
##이달
한창환
유행어
형평성
늘여서
깅코
상세
해로
플레어
##경분
도렴
토막
##영역권
어쩌
도하기
삼켰
권오남
차막이
물곰팡이
얄미운
##공익
천해성
스미슨
##음절
임대료
##엽인
##흑진주
류상범
모시기
오버
보면
육곡
덴마크
한몫
##빈처
요오드화납
뚝향나무
##계획선
목이버섯
배정
이석태
##언의
범접
신주경
고혜정
박준금
이진성
좋이
김병모
##식고
헝그리
북대구
제이지
퐁피두센터
심평
##암만
천재호
##완벽주의
##전문의
##화목
교문
아그라
티쉬
선로전환기
생잔
가설비
덤불쑥
##정익중
이일선
묵흔
승강장
##브리타
##댓글
##임서
통첩
엘리너
레오나르드
김동구
귿
방규
함박꽃
봉래초
팩팩
작작히
몰골
##모형실험
열조
탐보
##산장
##히스테리
사나웠
##단압
박인영
##공대지
손동희
서울구치소
##특정
##판방
뎅기
##탄정
뎅
최세웅
양정화
##천과
##출동
저지른
이종익
걸식
유리왕
강유리
박재영
##안면통
##진솔
##깃대
##단춧구멍
##수범
진흙탕
유취
이병진
하수용
우점
탄두
배동
핵심체
##칭강
캘버트
이재한
##고묘
장혼
##취업률
함기성
숄더백
파르르
##정답
##권축성
유시영
황희준
##동지중추부사
묘좌유향
##영복
하신
##진학
##오락서
생해
버나
##역소
##만유
펼쳐진
착륙
대전면
##제목
선적
여인
갈로
공영민
##근교
##열조
보급관
##지붕
너그러
니콜라이
##후벽
##박정보
##내산
미치히코
링기트
굴렁쇠
통속성
추갑철
##관본
노래비
정영택
##수측
##가져간다
곽수연
량조
내복약
##린시
##급포
최계영
##고중
눈개승마
술잔
##이용대
##신호장
##고채
유능수
##치조음
금수전
박공주
쿠멘
한승엽
박인덕
환충
명품
몽울
다대포항
공명정대
매자나무
오락비
그러고
퓰레이터를
순전
##도심부
사이다
근족충
완소
귀견
이일호
이교성
파별
권병준
루오
손정삼
장은수
##일축
현포
걸릴수록
##스산
플래툰
가망성
##렝킹
직권상정
헤어진다
견본
##퓰레이터
토렌
녹수낭
정혜미
자연동
대전통편
송현종
##폐건
재창조
두레
유리나
위창자관
내몬
스넬
옥녀봉
송창용
구제
##두경
##끊임없
신광용
정채은
상보성
윤한
복자
내습성
피카츄
엇갈린다
최원호
시오
사중주
##월척
전통술
궁낭
이충석
이현진
##환석
추이율
##차양
##댑티브
##당성
##라벨
탄핵
유영기
벽암록
구릉
##무씨
페키지형
황진주
##쌍문동
점동면
세콤
항여
고태훈
##잖아
퍼져서
악편
한재민
##해고
피곡
얄궂
선천
이경심
##수격
동기기
사마라
과중되
발발
채뇨
컨셉트
유세차
레가토
##광산주
고승제
프로그램
##라꼬
유재필
지주막하강
습윤도
낙화암천
##이암
##가면극
설렌다
##세론
구해다
비시
태준
조직액
지방물
이승희
우상규
##산희
모사드
##연전
허재민
피배서인
##효선
솔벤
매석
##오거
노버트
임한
##수표
이앙기
밀릴
함수성
저게
핫초코
인종주의
펄스타인
하옥현
##타내리
##원환
##재억
강찬
유효성
단분자막
##프레이크
신재봉
##비례론
곡척형
##박선용
불안증
송대리
##지행
##석학
돋치
바리오
##기상법
중립화
국가법
##지상자
와열
##절복
양재하
##알칼리
해
##득법
##약초
일긔
장척호
##한춘
뷰티풀
천제연
비삽
##밧
증권가
말아
블레즈
극방정식
유한기
경사거리
약화
등촌동
온상
##이주열
##등신
재선
##파랑
##사구
이정학
##임계
신메이
피케
##그때
바꿔갈
유미정
역신
진형종
아쿠아로
적신
소부분
##이윤율
어두워진다
떨어뜨린다
##암조
보길면
에스이
##양육
칼림
아산군
손인락
윤시영
대림역
##스코리아
장사정포
##성망
##박현호
권희준
중립주의
자충수
심안
허귀석
도솔봉
금난초
올려서
황경현
레볼루션
강희영
알만
문화부
굴릴
메틸에틸케톤
버거웠
##묙의
혹심
##덕종
시비선악
##류치
아플리케
##아청
##병학
송어
##글리코시드
유지호
은적
##타어
회원
양길모
도급
##당뇨병
##슁의
인감도장
볼샘
##산행
브랜드전략
##체가
궁원
친족회
##에이블
불러온다는
이수욱
손성원
##이자이
그물막
##비즈
여지지
김혜선
가로지름
미천왕
혁대
##신견
연평해전
허조
##범과
조반
##압축비
산화산
협죽도
##틀렸
생각없이
##후시
##착염
의뢰서
압박대
이상
휄든크라이스로
##출고가
양성진
사귐
닐리리
장누벨
유착
성장선
갈치구이
##압축계
##반주기
강원택
침구학
고삼호
##청차
청산
남태현
##포핸드
##약급
##침적
활인
전승은
##하각
페퍼
터베이
##상창
전문직
##중치
##철광상
##끈끈이
트이
조운희
##괴분
완물
역상고성
##광층
##만대
##금동
허스
##즉흥
이고운
흐려
금악
융식
태양광
##수손
##영상미
염발
##정재엽
##델
도널
안평리
알팔
액운
변숙영
##우럭
거쳐도
파키
염침
내무대신
관세법
항목
컴벌랜드
##태서
전민선
##영업력
이기설
내홍
촌부리
특제
##영종
음기
##토목학
벌림
포도상
동중서
##초호
심정순
박노준
마주쳤
##상대방
첩첩산중
김억
##베고니아
형전
##봉년
##카민
달라집니다
마른지
위함일
업태
친지간
##황보연
##토큰
금서
라야
##라미드
##지기가
결명자
이우재
칼리오
잴
돌연변이원
##클러터
##배추좀나방
김명하
방직업
##문인협회
아비가일
##헤리티지
최급
##감투
천책
팔레오세
##작선
##옥포
가슴벽
응어리진
활꼴
김신자
청서
이인식
##제대로
시아닌
유효
##절운
##단안
이상락
##급여
석사동
의협
황석윤
복천
##하루살이목
후쿠시마현
황훈희
가정교사
##얼라이언스
전인기
황윤재
소골
고금
송지현
모피
한상필
상렴
대봉산
김양현
##실적
##중앙군
강동균
모노톤
##레이튼
번식지
정신병질
송이과
절진
김영배
유윤재
##착점
사프리
티탄백
정보국
이자나미
양건
백거
미워했었
여교
게임즈
##퇴적층
헬기
##수두
전단사
헐릴
##정영란
국민차
물안개
긴포
폴록
늘린다고
##벗
고영도
수곡면
흥인
##견감
발라내
미경
초무침
##괴기
진학사
빠다
##김형곤
감수량
원예술
지스러기
수기자
뜬다는
##저수
허각
##무룡
페어
##원급
이정섭
강문성
용해
##아나운서
금나
베이신
##세면장
스트릭
##접이식
아야베
##색등
쪘
살균유
삐에르
##서울안보대화
겨
작열
##바둑이
##집중국
재방송
물가지
자이브
구임
단침
##장가보내
관창리
락
뜯어내
##건의문
눈부신
쌍벌죄
한다니까
실행증
차폐실
인량
박기선
드
##펠리스
##해의
스패로우
반차
##도모
메자닌
##이중층
임종완
김선경
##덴기
세균
##개랄
선체
반종지
##담관
오은순
증류기
##위증
##출초
괴석
##과학전람회
킴벌리
결과지
##걸쳐서
일과
열학
낭떠러지
##홀드
고인
영급
##뱅킹
가산기
##첨모
도착증
정암리
##리키아
대칙
##당직자
천남성
풍어기
자일
##피하
증발기
##비슬
임치제
##본업
남기석
##지취
마제형
##칼리드
임종길
김택원
##맬
해니
##한황
수오
##윈드서핑
험상
와폐
홍월귤
##득의
빌러
##런화
##다라면
##농형
요시히로
국가원수
##맥콤스
화재
##중원
정다희
졸인
##컬럼비아
##무균법
##교정시력
살포기
유병안
##냉
난세
구항면
##지누아리
작풍
절인
육로
김재
##호시기
육궁
##세방
고명진
흙물
##약결
모작
협흡
요추천자
##팔현
칸토르
임서현
장성모
장석규
금덕리
최진욱
강경표
항생
풍장
미무
왕방울
김장곤
##업명
조승현
김연수
##곤로
미생물학
입체시
우울
##차이단
하천망
올렸으나
안대업
인입선
류상영
##도환
아플라톡신
에반젤리스타
##재대로
염기도
로스해
단향
해오라기
##헤치
##벧
비금
이행석
담황색
접속자
##지원서
##붙여도
안의
##선유량
나츠키
호어
##시아카
두바이항
곽윤상
노수빈
동침
##베라르
복음사가
셀라이트
백정수
이형일
##언론인
사방팔방
##툭
##정면충돌
##서진
오그락지
##관련성
풍경사진
박윤환
엠케이
신북면
손상모
##과년도
박윤범
##감정가
##풀라
##과인
연소기
##아치교
##강철수
홍연우
슬로건
진동수
황위
유재길
졀
쌈지
##의문문
문대윤
##흑양
백목전
젯
날란다
내음
난황
국가주의
##지각
##곡천
토비
스트롬
다보스
##논리식
물칭개나물
##키타
이수백
광장시장
제겐
떠난다는
한동후
##아람
슈헤이
##장국현
일치점
급제동
이학인
보컬리스트
송관
##빛공해
대표행위
알랑거리
최근형
홍용희
전기판
신학
홍양기
##상권
박병태
단석산
빚잔치
##가이드라인
본마을
##투막
구워서
껴입
신성리
##황권
급작스런
대박산
##마찰
##강스
리차트
자비스
이형운
##홍학
햄튼
구리아
박찬언
분공
##효제
비비꼬
응답기
총석
정현종
버몬트
염모
구부린다
옛길
압촌
##진령
##서대전
마사노
식스
##애서
시건
운용
류송희
청취자
##거래세
##하악골
##이상명
박순섭
##윤천
오리털
변시증
장패
해군사관학교
##부활제
군총
최범석
공학부
후염
##슬리브
##투시화
##몰각
전세일
감염병
고민지
한국정
수막새
세운상가
##가로변
##썼으며
##담진
##석록
방갈
##똑같이
안영복
산부
한겨레
오세현
오림
장미화
##유권자
드린다
분보
벨라루스
##노초
음악사
##비허
어야
전체집합
이은림
##포선
##뇩을
##근태
##릿지
##렀기
도행병
이이
선방어
이정만
거저리
임요환
층위
동시통역
양병
링키지
##익단
##간명
##상하부
글러브
최태진
자릴
부당히
순다열도
윤원영
##지시
메사
끔
##비관론
엄영애
##방열
라파
빚어지
갈곡
구단주
유리제
강창현
##하란
누비옷
##거든
##으냐고
노희진
##청간
##박순희
우설
등유
메터
도미닉
나자
##단관
허기지
한만영
##트로피아노
백윤철
##황보환
비진
##쉬시
아파한
느꼈으나
용개
세벌
##교포
우아미
포핑
##어업수역
수막
월향리
우랄강
장호민
도매상
권종욱
##튜너
페탁
찡
인먼
##양회
윤성용
##조환
속광
캘리코
마고자
풍암
##우울
##총경
인덕션
퇴출
진병
사자관
##싫어하
산꿩의다리
##닛산
연출자
은덕
관리도
박태경
신용도
곤충
##기준
허례
너스
##가로
##주변기기
화폐착각
다마시오
하이즈
그친다면
한계저축성향
선수촌
##남녀상열지사
##재생성
##겨자
거품돌
##과임신
##비례제
옥반
##공급원
해찬들
빈발
본딴
박남신
##구성주의
사롱
착의상
비상약
퀴녹살린
엇갈릴
개기
안명순
떴으면
장세룡
검거율
돌아선다고
##면하
##이원과
피면
금경로국
남순현
올라감
본건
##상하차
##썹이라
표본법
##비정형
##문무
##증감법
국혼
##기술학
녹갈색
클리프튼
코커
아리프
섬도
고충
이춘옥
베이스볼
##빨간색
감성여행
##암거
카와라
##귀암
##방송법
늙
육동
신수진
조종간
##전조
보궐
무릉리
##략별
이선녀
##블래터
백색근
##광대가
한림원
젠가
공제
##부보
히로후미
김완주
저층수
전월
광고판
##리디아
##부러
남제주군
질산염
##공기열
니코메데스
지영애
##선택설
##령공
탐측
삽추
저흰
나올까봐
##겨드랑
민규식
잇몸염
양부근
##기념사진
디렉트
통신구
인동간격
##최승묵
계남
강지
쏘울
단결합
뜬금없이
김은령
약해진다
##술병
작은멋쟁이나비
##한독
최빈국
복장나무
##내원
성촌
혈청
##암모니아수
탈로
조상복
선희
##핸드백
##갑오징어
균일화
##그친다
퍼진다고
이길성
말벗
블라크
##어한
사회아
암천
##이형택
##만드
변성
##미팅
보바리
핸드
##뉴젠
마장조
##축자
최정묵
정규시
##연명
칩
제조가
민관
모범상
##위무
타자원
루저
야계
집어삼켰
가로망
카우아이
##민부
염색약
곽동우
이희용
##뿌리줄기
읍내
##췌담
돼야지
##소영진
##무선차
##흔적
##둔주
뚱스
치들
황유연
이창선
##물들일
세이프티
전복과
윤용익
##지백
##둥굴레
갈사
윤성욱
조돈문
로학
##궁귀탕
##환산율
옮길
##군항
##환요
트리뷴
조삼덕
권이상
중복족목
공역
##안경원
거센털
풍천
노들역
강승규
인데다가
차귀수
오훼골
기꺼이
롱제
김민태
속가
이행남
##두량
##리들
##뿌리
##김성환
조균형
전환사채
부레풀
##흥통
이시연
##새우난
정보통
츨정하여
복창
##장루
손현근
신경관
오미야
##유지형
지머
일소
인터
구매욕
이재득
##앞서
소멸전
대풍수
이라크
벌침
##강도하
발꿈치뼈
##과염소산
나윤선
##루나
##건마
##해반
##운환
##고준
동의어
정신없이
백포도주
##매호
삼교
산림경제
양육
경량
##감별
##선접
성호
##선밀나물
박진환
장민혁
##건실
##긴장감
체육인
대자율
조영대
##종류
실음
아젠다
엇각
##감발
공존공영
임혜정
##입선
이의용
##티퍼
아장구
이미송
피연산자
태후
플라토닉
가도구
중족골
학무국
바짓부리
류체
현무암
##통식
간토
선단동
##곡관
윈도우즈
출신교
직교역
강화대교
코크란
빨간빛
전인대
쿠르스크
##숑아화채
장유
정공
##알칼리암
청미
##희석도
힐피거
행위지법
##복창
웬디
##마면
네오스티그민
소렌
저항률
유주연
관성장
##공기수
##요구액
##영사
안숙자
포열
킬로바이트
맏이
##이강이
금성면
소하천
커서인지
비관세
최두순
##재고율
상염
퍠쇄배액
##먹이
##라디에이터
##예치금
그을
법평면
##알루미늄판
달성도
오릅니다
비암
##부보상
우격다짐
어은리
실종
삼차색
도현
매워
목장승
##승강기
당귀수산
간상체
백순근
해녀
##당경
비속
##젓국
정다빈
박효봉
유인태
화이트하우스
크로스
누워서
##달성도
##정현희
##함안군
구조파
이승배
권민정
##투게더
##과추
어수선
완득이
시스티나
유병대
##아박
광당포
진영수
임재
느꼈으리라
용례
마마예프
따진다면
##코시다
##강릉
도화지
성풍
중대히
점력
중산리
덕태산
장문식
강재기
##관현악
미겔
초산나트륨
채색화
절영
오세조
고정희
##건조법
가풍
별주
##무조
몸신
모노리스
울릉군
페라이트
##중창곡
패리스
벽계리
##양축
##절대치
##치석
##전극기
##아노미
##그루
계군
도비산
파라볼라
다리받침
##생성기
##대역
외동딸
노궁
용음
풋감
##침하량
감해
##위문
차사
공포일
피보험이익
##조명희
이윤진
##배근도
##색주
##훼스큐에
##식탁
##외질
##유인물
조역
돌극
##승규
임호프
개전
##브베
이무기
##리퍼
핫
##순구
묘청
파라미터
##더덕
김병구
개모음
##준금치산
느슨
하얀꽃이
라샤
떨어진다면
나영주
##대통령령
머플
리졸
골드스미스
김상태
이희중
재조합
자육
서진성
##추에이
임계리
시조창
큰제사
곡선미
황금가지
가려먹
우정
권기환
홍지선
##색출
뽁
##할머니
미골
피자헛
유량
둘러본
산후증
전진교
구교남
능수
악동이
소정면
김태연
명경
##소관
담로
##당정
소쿠리
짐장
쿠르디스탄
철제품
이대훈
납촉
변조
노르아드레날린
초피나무
강용식
##앙소
석문면
재산형
계체석
##이득윤
##김학수
이종옥
##격발
마비
탤리
##쉔
우성식
진부
드리븐
##직령
##동물원
대점
안쪽복사
스트로
동여도
글래이저
복안
악함
농수산업
물건리
##리재
##울시
##트로파
하은용
##파열파
문헌
문석현
명약관화
필텍
오현택
사제관
내편이
조민상
가환군
맞물려져
초염기성암
박세호
조덕영
##깻잎
윤지환
##박성실
##냉소
##노스탤지어
밀성군
보조원
김옥
##과골
##하마르
첩이
이희웅
서일교
##역농
폴링
##제약사
등우선
강석봉
끼어들기
무녀리
슬레이드
##생전
김중권
윤명곤
숲길
사용수
필기도구
##무왕
##복대
허미트
투우장
계두
위고
의화학
서큘러
문보람
소편
##뮐미스터
고재진
여정자
이인범
응원자
##반전형
황홍섭
##당산굿
박범계
김도기
청풍군
요속
광학성
카즈마
##수사학
##득지
##성경륭
동일인
##장치장
파경
띤다
##흉막염
피커
정윤영
김나정
유환수
오이장아찌
##너물
##령선
##종렬
##관세사
##살펴볼
채영기
천재성
박경보
박장규
##설계하중
##지게미
##탕병
##사축
정한
승화기
밀착연접
김증
##대용식
한승우
강수명
권병철
##데이
모치
저인
오내원
##실행자
홍도연
##강류
피동태
김윤현
서브
자격자
대출계
내유동
오로라
계상이
문창용
신영순
은행가
리즌
과전압
좌심실
유륜
##호크
글레어
날아와서
군동면
##안화
안병진
시아버지
##김효실
보통밀
아전
이연선
##현패
토미
##메츠
요화
벽안
##조별
키운다
삼첨판
수관계
엔디
미간지
##삼초경
##습원
정학근
안국역
정희영
정했으며
류량
가져다
##윤경
좌우상하
월상
문경태
##단선형
##철퇴
바만
조준성
매입처
##해탕
연평도
스타덤
무쇠
고고고
양성관
똑소리
장세철
통발류
기본
##대첩
##츼에
원문
경험가
이질바퀴
구연산
순임금
필머
독활
아이슬링거
박광만
일원
근운동
왕초
털진득찰
##고도계
##흠원
슐
순혈주의
정선주
침지액
##심연
저출산
들보
맞춰진
##은데
이정민
세뿔
심부름센터
벌레
##순익
노란불
제주어
미황사
순정
여론전
살조기
##재터
##메틸벤젠
서나
브리검
맥브라이드
귀인
##자살
##품수
건들대
남천
정한영
메츠너
##필법
빛공해
슈타이너
##따름
맞쳐서
지정
##쿠싱
스톡브릿지
로저
주과포
퀜치에
추진축
##뉼산나트륨
세리아
기인
##하망
##진공관
긴몰개
##답변자
업경
김양하
심청가
장미
도쿄
나종혜
쥐새끼
##배배
##경력자
경제자유구역
##박락
##신전
사냥감
카플
수식
##금용
##파병
정대화
이주남
##끼이
이선빈
섞박지
겼다
##영소
지방광택
##디파이
채성호
비프
노동렬
강상준
##사천대
##신객
걸린
헥소겐
##재료연구소
탈레반
김두환
민중가요
##이명
##매고
슈
티엘
##말미잘
##적역
적개
챈들러
코렐라
##멀티
수책
안웅
##곡담
##구제제
##무양
##귀계
##프리프
올란도
##입상자
요롱
공모
특정수
낙하산
##노계가
송대
외래품
분리량
마쳤으며
영명사
임미향
##메마
김이나
용틀임
포스파티딜
##두낭
유양우
회해
##확인
솜방망이
자양품
채취
주탕
##본의
유희성
상박근
성선
##신임
오진영
가슴속
배영란
박기배
홍인화
##자립생활
박현규
장극
물질대사
연전
##진지
##보혁
개인플레이
두상화
##김윤수
침략군
엄지영
헵은
쳐졌
장은규
소통로
권이
총소리
##가만이
##상실자
공연윤리위원회
냉각액
난선
무학과
시핀
##티티
##사건시
##외집
이가옥
##우퍼
##달한
##독서치료
전개력
이자스민
##도양
이승욱
##오수유
높여갔
로펌
발뺌
끼워도
물상보증인
서상교
##전재
##연계성
두드린다
옥기율
친철원소
각질화
관광업
##군함
반파
전성곤
난이
##삼층석탑
뱀부
##꽃게
##경증
아드리안
이예나
인창
조윤선
폐울혈
부담
##정기
장광일
예르
닫집
파대
윗입술
초반전
비색관
고장액
목각
##적환
유춘식
롤필름
리오넬
##헤더
##피페
낙천리
해양경찰
##안전계
손실금
응소
소수
휘말리
레전더리
튜닉
토성동
색표준
##허터
##푸르
다산성
겉넓이
최명옥
당번
육지호
레츠고
##반사면
##구상안
임복희
##조성물
##탄성
##장치기
집단
##다우지
##사문석
대형
구해온
좁혔
이지호
손재식
대화상
험기
윤원상
억세
전선
경기만
전영철
##재조림
##관련지
김동관
조인다
##자바이칼
##서량
##청현
기로회
##피타
##위행
푸린
##제도사
서투름
조합주의
튄다
임영문
구상성
자치구
##식계
복승
##염관
가리산
##데치
강민식
소아치
##세이코
다마고치
뒴에
현행
친소
##경기장
염수선
##하드
이시욱
##한랭
앞당긴다
##벡
##수훈
감쇠
##케이크
찬밥
집산
레드원
가타카
##원풍
김병인
##리얼리즘
여의도
걸침
정비사
빈빈
윤경배
조기대
윤혜숙
##선언문
##임조
돌아다님
금정구
민장
송라면
깡
초겨울
##공조직
##인산염
임모
##오배자
황호균
##산벚나무
##둔근
##고혈
지역성
가까워진다
달걀꼴
끝남
##부란
고서적
##시공사
마윈
양승모
순직자
자살토끼
영원회귀
박영찬
목함지뢰
김택현
호비수리
##셔야
계목
럼
여겨진다
콜라드
류정현
##초차
##상알
박순진
##정착지
##견학
고원정
##쇄
자승
안홍영
##매보
증감
우울성
##세계무역센터
##큇을
초익공
##의녀
안신
##습독
타혈
##산민
##쿼터
국방일보
철통
박신애
##피복재
양지사
동량
충혜왕
장균
##거선
화구
창씨개명
##흑구
##티어스
특인
송원섭
원목
유승택
##관계국
매카시
추희
임철규
샌
##드비
들춰
와공
최창순
임태영
##연줄
무절제
춘조
##마커
간극비
거느린
목성
##미옥
아델
콜스
##나철
소단원
##귀걸이
##적응
하프워드
대전속록
대할
아버님
정재우
신영길
##비닛
##철관
알려준
##호음
생명표
근육계
분자영상
공소원
##소키
조한선
황명
홍순표
관존민비
신상효
##판매망
내항성
근흥면
이선규
어피
최용욱
이순아
변절
악학궤범
지급액
피습
얼마큼
근대나물
##전초전
이혜준
##간치
신상명세서
다신론
최수환
최건식
유성음
최찬환
##허버트
왕란
##헌팅
##말아톤
면내
알고리듬
##공범
##글리콜산
##전투력
##완대
오세찬
##칸타
바네사
힌두스탄
##음파
##땀샘
골병
주무르
진눈
이창균
##질병관리본부
꼼꼼
넘나듦이
##여져서
위룰
살린
탁치
윤경은
천금성
떠놓
스카트
##비교표
##교세포
한종훈
자랄
##습열
씹힘
압상
무거웠
동틀
체징
대가식
모고
레슬러
시도우
성근
서품
##시서
치렀
조호연
##최정욱
멈포드
##이동은
##퀴얼러
##보문자
화근거리
##착륙대
전동성당
##질환
수신료
인조
원용재
온천천
##문짝
굼벵이
벤젠
팽윤제
구송리
양해영
오병두
##신가
서프라이즈
최인호
포스폰산
이면우
기숙
독립문
급진파
##초망
자라났
갑반
##사독
았
정은
효도
조미정
옵틱
이준아
콘트
클래어
##낱
철학자
##배상주의
##상법
##목용
아뢴
끌어오
서인수
이판용
##내려갈
쌀도둑
패
갈수기
##기입
청황
##위과
##균첨
##혈통주의
##왕사
##평수량
모흐
알아준
##지속가능발전위
공부방
논거
##방출미
도귀
한중희
김용판
혼합산
소색
##려니와
미야마
##그로테스크
노령
위즈덤
단절기
##진이
징광
정남혁
##첩살이
##청청
##한교
로저에버트
림프계
##반접
##가글링
자던
박광섭
뜨겁
##각연
동영
빙글빙글
##맞춤법
식개
##정절
최양미
##득세
##랭귀지
##싸이트
재개
##스러워
##낭포
아름다움뿐만
##임상
주관화
게마인샤프트
회국
신현경
스페인인
후이즈
맞대결
구군
##퍼걸러
상연
경반층
김명희
인덕
##현상론
곁집
섬멸전
깻묵
복숭아
혼처
레코딩
##럿을
공후
한상학
##채권자
풍호동
사물놀이
김재강
##셀러
우곡리
관의
자주달개비
설검
아파라
사색가
볼록볼록
##여축
자본금
차아인산
##실까봐
##증표
##동혈
심리주의
연횡
##프류
덩굴성
해장
급진주의자
##히드라진
##깐
당선자
##호전과
작용기
오윤경
꽤
##청회색
넛지
티미
##행사시
묶였
마쓰오카
정동섭
채플힐
넓적부리
##공막
맥동
##사호
수정반
이근오
##진연
##도찬
##기관지
그루벼
그믐날
옌자간
##뷜
##사탑
혼합비
요충지
윤효섭
잔국
뒤꿈치
##류장수
이영자
집안
안성혁
우퍼
표본
아려서
##이식편
씬지
##사물탕
닫혔
##돌대
##다람쥐
팔걸이
비중표
허버드
프랜차이즈
신종희
지열
##육태
##등메
##체구
이삭목
날개무늬
한동준
들쑥날쑥
희묵
군수용
##선
명승고적
히트
라나
김상남
쇽업쇼버에서
오시
##강촌
보훈
평라선
꿈꿔온
태양경
##태드
유닛화
##익산시
쉴
총무
페이드
계보기
우쑹강
##스칼렛
작헌례
임창
##환축
##부다이
##손혜경
안계일
전알
이희수
직급
##나타났
야마가타현
##풀림
##생활관
설동
##숟갈
탄알
박인로
##구디
##강성진
머천트
이병휘
토사물
구성시
입법화
##환공
##웨스트
이중과세
##약사법
##석광
웅변조
피스터
##자다
삼패
시클로헥산
류철호
결실
##선형근
김성천
아물고사리
교원노조
##정진호
살랑살랑
##사카에
##가왕
떡집
임교빈
흘러내릴
운산동
풍향계
열강
파스토
재사용
##현과
안수진
연질고무
##강현두
미상
##부득
전상범
한만
폴리염화바이페닐
우라늄
말린다
실상산
학가
인단백질
송이찜
##주경로
유형곤
스테로이드제
##아쉬운
심우중
많이
##푸쉬
타네
포만
##팔라듐
편당
설사약
##압각
임성실
고로
다이달로스
베네
특발성
대독
##외탕
얻
허둥댄
견인성
노마
배포판
동떨어진
##모형
##리후
율령
각종
##풍수
##현경
##아누
교배석
임억령
##염색성
##연방국
##재치
##편포
락세
선적항
연소력
능창대군
맥심
부랴부랴
##산직
##우순
##여가
예인수
교하
백무열
##애널리스트
##상편
##떨어져야
##다가설
##리엔지니어링
수베린
##변성원
용안육
우반구
오디션
택티컬
주보랑
##세포내
홍연찬
탈면
반증주의
중계소
사라졌으면
대륙빙
최형길
자산운용
페즈
##비단
천일사초
##자발성
가군
든다며
은회색
화처
동해
증상만
##유동균
경윤
##검층
##지저
단립
실험교
포준
##탈골
한선우
지암
족당
##낙하
##다를지라도
##동범
설성수
송슬기
끄덕임
차폐막
나부끼
니지
신농본초경
유종훈
##더그레
##이오수
배두환
망설임
압량면
박규희
오영중
##상디
건흥
##옷자락
폐물
안장부
호염성
퍼트
##이령
##따뜻
중간섬유
공간
로레
##양거
서향
잡아당겨진
##전선대
##팬텀
초산에틸
법관
산장
장승호
양창욱
토마토
피어난
마우나로아
밀어닥칠
스노볼
뾰쪽한
거무스레
##건구역
세필
사그라지
##허익
왕망전
백립
나주향교
김훈호
폼산
##식사량
백양
당현
출입처
##평행사변형
여들
김제숭
이충진
##잍
##만형
##기현
독단론자
##이송용
후출
찌푸린
장우환
서술문
##정희선
태곡
부린다고
어시장
##렬의
정당인
멋모르
자이로
탈선행위
##대이동
##발송자
근대식
바라직한
정경진
유형동물문
첼제
콰도
##합할
갱구
##경완
정헌영
청정에너지
에리
##군사력
최응렬
김시준
##덩크
##충모
실축
##동원력
위탁자
##속물
김명미
화염
이뤄진다는
##대한다
##루카
이의갑
유시완
##열전도율
비압축성
##융의
유경재
##동질감
정완수
현미빵
중장거리
법랍
이재환
##여학생
##연양
미루
강매
개자리
##별체
당골
##흥국
복학
진위면
##즈인
동서천
##채납
기외
지문학
성황당
난상
광평
준생팔전
범법자
애타주의
이은우
봉전
장더장
공벽
##처영
##신양
신호항
마버
시용
특명
퍼짐
생건지황
##채종
코다
장기승
##수호자
##환자실
##대낚시
맞불
##교직
흐른다
##계량화
##국적기
##기후도
장독소
김사량
희귀본
능
##장염전
##윤우진
난치병
젋
삼주
식육
##한도
##가승
피웠으므로
김정환
##커버리지
삼척군
칭병
나지
##경양식
심판자
매동
가파르
횡경
대미지
유홍준
##선등
김정의
관정
횡단도
어김
##조다이
근음
##헥산
패륜아
휴가지
회록
##양밀
김송숙
우려먹
갑문
북미
##미국
몽테
자리공
기진기
##갈모
체기
회교도
##아닐린
붕장어
르자오
홍두표
##전복
허수진
박원석
기암절벽
너무
텐데도
임미영
장충
##하측
양희석
뺷증보어제궁궐지뺸
최광희
워진
##진주
이우철
##에버그린
맞아들일
최종기
##임채홍
##권기동
고움
블랜더
차폐선
##구동축
##항간
보형물
명조체
##보진
이일항
신상옥
##경품
멋들어지
##서사문
##정당인
권춘근
##병옥
조병헌
고준한
탈조
민전갱이
탕위
임귀환
색은
##경찰력
부수리
##회전력
##배심
야구단
변할
간부
인기상
안전계
##관유
선광기
황산도
##동부
아고다
##결핍
외짝사랑
##좀비비추
##도식
##데니어
전개판
##난안
흑태
##독트린
##빠짐
장한나
매쉬
라잔
윤보라
들어올렸
##서속
쇄파
##규전
개종자
황정혜
훈련대
디엠비
자양면
##깅특성
##만관
무거워짐
생길
양대웅
의거
봤
구산동
정삭
에니스
##음연
##패러디
##노동법
##주련
안인영
가식
윗머리
굴통
속눈섭
고르바초프
하승한
도축
서랍
손대락
##목승
##적대
최동선
개찬
##충상
겉핥기
동공
##계종
##찰자
그렇지만
허천강
반가산기
정건웅
상장지수
##침례
균열
취학
##먼
밀어내기
윗선
##놀이터
##감소기
##질순
과열기
##이소부탄
뭘까요
##카트
수소음심경
소재광
홍영희
##봉입
##직과
가로놓이
##전병주
외워라
지구전후도
##문순
망가뜨린
아울
최일목
부친다고
주광진
불명열
##취조
이분법
##미노타우로스
전두근
##구좌
우해서
고명준
##손태원
남외동
민수기
유성용
갸름
안재희
단풍박쥐나무
햇님
에이어
노멀
새틀라이트
황연석
석월
##올리고머
토란국
랜델
들려줄
루아페후
희재
최태원
날아오
##기준화
##려사
수련기
자동판매기
서수정
양창모
간해
이영옥
##우럭과
한혜림
동래군
전문형
화고
최충호
##메니스커스
노비
##후현
말의
연보라
##압축
바부다
박현이
황우성
##쟈오위
올꺽정이
노생
시철
이다해
심태현
증오
왕공
##에탄올아민
노희원
##강출
##위목
세지마
손지선
최성태
박숙희
노력인민
찬탁
담긴다
썰
최우
오종섭
##부풀
시운전
##늑대
퀴놀론계열
행주질
샤스타데이지
이상갑
구왕궁
밥물
김교선
김희민
##학예
충당
##별무
##으려나
드러냈으나
의기사
장콩
성덕리
어성
절량
##퀄서비스의
##활물질
인버스
한지형
배한경
##감편
부포
##파괴점
##럼블
##표모
형평법
정문섭
수바늘
로더로
킬리만자로
강경운
회덕동
항변
탈루액
내보냄
머스캣
보형
##천촉
정자은행
백경진
오정동
박창현
##훼스큐는
후각신경
화술
트롭
엡손
당회
##뮌
몰도바
타케나카
대론
삼근리
신우균
산계
광업권
모의탄
##바비큐
무마
중립지대
챔플레인
전신망
경쟁률
##홍교
님비
##퇴성
식자
##북원
##조종원
강영모
정지혁
김인배
##짐시
일으키
이찬희
히포크라테스
백만인
혐렵업체
출무
부인용
##앤더
##도형
연화제
화학종
##투명대
전남편
부집게
##양수계
뭄
반가상
투표수
파복
##다로
##침상
까페
설거지통
쟈근쇼마
위종
석세영
##갈반병
촉매법
고부조
이기봉
김화경
##재근
손유희
동물상
젓갈류
문찬석
기밀비
민유림
토월
최규석
숙신산
주관
갯장구채
산정기
##이라든지
미적거리
조한경
봄옷
베니토
첨지
루시다
##으셔도
조경현
산감
안태영
김상명
##묘실
알봉분지
조영길
##르동
##성효
##엠제이
무들
골볼
##준화
##삼공
로렌티스
일손
##촛불
##다며
발수성
정근식
##최종서
분할급
##변산
고깔제비꽃
고일광
하킴
꼬띠아르
##대홍
##정행
신자
##가자
조형석
##앞섬
지겨워서
##소프라노
저령
##어조
##시험기
프린트
오혜주
참담
슛
저며서
조형곤
윤상인
##이승곤
곽호상
김근성
제권
##지객
발칸
##마일
##추대
이헌
윤택근
차상육
프랑켄
소실
중앙구
옥당
김제철
##역수
신고
목판
인가
##강훈
뉴욕
어정
앉은뱅이놀이
탈옥수
몽고뽕나무
절대자
앵카
##광릉용수염
장은숙
불요의
##부접
##민준
환상주의
살림채
펼친다면
석천리
쇱
일어난
##비파괴
틴티
역차별
구고
##이상집
반겼
단재로
도강
중체서용
교차형
조남대
##리액터
양쯔
##훼
김경국
##여중
사이코패스
어종
##사귈
전설화
##갈릭
천태산
올린다는
토일
소방령
서준원
공동경비구역
조명식
구덕회
화초
의정비
잎나무
비둘기집
누에알
루쉰
조문객
##코쿠
점법
활산
##니어링
폭병
최석주
춘추공양전
거쳐온
평가제도
##아라
김예린
구한국
##태토
슈에
환적
클렌징
한기대
배장원
##하라
모래알
쭈꾸미
치병
서동린
##산간
##제행
##소관청
지레
무사
분쇄능
임차주
감류
핀잔
츈사오
패들링
되돌릴
덜덜이
숭경
단발
한자성어
노철우
##날도래
하태석
예도
##개함
구워진
김대한
경주군
##미터기
수신판
지정석
정형수
소방적
##근천
팔순
닉슨
물메기
##고과
##마정
해외
신서사
유료도로
전계록
김흥섭
피르
유청
##띄우기
나절
조성신
반역죄
흠경각
##레이트
낭장
남상진
##부산진
스파이스
정지완
##출입국
놈
##퓸에
저능
미선나무
똥배
##기세관
정복희
##건축술
상암
##성룡
##통학
요생
##집회소
둔대
곽노준
승파
이장택
룰로
##개재
박숙현
지자극
저산소증
##튀
오도미
##수색역
바토
##행수
##싱
노석
##의학도
허경무
디램
체중
서원리
그레타
정인재
##랜더
##내
방수원
##구
춤출
공방전
또는
딩볜
##민유
##포단
펄스폭
##황태자
##득계
최항석
##손녀
심해진다는
##연번
##낙엽수
##전자저울
극진
여중생
갇히
어땠
##음선
가쓰
해와
플래시백
##탐지견
##호자
박경아
신흥철
노계
##니체
##괴현상
##전별
##토양층
알아차려
취했으며
윤용식
##직지
경추
다론
##처할
##화계
혈류
플랭클린
심미관
박원균
논해야
벤치
##렬인장강도를
아타미온천
##티모
무녀도
던칸
##진평
제아
자화자찬
##전균
저울
##령직
실량
##붙혀
윈가
판결이유
계피정유
신데
##발발
##규격도
##부어넣
자단향
케너
김생규
창기리
지위
사무처
안승원
정치권력
타이거
일곱동갈망둑
##어린아이
이장명
윤태순
개불알풀
역치
스트레칭
##측기
홍가자미
한국영
토목학
##포양
강선주
이원
##송지영
데치
침윤선
지포리
##각상
탄다는
검출기
하혜정
##사이공
금동신
##아이비
앉은뱅이
두터비
우글우글
아몽
모재
연광
아돌프
담핵
##상계
제로엔
##용감
송규근
낙언
종다리
##이부시
중휴
앞쪽
안승범
임직
신강
##인현
정송
교통부
##적반
임준후
##한영
꾸루룩
멀리뛰기
빗살수염벌레
권징
##양서
손홍
명간
##구재
##비뇨기과
용추
느낀다거나
##여겼으나
##본다
법률
운천
인민공화국
처단형
##자린
전병호
임수택
브장송
켑스트럼계수가
판병부사
단열층
##규환
##파스
작품
구상
무고죄
##아운
##스테인리스강
졸린
##안복
##록스
##합음
##공지율
##특산종
백정훈
전용구
지속
이진열
의장수
은평뉴타운
녯퓌던
윤영재
비트시
애티
##십계
간결
선표
##커버링
뭍
느릴
박선용
##머스
시파
##정희정
나례가
감투
##찮을
담보액
온드라
매맞
더러
코친차이나
최영실
근절
##폐가식
부정
##화법
곱했
청남대
다행감
최화영
석고형
미부
##임종
##혜전
싱글벙글
채수기
조재윤
##순두부
무말랭이
논산시
필방
응징
##릐예
깐깐히
페널티법을
속절없이
균질체
프로피온산균
##심각성
##구총
##원태
에밀리오
콘텍트
카운티
##오법
김덕술
##러닝
##전력량계
이덕진
승용마
권영일
##투영면
로하스
##한열
동홍동
잘생긴
만연
개옻나무
측미기
##열전력
##감람석
탁현
##객반
##급통
어약
창면
##거류민단
끊여서
유두연
##태질
니트로메탄
군탄
견비
##호혈
악구
미백
한재형
시게이트
##그레이즈
지나갈까
흑임자
기류
향산
엮여서
##극값
키바
박양근
박제웅
##참조
따로국밥
다층막
생굴
##유입량
축마력
아크롤레인
합필
부어서
김기은
##코인
조성범
자예선숙
월촌
##소통로
##낙범
강화정
사기전
돔
윤종휘
꿔
오색실
대구역
든다든가
정학기
이세린
지구면
##부채액
흔들거린다는
모리셔스
댱량비를
정완균
뤼디
##기화기
정인준
##각
##노든
조수입
지역민
대순
인가제
##퍼낼
##기여
뺷학습지도요령뺸에
##회리
##수평경
남색
쯂
일몰시
##간별
##김정준
도요타
모계친
##덕기
하장
우츠노미야
##김성
##주람
##산목
끼쳐야
베풂으로써
외워서
##당단백질
라거나
놀랐었
밑바탕
##다뤘
극원
재정경제부
줄기잎
검정말
대기동
김두식
러블리
##발포
자나방과
키온
살아온
##미진
정선이
권영중
김형숙
##어이없
##드웨이
서상수
휴양원
축들
어세스먼트
연락회
아이들링
베짱이
택한
복고
##변물
천희영
두화
장혁진
김경복
##학수
삼인칭
김도원
세틸알코올
##저널리스트
##미라
##흰
패자
메밀꽃
##유회
방점
허원석
##했
##혁폐
##계단만
섬요
후성설
임해
주도로
##중층
노인정
강상혁
##코토
##카토리
김선영
청송
간경도감
##각인
난소암
##평정건
청구가요
면간
##노가
##디치
예린
고본
양종석
열쇄
##전해
오등동
##창욱
꽃제비
주성동
튜티
##자추
등현
호숫가
호면
조오현
홍순남
정영헌
장용훈
##이주자
##포공영
행위
##무거워서
주동근
라멘교
##재등록
하주식
앞장섬
김효원
숙지황
황충연
장혜순
쫓
프리드먼
##예견
##신호인
짱나
이모티콘
시교
철조선
척
상시관
##한검
신정신
미취학
##팰리스
교섭
##효민
총비용
히로세
육갑
집합체
클레멘스
타셈싱
##경론
##김옥태
김해경
무작위화
##데스크
작업기
이만근
##출연금
일점
##각막
요모타
##횟수
열렸으며
상암로
연개소문
류헤이
동력인
##원동규
매과
드렁큰
상귀
을과
뱡향각을
조지프
이만우
공복
그곳
오윤식
##군병
조보형
반월판
예천
용융점
마황탕
반투과성
##키슨
엉망진창
조규형
웅덩이
공성원
졸릴
지상관제
맛집
산농
단백석
##디멘트
다스린다
강제호
작아진
뭉그러진
최종준
비닐장갑
예법
육군훈련소
덤불숲
##는가라고
##태강
진함
농지법
볼튼
소비자
오창읍
조만식
빈값
편광자
김영재
쓸라면
##주택난
김영효
팔다리
##해유
춘장
##근육염
최에스더
검은담비
##이해구
사초
설화집
치보
귀비
최석천
퍼디난드
백양산
디메틸에테르
바빌로니아
##옥살
능청
아우
##못한다면
##수출환
체장이
제월광풍
식읍
해괴제
조명구
장우양
헵의
정해질
##휴양원
회하
##앙뜨와네뜨
창평천
##웅사
##비심
무신정변
여보시오
조동제
##문문
말고기
쏱아져오른쪽
호양
나뒹구
##추하
임종선
칠지
##덥
청소기
##낙엽수림
기른
정용찬
권희경
##접빈객
면세
##무설
폐표
착유기
이동흡
##공상
노두
지켜야한다
뺷아낌없이
허두
추우
안정선
##사법인
길러온
##관로
셸
임소
욀
운운
##한성심
##가격
백부근
김대명
고든램지
당수
눌어붙
##위황
허준영
주요동
떠구지머리
임규
##측대
품새
수사대
함한희
세포액
##지원국
화개면
북어탕
##김영문
최경철
할
##까다로우
불합격품
##병반
홍장현
##다룬다
퀜칭처리
정선화
찾아감
##중앙값
##깅의
자코뱅
브뤼노
엇시조
##축구장
##축배
##못해
쇠머리
광대머리
무소부재
소합향
인사처
##비온
여사건
날아온다
고구마튀김
손호상
##백성
권순직
강죽형
##규산나트륨
새겨볼
대황교동
미장공
휴비스
##합니다만
총각
국본
##소학교
신과
갑상샘
##김동하
주특기
천혜
농황
##가라함
조인현
##요철
홴에
백종화
조선식산은행
피나무
광각
단핵구
##견장
##체물
##중각
##양접시
##출금
돋아날
렙
창생
건화
피격
##갇힌
감내
말라가
핫라인
##피루브산
고정환
##대륙판
벽향주
유시순
##응집력
실차
김평구
피본
류제정
교배례
매실주
에르븀
파탄
반심성암
김경인
##절학
손홍주
뽑아낸
##코르티손
##색차계
##소례복
##목표물
황운봉
외운다고
유주하
압출법
##바이나
##안양
루카
##남북
##조정장
##통제영학당
교토기
잎
설염
이병남
패물
비빔냉면
파시오
윤태환
레드아이
##킨다
날개폭
외영
##공작금
두꺼워야
금운
선용
혁기
시금장
##영회
##공병대
상드
전농
고태경
파투
조광권
도료
수여
##천창
##타각
##히엡
가시권
##포함
##랑산
휘플
구속력
갈매
##진수군
정보원
단취
통일감
##만입
##북송
혈지
깨어난
정이상
임경원
퇴조기
##행중
##우야
##박편
##나르도
참회
쥐오줌풀
##숙련도
앞지름
격해도
##더나
연변
샤머니즘
유두
##원용한
##이연구
녹동
##용작
장영길
소준영
##치레
증식
##치위
##신첩
송기준
##연구비
불균일계
옥색
막다른
최형배
심현기
첨구
##게증
이산화
묵지
강재수
콤프턴
샌안토니오
##와상
희사
치렀으며
폭관
대한민국
김수임
서상희
여겨왔으나
대능원
##가급
##나타난다는
무연고
##블루
권선주
##에어컨
누수
##공제
황정리
이진승
고이
츈일의
연합철강
서보성
됬으며
##칼라일
대외비
귀족원
##손실금
슈라지
비틀대
##병자
염산염
##풀기
윤호영
운월리
##효경
줄다리
연부
데이크론
추녀
공중그네
##길
포장도로
정일웅
##입종
##상례
협장
백규태
이세
노옥희
하위증
##노혼
건조제
##르노
젋은층이
길상사
이성태
노성천
관역
엉터리
##유거리
##장창
다이나
위험물
##박유진
##지방체
일점쇄선
##유성룡
은중경
체신
고충석
업집
호너
장민순
##베타
##원유
##하굿둑
김주홍
관용차
메탄가스
영동군
꾸미
##전와
##지엽
트라이애슬론
납채
##청림
김만규
공용전
##힐라
##저혈
##큘러스의
##충연
연자전
묘책
환호
파이낸스
홍재성
사회진화론
세근
자회색
아름동
윤혁기
이광원
이건세
주어
보헤미아
합연
검색표
##적장
이상선
세포진
##봉환
화암사
남지영
파고율
##호별
쌍벽
안용복
물기둥
##이수로
근사식
새벽바람
바뀐다
계방산
##외자
하얘
경덕진
행구
억눌려왔
악단
만니톨
쩡
지랄병
개집
김제규
앍
사절단
차주환
측백나뭇과
적거
매호
포자
##돌피
카치아
##양능
##충과
##압류
근조직
##착석
##응징
##루테인
박성찬
##수간호사
안영훈
점질층
##노선
담배
당할까봐
독성
현황단
쫓겨난다면
##버즘
스모키
우당
추레
##제스
##투피어
낙성식
하안동
고려증권
##기초자
##박근영
찰수수
부배
최봉준
전문연
##한지희
신황호
##설탕
안정희
전호진
##의선
날콩
장근석
권선
##뽕나무
요크셔
##기장대풀
##부딪쳤
유동
박대근
##별항
이담
이상고
김여진
요곡
범함
중심핵
데오도르
시스터스
공훈의
##냉장육
조석희
자진강강술래
두줄망둑
##해상
객차
곱한
##럿부재에는
통나무
글쓰기
김희종
인피니트
##실설
조연심
유도전동기
##마유
김백균
대아
양압력
브레튼
##실리콘밸리
끝맺
인종학
탁족회
##편강
티오펜
운전법
훌
방위병
누판고
##험구가
선호제
추월선
##사례
##카누
오곡밥
##동승
김훈주
국민감정
##조사법
##공채
복잡화
최찬영
휘감기
##차우
권정일
제식
내반원
이계혁
##라거든
우면산
##인근
탄소성
##두들
온데간데없이
배지훈
안종
조정대
나희
향직
호미곶면
여읜
##태남
서금
발진관
##반길
고극
여말
##내사시
쉬이
##산위
신선화
들여가
지나간다는
이영록
즈치
##란자로
하창
##고무나무
##피스크
##돼왔
박스스타일
##역사관
김희완
곽영수
##해야지
클로로메탄
풀리
##수강
##고추
##해수면
장희순
역로
주심
공운
##착정
화란
##익일
##상징
이나경
##월등히
대학
##뜸
##경경
더지
##오페
블라닉
분방
신영규
##빙식
검사선
##고설
이천구
##간제
##투과도
언덕
##행료
마르케스
##사이토
서천읍
비포장도로
채종훈
라비
보총
##잖은
우째
빌려간
##체목
##부늑골
칭량병
차윤경
혜자
##캉캉
##렬대는
##입학금
개흉
강병철
##단식재
승정원일기
박천웅
독립권
##지배권
##여물
석정원
셀로비오스
실루리아기
##냉장창고
김종경
혐
텔레비죤
댜
리바이
##결재
현충원
##조사량
개념론
##산체
그루폰
굽다리
적초상
##대사관
##카운트
진영민
##해봉
사들일
저물녘
식염수
##우실
김형춘
급수조
##가락시장
##유정
안명일
촬영대
제령
##방추형
##광부
##미파
감세
문예지
성년식
간목
디젤유
##투융자
함평항
고용복
현금급
옥추단
연주실
##귀영
오션
관악구
복주
안찬우
일터
임면
##폐해
갯
기름칠
##군로
##봉공
불승
##태하항
등가계
면역학
##스크래치
차선
땅따먹기
##완료
풀어낸다
별군직청
안명숙
끔직
회화문
정동수
##방호벽
개획
윤심
주등
발계
##왕겨
상농
주영길
죄악
##모정
코르크층
살펴야
##필기
파단
신심
노홍승
축동
##루딩
##포켓몬스터
조태준
귓볼을
##재정리
익혔
##장민호
문산
##방사기
이민원
##냈었
##김수지
열섬
진주층
##스포글리
##보수성
김찬기
이차성
건초
##삼박
##팔락
지리학
윤혜미
##백도화
기청제
샴
이시모토
초단
하창덕
텔레컴
##홍련
##켙이
##출구
명란
##체협
##로
헤프
광범위
##창립
황대연
널방
##프로락틴
##겨루
통탈목
광폭
보푸라기
##쪽
##쟌
제첨
무릉천
박서기
##지여
##네소스
기다
취두
송석민
해남
리본
용합
교양오락비
군관구
##배부
산학교수
관고
사양토
공용우
어우러짐
##외환은행
등초
신옥근
##폭열
오하이오강
옥갑
내어놓
박병오
흔들거리
계상
상원
크랩
결장
세례
유채
김미영
##운용비
##조울병
거스르
극소량
민왕식
키워갔
둔덕
글루탐
##건류
해져
붕어섬
##항장
양자화
견성
##구혁
##리에
무네미로
처진다
포일
이브생로랑
완연히
##로션
##토론
하의상달
카사팔카
##천태
대부분
##홍익인간
자본가
양진
강종원
맡기
봉익
이기학
아프리칸스
민승
오지수
몬드리안
주산업
##치은염
##풋콩
빠릿빠릿
김주남
##김당
내첨사
슈리
내다지
첨차
전륜
서문기
##글리터
##역양
준결승
##동박
크롬북
##갈치
지움
직선제
리커버리
##중청
챔범에는
##족발
인민일보
브레인스토밍
박물지
##체재
징
안동순
##엇갈림
##정삼
누그러지
대칭면
김향자
잠자리피
콤솔
##미륵암
성가심
##깅토크극
창이채
블랙먼
##선하
로리가
주산면
분수차
어장도
##타지크
##디코더
##보수파
부숴서
엿보인다는
##션디
구세
하비
노동건
입법권
##분장대
칡베
##하중계수
비탈
서울고속
##브림
##진국이
주서
송호영
##여와
##순우
정영동
카윈
##황은
디스토마
노오석
미네소타
##쥐똥
현도
##일산
##호학
무명잡세
김경실
안혜성
고속로
헤어지
한승희
후군
##자책
이의규
##밈
이원영
야근
르로이
평음
송태석
##방송학
박준선
소농가
##구법
박슬기
혀암
선캄브리아기
트리나
서울특별시
성공영
안경업
횐쥐의
진중일기
결핵체
아즈텍
지멘즈
##생계란
솔선수범
##변호사
##취한
##착임
동갈돔과
##업도
부서
##간장
차축
##회귀분석
손경호
##이윤정
규정량
##우리
##전염병
마커스
프룻
##파고계
김수태
##포자도
삼국
운송주선인
##소지율
##취허
신논현역
강윤수
##떨어진다
##인산나트륨
박정택
이채봉
강은구
이중창
징험
욱일장
##합격선
황선하
말문
##넓이
가슴지느러미
서윤영
박취
진동기
로프웨이
윌리엄모리스
##훈련소
마근
도너츠
맞딱드리
광곡
최영진
지팡
##먹물버섯
애국
스턱스넷
크랙
직후
##탄신
##오그
식중독
##눌음
##주권주의
이눌린
정첩
정경선
이중신
홍성원
간칭
선와
##순기능
절교
연속교
##압조
법체계
오인혜
##리듬감
로베스피에르
젓대
글리옥실산
추적자
##디엠
제일보
스파이크
화학식
##세의
테니스공
##전세
음부호
진찬용
##금운모
부스러기
##차곡
##희기
##회창
##두둑
저개발
##예술가
버선
에미그레
성심
들으며
야탑
채창석
교청
허무
자궁목
갈근
권고사직
익힌다면
주형
서바이버
권영례
##의해
##승윤
탈거
##섭동
고대원
위할
장혈
번거로우
##가와
재수굿
벤토나이트
고경숙
히로시마만
전영태
만장굴
하얀데
##말초
##위드
태림
##메테
어안석
##김상헌
진영
갈모산방
장본
탁영진
강권규
적응
유문수
강마
가뢰
봤으니
영화업자
##특징짓
전홍석
웰콤
백현식
남다른
과학화
##포도막염
국제협력의사
##평화인권연대
##동속
##정좌
옥수
엽주
문양역
송윤
##뉴클레오시드
개마
싱그러움
우양호
##생명공학기술
점토층
##량재
##비슷
##후숙
토건
달아올라
세과
구성모
##나무못
##아탄
과음
##층서학
##신총
민충정공
근구
##변자
승리자
유단
사탄
백원칠
아르카
쿼터
##최종점
##차단기
##박지훈
##레벤
##스테인리스
##베르또
전전
학정동
잊어버린
##영식
사지원
검객
재거
윤병섭
##웨이보
고막
##층시
윤덕근
일부자
##자세포
##시즈쿠
##강수량
가텔
두통약
##평이
##공동물
##복거리
끈적
포르트
지켜봐야
##본풀이
##근섬유
양신추
##아신
##부액
##방전로
짓밟
클랩
관조
십자가
소역
요수
청운교
석회
미릭
눈길
일그러뜨리
복비
윤범식
산란계
##초약
하이엔드
시스형
김희찬
유방
##보험가액
쉬워도
황한
##안내자
슈퍼비전
최강식
##산더
쭉지
오환일
##골수염
기증물
위용
##품인
##매부
조희준
탁한호
##침목
##주요인
##요항
부동산세
##놓인다
호객
얼씨구나
##장재비
반턱맞춤
##껀
##연상연하
파회
백준호
##하헌주
방글
서린
테브
문병인
스코리아
통석
##절당
재감염
기록부
식물무늬
터뜨린
기결
##다리미
종자산
문광수
##이축
규질암
##타트
만파
수라도
##베어스
##나타나
스타드
##목조가
지도론
희끄무레
민락동
##친
영유권
전기냉장고
##노순
##봉준
차동석
이패
##판의
어지러울
해마체
##곡우
사형
초전도
##닥터스
김종형
종이쪽
##줄게
##피신
황경연
나혜련
박상갑
빨개지고
분비선
캐낼
표내
순백색
사바강
군항
##성종상
##돌소리
##배수공
##외차
##병회
조어도
##간헐
점결탄
회피
오석민
면주전
널따란
##잠복
양국관
카세
##이탑
남남
건계
선한길
재추진
존재
만날
임선호
끌어당겨서
꾸지람
강안나
##용기화
유배
##냉하
##위겨
최관식
천주교회
##하운
입침
들여진
엇결
대방
기흉
한드
자료철
실종사건
장희재
##격자무늬
커
##양수련
세이크
스파크
##팅게
처가
건너오
똑똑히
##구매자
##수료생
지종덕
##저항계
유휴병
거망산
##틸다
##한다라고
##열량식
무성산
구투
하니
##이호규
황동석
당리동
둘레길
##탁해
##판형
##씽크
끄떡
약광
##국사관
##살아가
카노티에
속상
##괌
김갑일
지크
##령장
##미코드
##하좌
##통계청
##유지나
못갖춘마디
관광농원
##타마가와
철매염제
가뭄철
양태호
##표준체
##팔랑
##순이
##진표
간섭무늬
관한
##자유
핵응축
짜라
##아다가
적시기
강기정
##정해져
묘자리
최연성
빌보드
격멸
부피
들어내
기불
##알칸
저장액
올라간
##대동
선봉대
거쳐가
박진영
##요구시
##광개토대왕
수뢰장
갈대발
##사관생
즙채
이명현
고진수
동경심
##달기
##주얼
##식인
광회
게송
만듦으로
맥인
황해중
##졸업
해치
##환기통
어영
##텔레콤
박문찬
##청하
##질인
##가로축
심효섭
흰무리
##술상
삼태자
##어김
##선태
무르나우
애달프
프롤레타리아트
시집와
인책
탁장
윤기용
주재인
판별기
문서
##테크닉
공작석
데쳐
한선경
둥굴레
김희순
##표사
띄우
미래소년
친화성
구엄
키리
정경채
##태옥
##임파구
##흑채
불완전성
##뺸은
##변신
우점식생
양촌집
장송곡
##벤쳐
박혁규
둔할
간접강제
##역창
수국
데포르마시옹
리정
피라미드형
##한요통
빨아들인다
##당해왔
##수뇌
다변형
김동미
##으신가
받아쓰
부정교합
마라카스
일과리
마이너스
##기통
유난히
##틔
끈질김
마그노
포마
##답호
이호중
##코끼리조개
##테메
공동
동속
칸디
##팔라
결판
속성법
크론병
목도장
산유자
##새엽
노승혁
##소용
##장니
##엔트로피
그구
소방청
묘쇄공
이뻤
예스
정보환
김민현
##세정력
##본말
골절
인쇄물
엄대
이성근
##저우
##치의
정준영
럭비공
블랜딩
이승응
##유리나
##기상특보
평행면
성곡리
##자급률
##죠
나뉨수
##당상
관유
마경
입신양명
채산제
##영개
수요시위
타격수
##황백
석순
##카지
온어
어르신
다구치
해평면
지문
숙취
노동조합주의
양승환
슬러
마호성
겨룬다
안마기
장대영
간병의
기뻐했
잉크병
##항행
브러더스
겹저고리
전신기
선길
##속정
##명판
캐닝
공급
##라바티
##천결
동교동
##델린
강진이
##탯을
##통근
##금도금
##자파
황비동석
재고량
월스트리트
유팔무
아폴로니
스케치북
돌담장
##실습장
##꾸준히
##불능증
탞
중공
퍼뜨려야
강약
박종세
윤하
오르내릴
뇌동
부어요
##내전근
굳은살
##추주
##첨두치
##계폐
비용량
##죠우
##합법화
맷돌
겁먹
위순
부생균
저모음
무통
이경돈
##향장품
##오른다는
##캐이
기원서
사방
##차료
##어구
##상행
박용부
##각암
##계처
양주경
##느냐
##장성지
오화영
##감로
어딜까
배정미
석진용
강사료
##가저
임신여
조상명
전고은
##알파
범법
탁상
남언경
심욕
##알고리즘
##빙판
간섭음
탕도
진천읍
선집
##동거인
장명화
안영선
관복
김귀
서장우
##왈츠
금호읍
유선영
##복평
##고출력
메틸셀룰로스
발랄
짠하
내세운다
소방교
아고라
신량
이란
도변
##오리나무
농상집요
##인가증
##듀케이
##즉각
낙지회
올벼
너도방동사니
##신도로
흔들린다
##자수용
원리
##화석인
성숙자
포테
편곡
##강송
요컨대
##협상국
##법계
##부타디엔
##싱이
##뇌출혈
윤정엽
정기모
##매개변수
##세곡
##죄명
맹골수도
임병양란
뜨거워요
점등관
후강판
##천연가스
흑구
침입자
분자체
프로젝트
##박식
복인
조세홍
##끝나
##다이시
문중식
##부부
##프로파일러
버려서
가술
곽민
마합
##명패
솎아베기
갈등상태
치달
박기상
##경종
혼스테인
민사재판
##곡병
역가
묵
##이은형
##릅나무
조자
미션
##이동판
연습기
태웅
보든
##스텔라
최보경
펜실베이니아
##강만
##능장
##조르다노
##황교
은사시나무
통감
노부모
투융자
##에트
오므라이스
펩톤
##입명
고정만
에스터가
시턴
##미관상
복포
수택
마전리
##전동력
한국전력기술
##투쇼트
한화갑
프롤로그
진성면
##제토
스텐
인생무상
예살
세로선
##로니
##출사
힌디어
금수강산
말달리기
##병아
##순인
##대규
줘서
심재혁
전인성
지갈
##사분율
향탁
##주응력
주기파
손어림
염흥열
양성자
신비
쪄냈
정영태
고기
##속문
내성균
##투우
##하마
미칠까요
힐스
산짐승
##방범대원
기대승
드라마넷
임정진
전액
사명
##늙
족저
명료
맛조개
풍천면
##장기영
##갤러핑
배심
매였
수건
색차
본서
박남천
##트리플
커피차
엔트로피
노민
진과
##소절
윤덕희
##교양
##술폰산
수인선
##기좌
진저리고사리
봉평면
프라이버시
문정희
강추
삼국지연의
생장점
송종관
입국
쇠치기풀
갯지렁이
제천시
##김호정
욕쟁이
서용권
사액
이현수
자흑색
공용표
정보윤
##우프
그르쳐
##사맹
강판용
봉암사
다리털
흐믓
새겨
##동목
버려선
이시은
마렵
##내처
##각렬
우뭇가사리
##생간
괴팅
##조분
##치저
끼워져
여정희
뇌내출혈
##부턴
##곡이
##자코
광고문
##모보
맑은대쑥
##방발
발볼
가라앉혀서
교래잠자리피
쥐똥
휴유
변중무
떨어져서
황용운
##조영실
우에마츠
비론
끄집
아산화
파비앙
처
##찬석
이문용
물총새
당음
섞여져
아세틸기
예냉기
감처
탄재
초자
화침
보수금
##숙박소
황석희
폐쇄공
이종임
마부치
##자위
수륜
##봉창
##필라델피아
##류계수
##자식이
조창휘
집단군
김지선
유력
신뢰
##불만족
돌제
창작동화
##측후소
물그릇
수빙
오프닝
야구복
반박
가자미식해
엿듣
##밑그림
황암
백병준
##장영혜
##어살
##동나무
이창미
아사마산
김남지
저태
배타주의
빙허
공영주
정자연
##이루어지
최보영
마전
안침
반가워할
##칭전
부동항
무뚝뚝
이천보
사치에
이홍길
최용진
박종건
윤준상
이전
니산
정이든
삼신상
##이오연
##격리설
한상근
##떡메
원추리나물
기울였었
##이시언
##르레
##리시버
##루시
##공식
##연잎꿩의다리
##보균
전태규
의약청
동유
천저점
어수
##이향
발효주
관가
##경사도
생간
##예교
##강색
충전물
홍재철
타원
포화대
##의식주
잡종
친아버지
도계
공태우
롬멜
메이시스
##스타킹
##구척
박예지
퓌퓌
강진옥
궤도차
두드려서
편영식
신준우
##가일
##김재복
기후표
##윤유식
넘어와야
태어났으며
색소
현미차
##벌꿀
##질모
샾
##대잠
한식재단
##리볼리
##트랜
##무의식
희뿌연
##은수
산품
김장기
유상조
떠라
이하정
##이차도
상병
##수단시
퍼졌으나
흘러간
사군자탕
진예
정용각
시어머님
##비창
##추숙
새롬이
##역탐
외선
딸세포
노영희
분반
칠수
##마헤쉬
흥행작
잠실나루역
박만
백정현
##재판소
##도간
박시춘
에이라인
##상국
장지
원피스
##사육제
박건웅
##공병훈
남궁련
##례전
월내
무네요시
주매
##이사비
워즈
꿈적
##평광
##유찬
발연
##쏠
신선설
이상영
볼까봐
문해
##삽체
한흥남
주양
##위원단
금할
##막대
여우
포성
감독
이병덕
##딜링
퍼시
김소남
문화원
정구호
컵스
어룡산
밤나방과
##로케
그리어
##고검
프렌치드레싱
##여두
신승준
##퀴스트
##관조
배진호
##강편
분세
청상
낙엽수
직사광
오디오북
장대훈
##공동묘지
지리학사
삼성타운
##안티
양푸
시강성
후환
##잠복기
외설악
철완
이덕일
##미훈
관천
인월
##우회술
대사산물
##전식
윤상섭
##현여
식물구계
##야채류
숙제
##방효
잡소
백경민
통각계
생로병사
거금
김헌희
##마니
국찬
한젤
##방지연
데쳐서
붉어져
조충서
##홉스
##지엘
##족족
##권영수
##구실
동태론
남겨진
##갬
심호영
기상관제
타바코
이란영
위혁
태호
제빈
상오
페찬프리즘이
##회일
##판염
##방제
##박정근
##와편
##여척
가데
흰잎엉겅퀴
##모슈
##단동
##경화제
김창동
유조직
민지선
포닥
사무라이
##비등방
임진현
백사장항
국방상
아세트산염
##네토
뇌척수
의인법
페범퍼의
수리비
보강천
##환작
독실
마쓰모토
들여보낼
구불구불
부수
만보계
##국방백서
전예화
조정선
##조경용
거리척
##종괴
가법
부소
감계
다수표
무릇
빨라
최은식
신일규
##법질서
정창식
한경돈
##김영귀
##산발
진지희
귀화종
환경일보
동물학
환산
부호어
폭력
김재희
##암기
##음주운전
최유성
##백민정
##골소
##탄산납
더품
오희영
##엎드린
참전기
측대파
지엘
예학
살리프
##문터
##여서
박용규
##정영주
식물성
##학포
##속한다
세태화
연소열
옥시토신
서인
##백서
##부르주아
톡톡
이향
##에츠
귀양살이
서치라이트
기신제
가덕면
포백척
##투투
가은읍
진박새
##방례
분자시계
스트라우스
##변폐
행은
정갑중
안계홍
어절
음독자살
주소지
##해홍나물
소홀
상당리
장비지
제작사
나프록센
김인
##반천
##쨰로
급수비
불리운다
##명명법
밑줄
아사기
벽걸이
박상오
디젤동차
처량
고종선
줄였으며
용세
교육국
손들
노적
하수량
로스웰
피닌파리나
서병오
고인호
##공시체
##북방
단사선문
따진다
우읍
폐교
임춘
켈프
스미모토
무령왕릉
양병화
오카
##휴리스틱
근로자
조애
평행맥
눈석임
##방크
폭서
##폴리인산
박훈정
탁주
삼법사
이철진
배치전환
##주어지
교외
##숙철
##경험방
전해조
##연생
수속
##초달
한울림
##천칭
한충
할아비
##변형대
모각
선반가
##황발
메티오닌
전해상
실존주의자
김석웅
##조종기
유병욱
##베일
설양환
강영택
불참자
바깥판
권기범
관광열차
주개념
커진다
##전원식
남계우
용암동
기근도
솜바지
두릅나무
정세욱
멘탈
##문재우
##중당
함수곤
요지경
심원보
채형복
아즈치
별인
이일규
절탄기
기회
##틀
낭어
##결절종
##적재함
성창규
##채움재
심광보
수음기
##용사
다류
전발
평상심
최상민
무쳐서
부정사
들어차
김임순
이윤상
테트리스
유정한
영항
##인항
미염
##승회
홍동백서
임재규
##양정보
##상이
비렁
통쾌감
유체
산조
종사관
별순검
방사륵
권영모
무자본
##은즉
맥매너스
염내
온산읍
전상
크레아틴
롤지
##바하
##원두
시감
##실용문
##장치
험이
홍성균
##츨한
도계읍
##연집
##촌은
국광호
전다고
이승온
##윤장환
정주형
##위약금
##당월
##배성문
지엽
이삭
수질
꿔요
이인일
##범서
비행사
지의
기댓값
붙여쓰기
시늉
노련
표
먹거리
##춘관
웃물
타빈
극광
##어학
테미
키다리
내려뜨린
외침
##량자
##동바
나문수
망
##철환
문종호
##모크
비고란
송근
이량
최재선
##부감
##밀봉재
##노백
분자병
##가래
병아리
강희신
이리가레이
강아지똥
##사제
##견복
병살
신영민
정립상
##판막
실용
##행정비
##미준
##국채
##큐
감미료
##구통
##쿨레아
용아리
##이인혜
윤미향
오메프라졸
김남초
치웠
수확물
성삼품설
조린다
전례
여대도
솔라리스
넬킨
대비생
봉학
밀리와트
##로웠으나
허혜자
백정
안진현
퇴적
책정
##이새미
몰두
특등
##양행
이면
다색성
##이송권
##압맥
두로
##의안
##닙의
##이재열
##심토
이당류
갖춰졌
##용치
##독일
비도
건다
주성장
##유추
홍형순
##밑점
##그동안
복본
대급
충무공
티벳
건주위
##롤리스
오락관
대형물
혈의
##츠
##원고료
알파파
김세훈
##해군
고동률
##실직
분재
독맥
얌전히
연륙
헛집
이청웅
##자망
##분리주의
##쉬테
##관인
##가신
알마아타
쌤
신민식
##황위
##맡
나아갔으나
##호지킨병
벨라일
##지뢰
타르
보름
##둔다고
느꼈
국수집
##한학
##구석구석
성장주
정웅인
##발효법
##행동주의
##용접공
김창득
왕한석
##겐가
이신전
자동
##볼까요
##고고학자
##한치
##취재원
##푯점과
민철희
임일빈
차오른
최재우
도가
전보겸
소순창
##떨어졌으나
강혜승
정장현
포자도
##다르
정창삼
부인
하재현
팔려나갔
갈가마귀
카카
##리퍼스
##인가전압
##정구철
안태현
윤희
탄젠트
##탄약고
습곡대
칼데라
##아이브
어렴
화란봉
타조
윤활
##쌓이
##슬로우
##직책
문화기술지
##성훈
싱가포르
회개
붙박이장
이적
스발바르
##상진동
오성숙
김시온
민혁
저당권
불급
##국인
##도련
##직금
극좌표
조창용
##정은미
타이로시네이스
##경책
신채호
##이긴
임인수
##과일
유공자
인사이트
##학무
박진한
##장로
한국희
박경은
선령
이뤄져야
마장디
##행정가
영혈
##미래학
##철공
##라쿠르
##비행방식
마에스트로
##양로
정대득
창고업
살빛
노랑원추리
##편육
##현익
도시처녀나비
류택희
최인영
스티
창기
##스키드
##플레이트
흘러간다고
한용문
##부형
되살려
강성관
토부
녹여서
##뵨인
풍서
마르크시스트
이만희
##엥
풀란
갈조식물
이삼빈
식장
##회원국
##노동량
##렌디
초평
##현개
손병노
어우르
거동수상자
해경청
노은희
신종교
힘쓴다고
찔레꽃
##주검
##서당
집단촌
##혜현
##송문갑
##소래
유어예
##고나
권영미
김지우
##착압
##별침
심관식
서일환
손치수
김기용
##지나갔
신동연
진
##법용
재무회계
##지드럭
둥근털제비꽃
장파
함영훈
이상승
##이식술
무작
진정수
로비사
##고도
##로어
단락
##셀로
깜빡하
추승
##김연규
##수육
덕교
정식
이희상
환로
재신
##치킨
초상난
합성효소
레프톨스토이
신영식
노점상
부절제
연교
기암괴석
벗겨져서
맥도강
가교
누은
베이징
이영분
개머루
##포커스
환언
##왔
여몽
탄산
시세션
교궁
##봉현리
카키와
변색
##기흉
에스시
##공과금
##병퇴
신형섭
##뇌지
코호트
##청채
황윤영
로르
표착
대명제
권세영
##다투
심해질
엄완섭
##청부금
바르바라
조민정
이상옥
획인
브로민화수소산
##물러
최홍수
사조
가지가지
찬양대
##메일
##점유물
천태
윤혜원
유병집
유아복
매축지
박정진
##촉감
##두석
예수
간접비
##하정
신권
육군사관학교
보사법
사라왁
##곡부
서울전차
일명
송혁
파시스트
황호진
후이지
##치밀
해줄까
홍성애
벼룩이자리
주간
##찬탈
보도진
서속
구야
##나타난
띄
핏줄
##역화
김수린
정한다고
심혜영
지먼
지도리
##깜부기
사진술
클러치
##블랭킷
옹주
반되
##찬송
전교서
##지에
소득
증가
환약
캬라멜
박동석
저격수
소풀
손충기
조진모
저탄소
망각
대프
##현장
육각형
##점명
##틱톡
대략
오한진
을왕
##연령층
기정
서상규
보벨
##두피
##베보
카치
주둥무늬차색풍뎅이
##약채
이른다고
함정도
윤정현
우정수
##무게
왕조
##공천
##부원료
황두진
뒤따름
겨된장
##그리
이기룡
##도파관
왕자의
##집집
쾌적
자산유
##젠시
편광판
##은연
손준익
오슬로
상애
험악
##저희
오주성
김해림
버트란트
김명복
##유막
로프티
기승전결
일도동
윤혜현
##이연
저하인
김연덕
정애진
디스코스
루키
문어회
자월면
구독자
양희동
녹실
상사
##이철
##난할
##학취
##송인호
##리눅스
##반발력
네슬레
##카메이
밀려났
##대세
이만큼
정일진
상피
유양동
##팬더
비범
나팔관
폭죽
빗속
##호차
망연
분쟁
숙천
고동현
좁혀서
전마
##녀편
##대수식
끝단
삼충사
색소반
##수변로
순물질
청평호
##승명
##현판
현탁제
과혹
안내장
혀샘
이발사
알멘
##비색관
이뤄질
애인
자궁경부
적림
예레미아
누름
##사집
별불가사리
염두
내향성
일컬으며
서경진
보장책
김수복
코트다쥐르
최홍림
한산모시
재항고
##흑판
가천천
지행
홍준현
중위
기계
포천시
종선
유니세프
팀플레이
말츠
거정이
고현성
풍상
##레폰
들여서
길러져
산무수물
현업원
입증책임
##띵
##체티
향석
##상혁
##병자호란
김남균
##해선
미제지
상등
스필
관수기
에탈
정진혜
##수포성
비밀주의
장준하
##영양실조
뉴스쇼
강선아
##셑
러너
##묘사
##미확인
꼽혔으며
보탑
##레늄
##콤포스텔라
재화
여기
등리
일리야
##부의
토털
##세릴
만조
##카로티노이드
심층
조창근
케미스트
순조
각괄호
##밀레
큐브
맞이
산타야나
##더니
##탈조
도두동
##서열증
##지군
권순만
침전
벼쭉정이
##진보성
루가
헵타플로로부티르산을
메카
족골
차용범
이화원
합칠
##합격증
##합개
유인경
회임
##정체성
정보전
##특성근
특저
톡토기목
비주류
동의자
스킬
온양시
##풍상
했었으나
카메라폰
집배
이기열
##맥경
##날짜
##전기냉장고
출가
송창헌
김수천
보신제
김근홍
우옥
황은
정노을
인성호
##중지중
출금
과학부
테니스코트
##기와와
굶긴
##망울
왜가리
##항시
##섬거리
접시저울
##리액턴스
증거보전
심벌마크
부질
##행운
노동리
구본관
울릉도
보강제
##됐으나
##광변조
이길근
아미도
탑정
안양천로
##과액
큰점나도나물
##가시
##거주민
##립식
흑막
어란
##구엔
##근종
##범조
몬테레이
백현철
##새워
주행
정상수
##벙크
국유림
##쌀바구미
수석대표
이후석
유정균
오승
오리지날
이기한
에일린
김덕기
그림책
강순
##등소
요배
김호열
상계역
스키니
##증권거래소
스트로슨
육체미
##마주침
강도현
##슈퍼스타
후천론
강유미
전희선
노건상
##양정수
만삼길
윤승락
시험토
독질
터놓
최상경
##에그리
박목
미드
##금곡동
##단시간
박이레
도종호
##동인
행안
##응회암
내품
##서부터
##구릉
장통
마우리
실용신안법
기사회생
##트랜지스터
##원계
순양
박지언
##빌렉
홍만표
##피난
마름질
##실용주의
##주파나
##층격자
돈돈히
정유연
크레이크
계용준
헛된
##한혁
##대물
병치
저항제어
페튜니아에서의
박제현
##발반
쇼나
여파기
염속
브뤼헤
##학형
미파
이사벨
그늘질
회식
칼로멜
임영균
침낭
##고배
##속회
##규회석
수강
##답안지
##주빈
가정배달
하디드
##거려서
##설수
##퓰래이터
고대로
시인옥설
김상록
임학현
봉사심
낚싯바늘
가이드라인
##삼목
안거
##목질부
재민
천혜정
##대역사
논다면
서산
노을
##보사법
##웹진
기립
직권
해중공원
##원융
##최인선
트랜스포머
김굉필
##파울로
핏자국
화물창
슬라이드
조재규
류이치
장은진
##안정제
실데나필
##고학생
##방어전
장석화
절각
편목
적셨
샤리테
##정숙
단실묘
고재용
##양로원
백령풀
충수
##에베쓰
병반
막국수
추모제
##세보
카산드라
##접수창구
##관치
진출
박제가
캐릭
에너지대
하의어
의장품
##원순
연청
검점
차용섭
##컴퓨팅
면마과
운휴
##은기
햄
##안재웅
빗물받이
##벽관
##전환법
올인
단박
통행인
퇴사
##중엽
전해진다
한기현
그만
##종업
##루아
권영수
##정글짐
안토시안
구법승
##편집실
삭혀야
윤영배
##활주
드롭박스
윤명로
##화리
##황정현
정식화
백사
##합성효소
오낭
##관광호텔
차륜식
비손
##빌리스
우렁
김발호
소척
##운남
레들
율곡
비휘발성
죽전동
오곡백과
황산면
월인석보
괴로워한다
천하통일
노바야젬랴
황정보
힐난
##카레나
쿠싱
끊어져도
문지
##조사단
알리칸테
이음동의어
덧붙여진
고은별
최덕기
제살
이수천
감자역병균
넘어갔었
신고전파
##병원장
심근증
최성이
중막
##진충
자쪽
여주인
어수영
적지
##감암
즐긴다는
이른바
신차
##혈주
검사구
##독안
##국태
##모한
##분성
미주신경
수야
빙정
김충국
##권섭
##스마트폰
데려와서
##방희
##적산
찾아갔
이민혜
남인데
취물
사가현
아롱진
입김
독무
##책
수신신호강도
박수갈채
반영구
예수금
채연수
디엘
##운계
신성모독
려면
아랫마을
은반
##외의
결과
##이동배
##대까지
##혜지
몰려나와
영학
##설란
인목
자율이동
##고명
례문
##도왔
##환주
왕복
오두석
경모
##복량
김재열
호남정맥
도금기
##각시
##착지
한규설
도마뱀
##장기대
오비히로
##산인
묶여
찌그러져
##시공법
##초검
##엑세스
면화
이종언
뜨일
합당
총백
조정조
장엄
고쿠센
지켜볼
염색질
##슬라마
최승언
돈의
##체약국
딱지꽃
고종욱
날치기
여겨져요
보합
류정탁
페허가
##로알
엄애선
오혜민
분해기
원지선
벼리
정혜영
정우회
##포라
테사
##분자량
대용식
미모사
문충태
##시르
##윤소
대약
평장사
##텔렌
##착천
모수림
삼이
스틸링
민경준
##이동형
정선경
##면리
견유
하이포
##성습
##정찬
허버트
##금욕
메슥
개잎갈나무
홍기천
익수
이병송
엉긴
한데다
짭조름
##눼
##올리브유
고내
로테르담
안주반
독거사
##시혼
김미예
##위키
은종원
장민영
##메스
##비소
##정이원
피뢰
##보여
김수암
##반역자
탤레매틱스에
##깅보다
##준유
##텍스타일
성교육
##자격법
다크
##문살무늬
첨수
##감량
김형일
비동
하현
치사율
지방간
##별매
왕몽
억압
재첩국
김이철
##소철
주문가
라피두스
음모
게라드
김기범
평행축
송요선
표창
##정훈
용화산
해로운
##토니
가려움
하강류
라이다
조색
퍼킨스
이제이
볼드체
바크
벤치마킹
수령인
유효영
윤중식
화벽
류창수
박온자
##존도
##무응답
##축천
설계환
##종조
트리쉬
운현궁
나아진다
감춰둔
번진
관행
착과
김경률
##단위행렬
귀갓길
승창
쏘가리
회전대칭
##아랫면
##송청
##관이
##근원
이의춘
엡스
##숙박업소
견실히
선선히
룡
##단열도
##오민
##절용
##댄싱
주연
##정상
타타르해협
핀홀
전교조
비스코
비스타
##피웠
엘리자
형산강
사귄
##창자막힘증
파장
##루미나
##엄밀
파라이바
##오이김치
불태우
##서포트
손미아
##미원
##시안화물
교양물
대포통장
임원기
정연인
콜라
활주로등
##대적
하비키노
평방근
이효자
병수
유달산
수청리
숙씨
볼프강
풍물놀이
이진범
소수당
큰턱
안국현
##마진
##완월
##계획법
##전불
수나사
달라졌
축제
홍의석
겸했
##재년
강화미
정관식
##노론
##리반
김형탁
##푸리에
중전
공급사슬
직렬연결
##페출러를
##팬츠
박호성
##차려
정귀화
이마미야
##사여
당지
시계태엽
##농간
##카바
김재섭
##아파
##모란
그라운드
전극진
플로팅
최명섭
폭침
이병언
설하
##휴폐
세현
##응애
##소송고지
에스코트
참빗
가련
남귀
행사장
김종달
필기구
##회의체
방지
생시몽
##곗값의
전착
모테기
##쓰여져
##버딘
##른국제디자인학교
##방향각
##약물학
##기혹
##슈카
상덕
박세권
##타시스
황건성
하규철
요동치
이장백
##정비
후지모토
양아들
바틀렛
##사포닌
포르피린
사면
##깅시키는
흉작
##첩
효사
푸저우
조기여
시외
고근호
볏단
이연희
고성준
이한솔
##뒷부분
##재감
신형진
김영상
##팅기
토플러
풍해
##내심
##흉쇄유돌근
물갈이
쭈돈
전성규
환도
체스터필드
흑인종
중수골
유세경
##탱크로리
산점도
##다중화
##허위
최웅철
일광보살
착고
##배수문
살펴도
##자담
톨러
벌려왔
파절
변지현
##넙다리뼈
##분퇴
##함수율
정인학
##스로틀
##전반부
지붕재
사패
송병흠
##포지
반곡
오스왈트
운서
빗살
##도압
오암석
담탁
김헌선
##김성준
##윤정환
박수련
튤의
바뀐
고문석
위르겐
유연탄
하경남
월궁
섬강
##오스테나이트
##마일드
협대
아름다움의
자통
별정직
##구감
전우진
만듬으로써
곽영순
속싸개
천세학
##활착
구면파
국소성
남수민
##신성의
##연속체
이오니아식
만복
진정한
머레
정섬
##자란
##빈정
##쿨롱
##구허
##지렛대
열구자
##융로
울분
이글스
메카닉
강세
거명
둔근
박지경
##측공
##치조
##달구
진재문
민물
##부청
라비스
조근태
##타격수
##성계
##쌀도둑
##밥풀
다진
##김종오
행마
##유근배
이해식
우담
쇄항
역원근법
쪼그라들
우물천장
허남기
산세리프체
기미
히말라얀
브록
##여보
삼지화
배기열
라오청
##운다고
##투석기
##둔군
##다카시
권오석
##분활
조한수
포탈
##저모음
##무레
나원식
스팟
등판력
합쳐도
##읍인
중합금
##니라
이용휴
집고산경
##짐채
판결서
경자동차
##글래스
흭근
외줄
펄떡
##정병걸
성진석
호라이즌
##빠를
##차량
웰트
가데스
##사심
동관왕묘
김정동
##겼을
사무복
믭고도
##보호법
본봉
괴롭혀온
홍성천
용부중
지어서도
##편마암
##치루
쉬러
천홍
아베신조
자영업
##마봉
때릴
##지진
##능하
##임간
##상희
바가지
##형상물
##콰
##재입
앞표지
##풀
이즈모
스코프
푼다거나
현명수
##민기
##기획력
##광금
섭지코지
김휘준
##용선로
##첩이
##붉
후벽
중량체
##룔를
워스
유인석
갠디
장월
상사점
최동춘
찔러야
##크로마틴
뒤집혀진
성홍근
술
범우
베르누
페노티
강길
배영균
삽날
자력구제
##렬인장강도시험은
교수
지하철
오목눈이
그만둔
세운다
김언
외래종
##티조
통치권
유포
##포장기
클로스
안사람
##읍진
동명
최현옥
##치룰
##리그닌화
##접심
##글체
##경영자
은포
##보험업
허경옥
불연재
유형물
제충국
최대일
자어
홍영상
##은배
편치
##푸코
김인국
진주
조리사
월령리
대조
휘일
남은우
어옹
이명석
##곱치
용선료
이택광
산문
박다영
홀어미
술렁였
그럴싸한
##낚
##석청
대우그룹
##라이터
유지곤
청운
임상곤
반원주
문안드리
##야생형
뜯기
류재환
강만영
##금융업자
베어
##순한
덮어썼
조승국
##속달
정주목
##의군
체르니
한종윤
##만필
##태유
##효송
쌍떡잎식물
취인
힘겨루기
##담화문
수련
금곡동
점장
##실종자
황실이
류도곤
장타력
황통
##소과
흐
##면조
후금
##환제
##강정구
##애용
박원주
정자장
경력
기준점
월과
##결합제
이옥민
그웬
정철균
##연심
분열
재서
서정성
##이승선
관숙
##동쪽
풍한서습
용병
##마즈
강부일
##제일은행
##면의
##윤형
##타원구멍
본존
##금구류
강한국
사창제
##김형일
평장리
안소미
##홍성두
공급점
교와
박영실
##계서
##직구
앞선다는
강인규
지켰으며
##배의
##서범
##난부
##여청
임인재
문성진
눈산
임근
차근차근
직이
마담
물역
안정호
심호근
골조식
주조기
부러웠어요
##창법
##동공
##흡한
##전지용
신트림
진대
##대사습놀이
정재정
준비실
지구조
이채우
태환
##연축
폐타이어
##자크
반야심경
##해집
장기봉
##이치로
헬륨
이효경
역겨움
윤성효
탈곡
무해
푼지나무
##스트링
공익
롬니
##공급자
특리
유신리
의장법
김해양
##준택
비라디칼
아이라인
##스타
##주전
##적모
##유춘
박창한
노학자
방용
##수머
주강품
후불벽
뛰어와
차황면
뼈몸통
##응시
강동영
##냉차
##페도라
##으다
부른
별부
레르
송창호
##기준량
뒤떨어진
##동상
##무선망
##내형
##보존
##제강
주동선
설계서
거루
이병구
강은진
육종연구센터
##고낭
핀치
경비행기
금부
##세병
연령
감속
교직자
인술
맨슨
##오거리
보관물
고은태
##탈이
외부
광주천
##정육면체
##합방
송서
등롱의
박규창
##주성돈
언동
노던
##창리
준작
##부원
실경
##비닐
##카니발
지병철
##현인
##박상현
##익찬
소환두
토정
경서동
정인근
나승일
가로결
강윤진
어른거린다
설국
이동오
##정거장
뇌척수막
죽미산
##빗물
티롤리안
컴비네이션
축소율
바이오테크놀로지
주미
##제크
##격막
##형도
##주위염
폐식
##저성
##친수성기
##소방관
##기관장
엔젤스
민초
재외
허위의식
편단우견
유건선
김근세
포츠
내릴
##채록
동적
##벚나무
라이너스
##시릴
당등
##이성혜
##진창
단풍제비꽃
유효통
더더구나
핵반응
##봉선
##정자통
##물총
최종진
추웠
위내
콧멍
##앞톱니근
##재종
다카시
##서설
##동호회
갈루아
코벨
하사품
트로이아
울먹
젖병
혼미
피노키오
##학맥
##으시오
남재량
노홍
쳤
##나공
일진일퇴
아마존분지
적실히
쇼팽
원등산
문재우
##영리활동
박선후
볼지
##발막
##황개
노윤선
흐린
##투영기
서정만
신반포
기복량
차려진
조선진
로망스
##체험자
유향수지
별고
갈라졌
##채미
설동일
행정력
##매끼
문혁준
의명
##덧입
비트겐슈타인
애널리스트
평탄면
고희숙
파형
규례
양송
말리크
##가리켜
회의록
##난장이
도식화
탕척
##시진
##구면계
롱샹
##진랑
##미역취
##문학상
월인천강지곡
어레이
간행본
##연위
유정규
색달
잘라냄
##독상
전기법
뺷공공기관의
충전관
##말레인
##어려울
노고지리
##승비
##루너
김종견
임철주
해보
구부러져도
##경갑
코발트블루
##려
##아군
맞바꾼
##편향성
##정화조
권순석
##들여오
건령
국제법
##짐표
선웅
##아키
함평천
증착
유기장이
##오키
바쁜데다
##법통
전극계
##보시
곽배희
##문균
##청사
클라우스
편친
회치
##소경사
가룃과
단락비
윤활식
의방
셀룰로스
생징
교섭단체
다가갈수록
##부성이
##백판
오기환
창수리
나온다고
급강하
이범수
##후과
정봉주
식물체
식거
##예보
길례
##야암
임화경
##영덕
윤명환
홍조
##읜
류옥현
곽윤근
완인
##성사
뒴비틂이
정중구
폐산
##박카스
##결선
##상신
##출학
피드포워드
단산오옥
표준재
##자활
##논산
주기성
봉사자
고가선
해양수산부
기속
말려야
날개옷
##배정인
됴
박형
##황폐화
##강공
##서스펜션
푸대
홍순찬
##매지
판위
용화
##중탕
봅니까
벽면
##변소
##산자락
극대점
박재준
누산
초곡
들판
회용
세면소
##원수
유한욱
한철환
##산란지
아종
매표소
거둔다고
삐죽
권순구
바늘꽃속
용원리
염류선
정보력
상일동
조찬혁
재벌
##오브젝트
##울혈
농밀
네츄럴
왕과
음봉면
##평하
##공복
완적
##액란
홍준영
신종석
##누에
방제학
##놨어요
고메즈
최종석
##라영
정건호
만져서
##호지
##물질량
##취재
##한재
##물성
소리판
##자나방
##비불
사상시
호출자
선주대
##오산시
분지성
장사랑
도재철
안종화
##가해진
펍메드에서는
클럽
징검돌
터치다운
##목줄기
무법칙
##이매패
칭송
농법
뭉침에
본실
##외눈박이
빨리
하층운
##통기성
현학
박꽃하얀
황선일
이수나
##침식
깔리
최두선
##프람
베푼
손진근
디더링
주간시
이현실
국기
산신령
가루눈
이수항
산천악
##어뢰
##이루어져
거린
은명
연삭반
##유꾸
오복동
##조국제
##디메틸아민
##최인영
##뇌성
맴
##천우
##금우
뼈
돈다
형기
직류계
반죽기
어찬
##지방간
##사거
##약비
##방류
도와서
서기열
참으
대양저
군정청
##활자본
맟추기
광희
흑혜
##파국
플라타너스
##윤주
신종섭
박남기
사나움
하유
러브호텔
##알콘
##고위
정태화
최환석
##상상
균여
##나무통
이시하라
중기업
##빨강
민첩성
현해
췽업불안이
단회
홀랜드
여무
한준호
나병철
##김봉석
서현아
별도
포티
##조사
단고추
콩다식
끽차
신현보
##법률가
##닙을
##차폐선
##서둘러야
##듈용
##텐데
극증
본명
뒷동산
채현식
깎여
클리프트
결정판
고려경
대마젤란은하
까다로웠
정민주
##치선
가진리
봉봉
##가옥
윤지영
##광민
##도비
북초
살얼음판
불로
글리세린
개울가
하이닉스
나복자
##카야마
콜로니
최환
회고시
표제
##중앙청
버시
최장민
발사관
##달도가
뒤섞일
후뇌
정치국
스크랩북
가느다랗
디카
황철순
집회서
윤인숙
갑오징어목
##볼래요
서윤모
총영
조철현
손해진
마태
백지웅
간정
행중
범종
구본흔
핵정
##총목
##노장
겸수
유영화
정승익
초하루
인젝션
##폭탈
회소
랜달
##형액
##작술
최수현
##뇌영
프리스타일
##타스
안전줄
가동이
공룡
블라
돌띠
##천함
노르마
##일히
##건주
향유
조정진
사학재단
한기숙
싸운다면
정치훈
##나눠진
장후
##타이프
투믹스
##과서
매장인
장연수
임인
##고온성균
승인
화장기
##가톨릭
##담임
최경
조증열
변고
연속선
밀치
애써야
산달래
들을까
##혈훈
정정진
약건
##전성인
탈질균
궁귀
월암동
##시거
##끌어와
##박통
먼지벌레
조종
신연철
최주원
기허
신태호
##대도
##상일
##빨래
승접
차정훈
##기려
쇽업소버를
가려워서
##인갑
큐나
##가려져
로즈메리
오리려
##규장각
생술
주대각선
강답
##연두색
축자
관상어
김준원
한병학
찍힐
온대림
##증거자
쇼박스
슬퍼도
취감
##부닥
거주자
##성적순
티에스
##육관
검신
고속함
##본위
##삭망
##데뷔
손주환
어깨처짐
실력주의
약초밭
료화
문물
이수각
##난황
주의
##피메
사이공
성의껏
조세법
요오드산
응신
김종천
보겔
아이튠즈
손금
##개량비
수용률
우러나와
##세가
노랑할미새
카를
찍기
니시키
차단성
터핀
##우회
횡서
열자
사위질빵
##가동
군집단
박귀옥
심준성
##타임스탬프
평은역
전진석
박성신
안선영
##최대일
보신탕
##현호색
##외판
텐데
##맨날
기부
소포자
이누히코
생밀
김수종
정이나
목하
길러져야
싸여져
##헤이븐
인덱싱
##관측기
카와이
##김재석
##오태인
초토
조윤철
##계미
올소
사업자
후부
##산담
최종오
뒷면
이천용
##대부모
##트래픽
려니
##변위법
증적
자유곡
직불
아시아만
결투장
##군도
문학계
이성화
뫼
주호민
##괄처리방식의
판구
성장도
프놈펜
살포제
##한국일보
##정리지
##데이터
기관지
##타데이
배상원
원뿔형
디싱
##디시
한하민
강중원
화성시
##프루프
고욤
미끌리
조구등
##즉결심판
최유희
##인륜
풍각면
노승민
##콰이
바젤
독일군
배당표
##실험
고속정
층서학
회현
대구과
괄호
영일
##등염분선
정밀
김복희
양운섭
박찬운
감득
얽매인다
미
트랜스미션
지결
약장수
##계조
포도청
항원
영국인
취수구
층사
소면
전날
##망점
파라
천사
##도매인
채수권
둥관
야음
정현애
문천
유염
##음경
##상송
신환자
장정주
풍수량
산대희
친아들
##감시선
맘모스
##리올
한근희
양유
##대암
##도자와
정이십면체
슈퍼
타오르
정덕조
앙포
##영매
도할
화산면
##맞물리
클렌징크림
##업무상
##충제
자린고비
전묘
중조수
남영우
구절산
##산시
경환
##마찰력
강정대
장덕진
##수준점
닝샤후이
옥경
##제만
##귀방
잡가
나타내
양벽
벤조산나트륨
측미계
이동후
가입
고헌산
악질
나만균
김민조
##다오
모토
이영은
낙우송
도거뱅크
이인희
남세현
결정립
티어
앵커리지
반석
떠오르
계량화
얽매일
아무것
참획
장옥
##튜닝
느껴졌으며
반격전
##집안일
권인
##표준검사
##올소
카펜티어
흘릴
누군들
##울루
카프릴
외감
##도막
##비점막
뒷도련
해대
##합사
##폴리아
내림프
예연
문심조룡
제각각
박정권
대칭축
건설비
나티
배천수
##황성욱
선대인
문진수
던질지
##완집
##타원
이바노비치
버키
흭득
정밀도
정여진
페르세우스
##크룹
##했을까
##적획
창성동
##완연
황재식
##향다
김유준
보크
##물러나
권채
##외교사
##저수위
이기원
##생물상
신아리
거시
서천서역국
오수희
전영남
자후
경제인
##쿠릴
##와치
##으냐면
아이티어
담록
뉴트론
박순화
유밀과
프릴
##대형화
##탄력성
워크스
##불질
품질
조만성
노승희
김해출
젠크스
역살
이화학연구소
##라드
##일우
사한
##스택
주미정
##선후배
##이글루
최용민
관무
##에콰도르
##철도법
자멸
짜빈동
창명
##남류
등속
##하임
고추나물
기뢰전
청마
##위생가
최천
##유계
##키스
등비급수
달디단
수면욕
##페네이트
최만수
지옥계
헛소동
##장한몽
귀잡이
굴수성
왔다
장태규
열전기쌍
황운석
##유위
오신
##과과
왈츠
흡음률
##데예
학우
##작의
즐거우
노태
노희상
누아
위변
##질화붕소
시클롭스키
로어
##멸일
##열대
##녹반
##츼청구영언
재즈
##쥐과
##묘배
##향관
배기민
박재홍
##중축
선실
선가
강재용
죽도동
체명악기
##최저임금
밥상머리
직군
동창
피타고라스
모멘트
두진
##쿼트
스미토모
혼기
뱅어
##김용수
개경사
강수연
##휘요
나물취
##깔판
##생모
경설
##자력선
김경이
공장일
진행주
토끼섬
##식년
오호석
풍토병
공촌
내려다볼
주령
안토시아닌
방건
손경락
힐러
##자탄
##선철
형곡
음악대
베론
##아상
기표소
박순미
신하용
##프린스
임시변통
신탁
##마샤
##광이
성인용
박규석
##박가연
선격
##주습
##캐리비안
##페녹
기아
##폭동
과동시
시슬리
조영승
##강돌
##제과업
##황희
철판
##수행
##추려
용승
지이
이뤄져왔
각시수련
이승협
여록
장맛비
눅진
사관후보생
갈릴레오
##커비
글래드웰
##치엔
강녕전
위스콘신주
장은비
플래시램프
강이석
돼지갈비
##익산
김학규
##명심
정인상
##동심원
허재선
타비트
당대인
필적
횡산
덴마크어
줄어들
##척양
##모훈
아뢰
다스린
전일수
류예
맹거
완물상지
리허
##제적
무지개다리
##대원사
##한진수
전진호
흑석
난쟁이
역순
마르고
구암리
소진화
흥보
##성구
##영세성
##노갈
송전망
곽선희
##접역
박권제
덕천면
징그러워
저거
간란
유도기
##영득
게르마니아
병행설
역사
앵두숙
대앙
##극의
흐드러지
최재일
보여준
국화과
##칸막이벽
원래
가버너
##칭기
##랜지
으응
##당안
##내정
##온피
고트프리트
종복
훌리오
종단항
##색채학
견봉
##토심
만족감
섬모충
##도화기
##화적
인저우
부실기업
임국환
##증민
분가루
메켄지
##아티스트
자미
비스무트
##심의회
자연지세
##원포
##복승
##인환
특위
지세포
공수현
##갈매나무
황병철
무기고
관계국
무뇌증
귀납
홍종윤
퇴관
##저점
하주호
내던지
##부제조
씨실
문익
조본
고영화
빈곤
##입방체
##자격자
일목요연
무명천
부채
잡배
도말
##구인회
##영비
김윤종
리니지
감로수
고발자
죽령터널
##안전표지
친정
무오
##패터에
##가스공사
송하성
레딕
아카시아
최정운
가산금
시누아즈리
붐벼
배경윤
##동환
신호탄
산체스
##폭약
##제론
정진바라밀
장대비
철광
근척육순
남오미자
양춤
노거수
##타불
압연
절충안
강서
##젖꼭지
음악극
##도서관
무스
보통문
외삼촌
송영한
최범호
옥룡
퀄츠기판의
호기
자유방임
대림
이브스
##광상
포스터물감
##중요시
군납
신원식
손익계산서
##분공
##놨을
##상벌
오세아니아
물어봐야
##증원
한경식
조성재
보냈으므로
옥진
##스틱
##면곡
##무조건
양숙희
교내
골딩
##깜박거림
갈파
척력
고준희
이경직
정경순
야앵
코로나
##실링
토사자
##순열사
##전인호
솥점
해상공원
##특산
후쿠오카현
##해원
단두
서해선
징계권자
정창규
읽힌다는
##현수막
##중우
##비추
##출입인
인문주의
##이례
##격실
눈가리개
본거지
고병옥
##병환
최수일
##구동회
굶주리
##호통
김상배
##감침질
신수도
##깅토크
동지점
##동강
##발짝
심실세동
엘파
숙영
물살
이효정
이병연
##은총
사청
포마드
##편익
정범
제대로
김영건
더해갈
이미정
이점도
##알스
박동명
끌어들인다는
성운학
마취
고광
홍정환
아공석강
##사산
행계
율리시스
일베저장소
제너레이션
아이노
기산리
##차민석
시초점
포지티브
##준설
서기전
몽소
##병유
##명령자
##배출구
꺽
류혁
쿨리지
##념에
그을음병
기증자
다다라서
##지방분
주현규
녹둔도
튜블러
##증거개시
대송
##한국전력공사
##제향
읍장
김철훈
##공병단
비탈면
맥과이어
전폐형
숙설소
태영
당질
자오면
경기전
견뎌낸
##정보국
고집
박민희
##쪽지
황화채
##남기
##단회
루블
장상국
무일
##퓰레이터와
고현학
전병우
슐레스비히홀슈타인
길가
박석중
##노놔
##역강
상선
##휘염
파내
진영역
성시
##경복궁
문제호
김상복
배양액
박재언
차태환
캐롤리나
김진규
하수도법
곽동철
전간증
긴지로
횜강도
##여과
##동독
복극
##성조숙증
격한
순환버스
##언니
김수
##자색
##동물도감
##유록
##궁축
유젠
독한
센싱
아틀리에
##옯겨
티조
##구여
##노하라
식쌍성
풍자
비투비
꾸며서
##봉호
장연주
##모듈라
대학모
##위정
켄트
홀치기염색
현적
##자금
플루크
펠트
핀란드
##논과
최석기
##서철
흠천감
##무삼
시계추
##통행금지
수룡리
경제
고봉경
##어아
송채
이으면
파라마리보
장서
공진
##습득자
안들
##자형
##정동장애
보존비
중탄산소다
경운궁
가토
쪽정과
##표피종
토산군
신현중
양골
##시권
퀠
##가슴너비
연일읍
오명훈
정중
##병체
##더부
서청
##인민공사
##사무관
엄정리
##랄리
##부케
친유성기
##판압
이령
##초탄
샌더스
밸브
##건성
이쁨
##단발
일정불변
지홍
무태장어
유방암
송현순
억지소리
##행동대
징거
낙뢰
사립대
해유
암보
온량
##법심
조종자
살리나
박진원
원한
백충
래핑
강혜경
앵커
연월
탕병
선굴
강성구
불충실
##신입생
##면판
청향
건들
##운관
##이형태
하안단구
##화시
예결
장정연
고장진
생길까
##럴부
화니
##이슈
적혈구
분광
미국
게통발
이대웅
덧쓰
##삼출액
##진찰기
##판무관
##종만
양종국
##적십자
성급
##전통주머니
담겨져
시토키닌
김치호
심원철
궁서체
##보길도
딤치
한방약
백가쟁명
교환법칙
산패도
이원석
박연우
김규리
차점자
피론
##혈청
##용촉
##예방법
##포실
부르동관
산릉
##엔딩
카르바민산
##주조가
배어들
법과
##동품
##비학자
##재발
영아
경쾌
착지
추산
알아냈으나
정우람
이환구
가시납지리
##오웬
##대구경북
추론식
폴라스키
저으며
경사진
홍해숙
선지자
이륜구동
##징보
##임발
상승류
손혜정
노래곡
쌓여온
걸지
다분히
소함
취육
죈
##꽃식물
직관물
##리졸브
만위
증권업
카미노
##회조기
##송곳
##송순
플롭스
노인
##수미
이용철
마그네토
내사산
측광
##정용인
##약시
피에리
말버러
##버추
새로우
김복만
멀티플라이어
이수애
조도시
##맨데
##음미
##밤중
땡처리
##모발
류장수
##조기영
홍릉
신독
##기찰
레더배로우
##칸스
들여다본
김규헌
씅질이
##바론
##어두운
##국시
##벤스
데뷔
최우재
이유동
##요키
남상열
도투락
##각행
##증거력
보율
족의
유엔사
##충실하
박동련
##레마
##렬박사시다
포먼
두암동
이병걸
붐벼서
최병오
##원산
##자련수
기관장
등분배
전시회장
서경미
##희석률
용구
엿들
준동형사상
황재현
동조
##라이어
뇌간
##용액
김채수
심재석
박준철
가꾸
황필
##클립
##노블
염법
정진욱
박성정
생분해성
##스케치
단맛
밀수선
네메
##지방청
놓인다는
라이어슨
국출신
##화가
박영성
빠졌었
지곡리
이춘재
맛있
##박변
윤대균
이길희
권순복
명시도
파렴치
버트리스
##연애
민혜영
노려본
##해권
유연경
종촌
##수역
일본풍
##난수
피커링
야마가타
신경매
쌍태
##추용
##달뿌리풀
##함량
##제도실
공용식
금어초
길창덕
하번
마침내
도치법
이세정
곡지
로스비
발사통
우태
##의상
소작
화융
전동렬
선홍색
김소향
##모닉
비킨
서봉총
황응
문현숙
공동기
언덕길
광둥
틴
진료부
##손도
역곡
##쓴맛
무김치
고계수
이재식
안정훈
##염료
함몰
민본
##체후
물활론
손민지
최승혜
생시
능면체정계
노보리
##피복제
비켜서
여민선
##효수
양원태
나강
##잘라
차곡차곡
김차웅
들림
뛰노
##송사리
류준
꽃받기
중굽힘
##럿상에
동법
세일러
추모식
반짝이
감각어
문외한
##래프트
이차수
콘월
베트남어
조희숙
김태길
타격면
순무
##이중권
최명선
대산리
김병주
##베스트
호소력
원비
크래커
전달수
석수
슬랙
벨치히
백남혁
물어본다
벼락
외치법
판면
올리고머
와일리
마노스
홍현주
석위
고레스
매스껍
살구씨
##훌트
방발
##액트
##번식력
페브릭의
격면
접객업
##개선책
공들이
비니
정해랑
신면목
윤원형
##정관
##못했으나
옴부즈맨
대궐
##적정
##깅해둔
##강병구
##공중
강희원
벽산
갈신
##계곡선
한지훈
##업무
##사통
제나
몽학
족좌
의료관광
핀스
왕보현
최진형
##무러
##염집
이희진
잠유
멜러
수인한도
##전생
광서
절명
실존주의
왕가
##준자
신순호
##적음
##종거
##브리프
이응호
노리유키
동작빈
블루스택
##경가미
활활활
주재료
쥐세페
##녹발
##롤프
##대조영
리기다
연회
몰린다
세아라
정영한
쩔
경계선
강순원
용정리
오구로
정군오
##인쇄용지
이장한
##송로
합해
##던데
송준혁
각안
비뉵
채움재
박제순
강성룡
관독
아카이브
##품종
##북한
대정현
매곡천
페트루치
##얀센
판방
척일
계산속
두꺼워질
가까워져서
##아간
예비지식
김유근
##방내
##미국가막사리
연무기
##폿
외교통상부
플라워스
채식
##섀시
##홍진
##파한
통함
합독
유성자
나이라
##산욕기
포목점
대이동
최루백
##별칭
느낀다는
이관우
범서읍
뇌격
안봉
제요
##다단계
##보성
##융자
바느질법
##리턴
안경재
일직선
탄천
틀어져
용점
##글장
황국현
돛배
##합쳐졌
복족
##스케이프
박재남
유재형
등한시
진화론
티토
##술청
채점표
##용혈
##케이티
손현식
##지최
달고기
류상욱
##미품
##이이종
광알
##적우
강생
안면도
미쳐도
감도영
##군중
##위실
정소양
##서축
골곡
군형법
최명걸
김명길
머랭
##군위군
홍영미
##쓰개
박인기
##반목
##동재
##케스
대구돌나물
##랑시
무역선
##선박
술덧
콧줄을
데드레
##미국개기장
노미
예비대
랑게르한스
##포강
항상
내침
산리
주광조
##해나간
펴낼
정순기
##중이염
##대권
아래위
거미
총지휘관
##생신
용주
아저씨
도평의사사
수레
미국개기장
미본
##독약
##버트
##불패
현상계
송도동
쿵푸팬더
이동향
문제아
전창현
##씻김
##해양
우체통
김지만
최장집
스카게라크
파웰
꾸며
바다
##신중절
##충혼탑
##단색화
북반부
##정교화
##괄로
지푸라기
##범죄인
에텐
전태익
손태식
멸치과
##달라져
광휘
반코트
흰가오리
고월
부표
금수정
안상근
섭씨온도
이선교
##장심
박영용
아이젠버그
##경제면
찌게
찢어져
정용교
이원과
관찰안
서울대교
##향하
름도이다
흡음재
용천요
하지원
##딱다구리
암탉
##노랑꽃창포
##매차
##부직
##자라났
철질
흐물거리
라메
타케우치
작약산
산단
##칠
용탈
##관람권
서머
##햠량의
##공해
##성영애
랄프
##평형
##어워드
수확고
##옷깃
대구
##장영배
##원남
그레빌
강수기
백희
지격
도무스
##만족
##감제
전재복
공간사
네미
##버간
이서구
트리고
##태권
이창언
##하배
##계몽기
손원
##태연
기어오른다
꽃피
지휘관
투펠로
##가현
유중교
##독창
##미근
녹유
댓개비
행해진다는
프랑켄위니
##회도가
새김
세뱃돈
##작설
##하성토
윌프레드
부원배
최병기
##넘김
##만든다고
국사편찬위원회
쇄국정책
담아낸다
##는디
##민족복
쳐다
분배율
이종
##민박
계획화
금전지
기가
김차균
##미용인
운용비
##지탑
##위호
##남발
재정학
카보닐
퓨젤유
김영득
##후세인
마려우
팔메트
##스트라우트
김지자
가리켜
주용기
조숙현
고의장
##렬이나연륜을
보험부
마판
##방관
##악도
황점볼락
##궁초
수하
곽혜영
한동희
##석상
##격감
이천우
더워진
점액
표저
반야
졸업반
통해요
##바가이
비합리주의
황득영
##성종
따져야
슐츠
##호소력
팊
##믹시
래원
윤인식
마약상
##기출문제
그물실
##인드라
명태포
수욕장
##호진
생각
신윤섭
##양신
갈구리
김동아
원범
##괴불
홑꽃
이병문
연봉제
예화
레오스
이규순
왕종개
경희대병원
##생반
최봉근
유해자
기름샘
형식화
자치도
##조절기
##에센셜
##인어공주
##승훈랑
청년
찰과상
##무릎길이
서문경애
##새공
##없음
##색방
##영업집
김명관
정태연
복제모
조준오
시계공
##대장암
##려인
##사검
##부호어
##편파
부분순서
숙련노동
누스
신흥호
이언희
보인다면
수용토
##박종훈
이해규
외송
##집의
그렇
##항히스타민제
##관리원
##손주연
중력분
비하르
임차료
명륜당
중부
##액아
새내기
##퇴거
칼롱
##사운
양민아
##더군
##산추
##목인
고성돈
##한점
소포
처결
손괴죄
##여본
##지체
초고추장
##소문자
지어서
주정박
언젠간
졔슈
수입자
깨진
학형
##비아지
렀으며
위백규
차림표
전정한
##와초
##롯
위간
##석환
아홉동가리
오세준
얼음
비각
박치형
##성출
##빵
##뜨
법정형
품의
##최영란
소죽
##형틀
홍채린
##박영석
물끄러미
장타자
##뼘
소탐대실
노재구
신성훈
한명묵
위자료
병유리
정영빈
큰소리쳤
이번송
##원찰
두무산
##부증
노상환
추존
아캄
##임연수
##날렸
##공격
##나트륨등
리옹
순위
도장관
이명남
배선형
김승돈
논코
던트
탐미주의
점흡
##발족
##묵현
##무중
굴거리
손해배상
임준홍
류재한
져도
겹장군
요락
헝클어지
고광수
헤일리지
청풍이
강한아
##의연
가오핑
무너진다는
권용태
야쿠시마
##고시
스타시
하현우
근로
##착선
보삼
약로
##설원
완숙기
물어봐서
고형준
안자이
노로
데보라
허리길이
국한
특정주
##심입
활줄
##큘린한
유누스
발아래
박재혁
지지율
##파임
##라텍
##혼례복
하복
일승일패
##곱슬
벗어날지
공지영
중대기
##이도형
남주
송인범
불변경
리누스
기별
이유일
경심
선견
폿트종류별
딸래미
디저트
법무관
손인정
##원빈
명성
사크레
관양
중립면
##용삼
##화침
##륙도
예광
항통
정운
##성화
잡목림
##완자무늬
가구리
단하
종이팩
용각
##과세액
법운
최남숙
브레이커
벤
발줄
##의무국
최근희
##버져
바히아
##원혈
구연동화
##링깃
민주영
이무식
##규석
물벼룩
지연선
아틀레
관리원
종지기
##수절
바버
불균형성
빛낼
##실입
배상근
통문관
남봉현
##완사
서원도
꼬집
개리
시트르
##해서인지
말조
비상발전기
정장제
끓인다고
하봉리
오입
부호화
고토
데번셔
##도요
##룡담
문화어
##저장량
태리
염화카드뮴
꺼려서
전승렬
##기록기
##험로
##전방지
용마루
달랠
##관산
##정책금융
쩝쩝
##인사이더
백악관
알콜
괭이갈매기
턱밑샘
홍용택
노화준
표면압
곽노선
##변속기
##펀
여객실
##화학합성
##평교
치자화
피할수록
한혜숙
##대륙
데블
##렬폭
바위수국
북극진동
홍의
##색료
살찌우
적색맹
불황
테레프탈
등바
수납공간
구성환
##종재
##수객
비정합
##니다
##이병소
##크룩스
악학습령
쬐이
바지저고리
##결강
소립자
전관
##국한
##골위
임읍
상호
헤지나
수통
핀업
녹여낼
##첨상
지촉
협착증
표징
##파편
불신앙
이충민
김재평
찰리채플린
참관단
##기과
장정용
##리플렉스
##정걸
##접대
변동주
구본용
매우기
단일시
팔선
염색성
차징
남승호
##성조
테러
주세종
인양기
층격
해란
류수정
장청
##삽화가
##공의무
##돌발
이병채
윤주하
불속
몽골
김태정
들이닥친
다커
##변구
##광산지
체중계
##작부
소옥
휘어질
전통문화
잉커우항
영의정
무과
드려
송도지
##북항
##고업
합쳐져서
스크리밍
##닑기
뷔름
##도역
그대로
이문화
##끓였
플라멩
##파개
개미산
외웠
배웁니다
테테
##향년
##건축재
전영란
##로타
그럴진대
갱도
사녀
요오드화수소
대추초
##독임
알팔파
강녕
홍필기
##불감
굴전
호스니
##열가소성
##수송아지
셰링
법무
띠밭
알레마니
정성스레
##되살리
김헌규
도깨비바늘
##후박
##일주일
심신
나종철
조반석죽
등장인물
##생육량
김흥수
사분법
김지현
##하층부
길러본
명동성
교육제
황의덕
전신
고용안정센터
이치삼
##래치
##금암
묻혀서
##걸과
히노
##호드
지천
##눌러
승조원
정기산
##신동학
팔미도
에테인
잔성
##중이
칠금
##샹그릴라
##영한
패시지
청회색
복사속
##절골
##병립
금창
박준기
신조협려
덧살
##간더
남궁정
##성권
금합자보
##바람개비
라퓨타
오상근
김학서
노동운
양벚
##산정량
##플라이
소화선
눌러
부사어
##계범
##점치
타석수
사회개량주의
윈터플레이
녹화사업
인공강우
##치근
모도
##했으나
##창산
강의식
신축성
망한다는
##설이나
##종식
의한
##키나아제
##이현상
언어사
##키핑
요컨데
우량목
##나갑니다
##서편
##중변
##방위군
러스크
김선회
무궁히
태평광기
이흥주
남무
##삼승포
광자
떨어진다며
##제이다
가져왔
가해진다면
사들인
쓴다든가
이인애
##할려면
윤순녕
햅맵
##들여와
지킨다고
호중성
오정주
류광현
##선도자
열화상
##위민
변성엽
홍승대
전통찻집
수초
##페트린
최적격
##마릿
생주이멸
##몽매
몬스
##소모적
고란초과
하천보
##접속형
정유경
백사집
##천왕
##해상력
대조하
##케너
##수애
##중양
##키초
아트비전
리니어
##세도가
손광철
##활연
한대원
방앗간
내압성
##어야지
##한다더니
##유충
약용량
##송원근
칼부림
인천
##가득차
시울
유선종
##렝시에서의
##당수
정재일
김민상
흡인
안착
##서훈
이병열
진덕수
통역
번져
오무려
##면적계
대년
##화방
##브리송
##라부
경질미
##항암제
##흉골
수종인
윤용택
살람
조성식
##색목
##가림
투명
큰엉겅퀴
##거설
##만화책
버니바
박승춘
조성숙
##불령
##옥빈
황의환
상행
돌아본
돌려요
##호이스트
##감당
인헌
금로
##칭촨
##균분
전일룡
영추문
블랙박스
명연기
강승환
##트리클로산
무능화
송금
파라곤
매실
김창윤
차문길
산마늘
바디나물
사천성
황순선
회체
뺷나
개밥바라기
일부제
배성현
측지망
##위곡
##역순
##여고생
계신
불리울
##럴프로브
색전증
냅스터
엡실론
살집
##발속
백현
##융기도
이순명
부그
실띠
##추제
사코신
수로왕
타파
##추사
강윤원
노동조합법
##생겨나
##옐로우
담세
##맥이
법칙
나자빠지
##토하
거버너
##감취
따돌림
##계이
##평일
팔마
유곡
잡세
폄하
싸였
슬금슬금
군자감
애나
##렬이
##진위형
송유철
##련작
이종항
##방사체
삼손
충정
검정치마
##객선
##관람석
##평행
##접구
요사
김중명
알버니
사향고양이
조은애
##소심
와야만
윤종근
기시감
엽편
##차궤
스무
이규생
산화마그네슘
이현복
역이
##향학
##장인석
차용품
##택량
박우진
##상수
새우난
체색
백회
난곡
##뿜
혁신력
##본디
박수열
탈수
송병준
##정보처
##토마
##국경
설경
윤정원
오메가
장동영
전파자
약방
##완의
마법소녀
약해져
임윤식
이샤예프
영풍
당해야만
마르티니크
##이정섭
양지
##과실주의
인데
장난치
다시
곰돌이
냉장고
유정민
마라도
##레일러
##속판
은자
날라
##인월
허은지
산과의
원표피
##구사력
발효도
##소멸
##자일리톨
진공
##절연지
##일장
##강도래목
그만두
페록시다제
이미다졸
장윤옥
알파엔진
##두텁단자
##입화면
휩싸일
##한과
##규내
강국진
##까지
##인도양
##성산
강희준
##석인
심부름
긍극적
와비
##졸수
통행로
뽈
##팔다리
토목국
쉘렌버그
##공수정
페롭스카이트
스러움
임문섭
하코
##쵀
##기준점
육옥수
감신총
사사로움
최달순
옥내
덕분
##베도라치
권해
##바퀴
이종윤
군마
첨탑
##호판
단벽
주단강
##힘살
김다나
장난칠
##투자율
허종호
##체선료
송단리
성병창
훌쩍거리
럿
##모급
김은현
유성민
노량대교
홍석균
조종철
##둥어
부적응아
소수림왕
닛블
복만
##열역학
신산
##관록
##컴포트
김명동
브라운소스
##원적외선
레알
귓동
강분
냉장육
포타슘
연화국
가철
##수추
심미나
##학규
애미
##성인병
##림드
깜빡
최정신
대전제
출입복
청룡
##안경점
로벅
둘러봤
여항
적속
낭독대
##거미강
노손
억매
##필사본
##병열
조웅희
로켓단
짝염기
##포기김치
농작물
##시추공
두부적
경왕
아도르노
휴양촌
##쎄미
##송부
합동
목말라
왕관
특별세
종결자
##적설계
퍼듀
인안
국장도감
지붕돌
양부모
##육간장
떪은
패물함
##향했
##가는기린초
##호종
신오사카
채빙
른손바닥은
김승래
안동석
송주호
##엽이
##창설
각시
휘둥그레
##감시대
##심일
용질
장대나물
토월회
##조기
구안법
스펄링
맞춰진다는
강명헌
쌍륙
유년칭원법
김후경
곰팡
##행방
##국과
분포대
대기
##송료
흡착제
호자나무
##어농
##야마
김희준
##중처
배처
대설
##안영
월급봉투
김혜진
최성동
##병성
한유진
한동
자이푸르
화강석
상야
##망양
불허
마유리
##갈륨
팝업
박관호
아이셰
모반
##좌평
설산
노정두
##거푸
이음향방사
##렀음이
농말
폐공동
##따
전용욱
##심이
##배상욱
조하영
##가쁘
도준
담즙산
##절세
##권유
김재학
##하중도
##단위계
##가혹
강신익
임건
호경
##발암
동당이실
최진은
##종원
김자원
무음
휘말릴
소명옥
등시성
김유종
##옹호자
##해선지
이남식
보류제
서봉철
##누두
조이
이주혁
정해져야
들여앉힌
일탈
손니
이명미
박정환
콕슨
적막감
최하림
이철성
##닝
비닐론
##웰만
##수첩
##필름
##배민
치유
렌조피아노
##이상훈
낙담
##섬어
자우림
영중추
석교
홍순주
오리고기
법천리
##찔레나무
국방군
송성일
구하라
지공무사
##매화나무
##면지
결흉증
##도루스
##디케이터
##대밭
위그선
##폴로
퀄로스는영화
##래쉬
##증수
##강접합
손마디
문인협회
폭주족
연련
유점사
정계
우혜경
롤러코스터
양노
발생량
##비안
니카
##마작
작의
##반트
##해운
##차동옥
대구시
정기택
최병무
##조결
##성모상
모자간
금지명령
우곡
정용준
고고도
비등점
이종모
토한다는
은재
돌과
락티드
사고력
##삼락
##백규
논피
##사회
궁한
##령지
여건부
##어신
해가림
인공육
라그레인지
##떻
금관조복
##미도리
신섭
방영
##철심
별것
##톱지네고사리
최재천
##시충
##철민
##열물
박명화
##법안
덧
##괸
시선
이뤄졌
감수기
김효섭
관동팔경
카퍼레이드
고장난
세무관
찾아낸
##면환
전하유
울먹거리
탑승권
목용
고락
##화한
역선
모혈
##바라
무제한
##종시
장영관
가시거미
주변광
##탬
티그리스
이승덕
##제록스
염세주의
##할복
##아가미
셀린
배고픈데
문인상
권민성
져버렸
리임
납자
팀버튼
이언적
남부
##몸통막기
펼쳐지
눈송이
백유정
트로츠키
##부품도
##존총
내려갈수록
##재산법
##곡선형
##쇼핑백
루슬란
##염발
메를로퐁티
김효순
베르나르도
##후막
누금
##바라보
##잔공
으슥
애오라지
##나는물
빈병
조레
뽀로로
타미오
##죽죽
##여위
카리야
##진제
유명수
서병하
김헌기
기생봉
등천
정진업
##하명
꿈
보덕암
오승민
농촌
##참예
##부잣집
타이인
##울열
가닥가닥
조한범
금란
##중푸
덖음처리구가
##빈맥
은교
##방열량
즉흥무
정승주
맥암
이교해
차종환
계피산
안보영
어깨솔
권효식
삼령
유의의
쟝
##리거
로이즈
김정봉
동북
카나리
유인걸
아염소산
빈정
##니시
##전건
협잡물
꾸릴
두견새
오키
이춘석
유순주
캐봇
##훼나리
김기한
띠고리
##층간
##조안
주성화
편년체
연날리기
##온달
##백호탕
선우진
##상매
##교시
유폭
딸자식
서대원
란다우
솔붓꽃
반조
장래성
엄태영
##혼합법
돌파
빠라
책갑
주민식
##경상도
윤현석
치원
##김순미
##불시착
쇠백로
권경남
오병승
안종호
##정영철
##실선
해수어
느꼈었
잠겨서
손현
중파대
익히
##실사초
불로불사
사마소
홍섭
오모테산도
루량
평상
이갑윤
위학
다녔었
##박경모
##식품군
##고립
##지평면
콘체르토
수경
삼종지도
악어
리신
십종
##이동과
명역
##장가서
아랍
류제승
정
개떼
중기
##측연
최재인
극세포
##고
##탐스
후려치
강비
이두성
황태청
##촌공
##라니요
르누아르
한준성
키득키득
차선책
에로티시즘
당서
##량적
##실물
한성식
##는다네
자고새
충화면
이준규
박영란
##외상
쿠하라
##주지원
발등
수한
배종관
바쳐
등위
북북서풍
되돌린
##불렀으나
##유자격자
달무리
천장틀
소염기
##최용석
##타액선염
가평읍
##피식
세세히
##장폐색
농사지
##반기
장익진
렌조
반백
생겨난다
노이에
김남혁
##고난
급부
항적
화곡
##밑변
친동생
##현물출자
유우
문형곤
애창
윤상필
##찬익
왔을까
삼덕
##세이
물어봐야지
##헝가리
역발상
의무실
심현정
장윤우
##근거리
통돌
구닥다리
트리어
태시
마쉬
자술서
하이럼
##신호영
김종남
##소구치
탄성
##반물
##쥬얼리
프라자
군용차
심윤주
견뎌낼
탈일
측량학
윤산
결호
허성욱
심장외과
김무
##오비트
최종열
##어언
정인균
오패
건설대
김유창
##정흡
장팔
배병윤
##촌로
##삼배체
충격치
강기석
##피크린산
부블레
전시판
황화물
##응감
렉싱턴
오우
##타짜
##와이어
##생진
배전
##통일부
걸으려
아련히
이창모
폴립
##중장비
피탈
추사
##동현
계속
##승준
권준식
탁반
알샤바브
##공업가
알짜
콧노래
서범수
##클레
수동면
##죈
독회
이관기
불만족
##분류표
본존불
##패럴
비복근
##만파
최종보
이정익
##용색
법문화
##석굴
박정구
용왕산
##팔뚝
동굴
##베럴
기준학
한승룡
##달집
세검정로
패조
차병헌
트란
신창주
##배현
##회계국
##풍류
핵실
서술격
별록
##고추장찌개
접면
임병진
풋마름병
##실제로
비구니
원풍
##너이다
맞춰서
##팝콘
묵상
##품성
##윤민
포함
다지기
##장형
##척후
##약호
인왕경
녹병
뺷한국향토문화전자대전뺸사업이
말렛
카르티에
거품벌레
용착률
##묘약
##블리딩
##물리
빈복
커민
##백제어
##김정민
문첩
##화섬
##양충진
##건설업자
유틸리티
끄집어낼
니라
##위젯
유일영
##연기
##쇼트
성기동
강석범
인현동
김희숙
##진유영
매몰
##마일리지
##노유
건으로
세이카
대좌
##바윗골
농서
면
유효섭
##렬비를
신방
무척추동물
##조람
##청견
어획권
종금
##해명
콤바
##정진
진선아
돌가자미
##대남
##리오니
김윤범
웨이하이
##채굴량
모질라
쇼이구
페라리
방수액
##면밀
탈세자
##자무
##종합지
암성
장항읍
가친
남부동
이신애
산차
박현찬
면접법
주파수대
질점
딩
송경준
들이켰
사졸
##중미
귤피
옮겨와
범안
벌어진
가진다고
##삼출
##약의
오강남
손석한
그로울링
하누카
##비환
달걀찜
장달원
남상준
섬지
전덕호
##안식향
귀인두관
개헌
유로콥터
감삼
##잡거
떠나갈
고재영
권응인
신대리
조성균
행사비
오민욱
##생활환
폐환
부동산
코머
오라질
뭉친다
##실패자
기렸
##곡성
뷔스
성재
원임
용성인비
엽상
사피장
중첨
급박
##퍼퓸
저압선
##메커
##천남성과
성기주
완수
허경구
이경섭
시베
##찬부
떠다니
홀딩
애처로워
##과두
되직이
손덕
시남알데하이드
무사고
용감한
관할지
황선
실격자
관등
한판
갯녹음
무료감
김우명
위재
호남평야
웍
가비아
오명
권태훈
윤서석
##피부색
##서든
항소인
오광호
유영목
텟
##이아노
##사용
최준일
예상액
강정완
전영선
나풀거리
남빛
##퍼니스
##책사
끼룩
가미야
혈당치
다익스트라
흑박주가리
동대산
##풉을
임파서블
박종혁
##암각화
엽소
참해
포자엽
우루과이
이스턴
함축
##입하
민꽃식물
##이뤄졌으며
세워졌으며
꼬랑
##마흔
협상력
##자료상
반유
다이빙대
##가천
##신경집종
따로이
##식감
##름외
##오례
독립사
아마디
샹그릴라
정수임
코데인
정동보
임형연
##한무
배경식
활동주의
##박종우
##표시기
앞톱니근
추성엽
전세정
조영윤
권봉환
약죽
박병희
루비
##귀가
프로시딩
악해
안승철
##보인자
잘
해독틀
구체안
신규만
모래폭풍
다듬잇돌
었
활수
신호중
위사
##외음부
##인터로킹
무명
종경리
자실체
##이소프로필
##광학계
신언식
##모혈
데렉램
##장애
박희
오대영
일치단결
##키드
교통업
양리나
해밀턴
##기생균
##건현
##징
##세제
##투모
점치
##김선숙
목은집
수호이
루드
속해
고칼
팔미트산
하의
##육지
금비
키쇼
아씨
탤레콤
##치매증
바쿠
확대비
장성호
드와이어
##시링
애조
만과
명의자
트랜드
##사혹
비족
이헌국
카바나스
##까치박달
##계급
칠게
##노근
소똥
방임형
선언
##돼온
축담
##창업
##순점
완사
##설래
임선규
##도들
##찬복
##포즈
##스파이럴
고딕식
##고분군
모친상
##샤오미
##어서라면
휭휭
##플렉
별의별
줄라고
장대성
부녀
향해진
##라이트
최희연
층실사초
##전령
싸여
봉산면
뎬무
바탕흙
뺏겨
엮이
삼호
심명보
##더먼
##광객
##치환기
최종경
익명
유일선
##전기밥솥
류관희
오세구
안영순
윤현주
압설자
정승인
해륙
##기본도
##역무
끊기
백기
악하선
이연숙
언스트
덴트
박영심
김종성
##유불리
백석동
수죽
유지용수
자라나
송성호
권영환
반근
##거쳐
다이어터
##럿만을
보하이
주영
최정일
과병
시안산염
완곡어법
##양토
##키런
영업권
##장관실
유봉석
충일
이문환
이신복
소코뚜레
고위층
쓰여졌으며
##기봉
백통
모평균
솔웨이
박근서
버로
안정효
이사의
꽃무
파크웨이
김찬희
헬리오스
을시
보건의료기술
결합력
##렝스
오영자
##난국
##의약품
신고자
모이주머니
형광
불평균
원경
부고장
한군데
성전면
허명행
두리
##사석
##내현
아릿줄
거사
선샤인
수병
박창희
메이너
##덴마크
탕액
최연선
이채문
한남제
김승기
##금담
암연
류근
구포동
주행계
결한
차돌
쌍영총
정석가
##각권
조창우
##해본다고
##평형기
수묵화
김병엽
세이네요키
이강환
귤나무
##느냐고
정장화
##창변
금진
##문인화
느낄
유세용
박명수
후튼
튝
##기음
##다느니
##분분
신풍면
##일함수
돌린다면
거제동
민숙
열복
덴햄
##쓰였
##계묘
##내세운
베네딕도
경락이
오똑
감량
##사결
##최종수
맴돈다는
이종구
모감주나무
만초천
##하이드라이드
##퀴놀계
안분
##과혁
##비서원
이남근
면적기
##다면서
##독혈
리도
최주형
속초
홍범
##식풍
올곧
최상문
취했
##갈퀴나물
##조명
문우춘
밭일
##태평
길리에
##이티리
그라피티
이소연
곱지
혜말
막사발
기댔
모사화
##출순
이정흔
시거리
화생방전
##신선
남해읍
##공주시
##데유
##콘
##박정호
고관
박성휘
이태근
장정민
몰레
##하철
은비녀
토벌군
##소길
콘드라이트
##뒤틀림
구릿빛
##간담
낭시
뉴스거리
임형
납줄개
##폐방
성동제
숨겨
##미키
자연학
김진석
광검
농조
##중건
도치기
이혜자
에스더
강호식
빙과
손실률
##오정
##초식
손민우
##시표
낮춰진
##원반
정함
탕정
정상문
비늘무늬
담당관
##국을
##풋마름병
이종광
난모
게인스
모른다
##사양서
존명
이인기
보쌈
조정환
배성만
납도리집
산화금
플라이오세
프래
비지터
##자연
폐광
##효용
박혜인
##계삭
조선상고사
##글제
##조
문법형태소
##오발
강체
중대엽
미재
카톤팩
만루
##퀴놀론계와
김호찬
국경
##탕제
연금법
평균량
악시
##제이유
휴위트
서모그래피
상록
염수정
최한결
##속관
황산성
##으려니까
뒤졌으나
강연경
오픈오피스
긴박감
최한일
윤난지
리니
끓어올라
저용
황정은
##다해
출근길
구혜
겸연쩍
장덕
산조인
본향당
퐁
##조재희
##아뉴
왜곡
가로줄
박계형
후엽색
김만희
수원지
##원의
박대철
올라가
가루음식
바랐
##진지리
빈프리트
슈이치
최태호
민바랭이새
##깅할
증표
##완적
흰제비꽃
##란다
이닝
##잇솔
피우
배트
웨일
##진변위
자량
성낸
압출관
##마우리
모헨조다로
헥사데케인
황방
채병곤
정남기
의열
##만내
사릉
##개모
접지봉
##종친회
##세연
광혈
미착
간새
초문자
##승위
정평근
##중등학교
##곡속
김성아
금원
주어져야
##긍하
##매국
##천배
분산질
땀버섯
오토바이
##컨더
집행부
##라멜라
유공식
보도블록
끌차
무가당
명정구
다부진
춉
최종빈
일러서
금상학
김병조
류희성
득도
##정면
##고형분
내총
이수준
화악
##성역
포근히
하각
##좋아함
안성복
할로겐
미메시스
한도윤
다중성
금평리
회부
##청색광
천읍
벽암
산화가
장병
김연균
사하라사막
사르파티
입혀진다는
쿠르드족
변성암
##디자인
아말감법
김하연
검율
##유월
##등가용량
##추교
양현석
석포
법천사
편집부
최성용
프릿
기독교
외관
##알바트
정맥염
칠엽수
김홍래
광망
원진숙
김교영
시베이
주석석
농구대
아기방
자화수
##초구
윤여주
살벌
정보재
순포
##용타
##문위
징역살이
##줘
바다직박구리
매포
##호퍼
##환형
##돋
##판매장
##황각
##팔장
수수방관
##수접
이혜순
원부가
##스타급
##검치
멍석
비파형동검
일체
##염병
져라
##고스
누룽지
재시공
일부러
덕명리
마찬가진데
전희주
수가
##우초
##암말
귀찌
##벌거숭이
##면충과
##고용량
##서문
청정기
##가림자
박선례
##추살
일편
##향탕
참드
##비닐알코올
계셨으니
##욕탕
하층
김선순
부평리
바사
리스크
광견병
##헝
##오스미급
개탄
##머루주
쾌활
##무고
진목
오트쿠튀르
이다지
황순희
장용호
팠으나
##압지
춤추
##다한
승연
##나이츠
이동찬
##절일
신재효
순수입
가해자
자갈길
##흐름곡선
시연
부추긴다는
정동조
오성종
슬라이드쇼
로마을
시트커버
임계천
최상진
##글루코사민
제명
##스폿
닥락
메신져
건가
##떠오르
##물청소
산복도로
시집갈
##쥐똥나무
##심학
쇽감도
##지망생
가채리
마르지
박영훈
개미굴
윤병식
인민해방군
##타개
지여
##기연
문준호
전병태
이창준
자비산
올까
##역대응
##불량개소
소가
실고
##원교
##취선
포대기
장하리
남다름
##승근
##고드름
축산면
소음순
최종남
##지로드
##극동
술기
##로망
손원일
김애순
강은미
##부인
박재환
한도현
전립샘암
나르기스
이현군
##다국적
테크노스트레스
##검거율
아귀다툼
랏
구파발동
초인
과민
버선본
##접근등
##폐
파식대
위장취업
##김승용
조옥선
##보만
잭해머
노영무
갈색먹물버섯
노소영
김만진
##전구
피심자
##술포
##파쇠
##알루미나
죽잠
베임
김남형
부프로그램
뒷얘기
노팔
대만인
##휴대품
숙년
##하첨
암대극
정신
소광
켑
영안실
후유증
풍덩
##주선
동업자
떡쑥
##화약
원더풀
활성제
오재은
캐나다인
골라
강령군
세이터
##용당
일반석
신행
광덕산
##적출
성냥팔이
##염정
##백하
장거
칼춤
박선지
마태오
제왕운기
##윤발
##현곡
##석돌
제라
스펜서
이끌어냈
흉함
톡스
##최상
스트레이스
홍정화
윤범
일진회
저며
시규어로스
##유동체
##능직
인솔자
양공
염계
##탈러
하종규
##신명희
울려온다
퓨
##운동학
##중화기
##독립운동
탐식
##껄껄이그물버섯
##박훈
##현수선
##광간
공석기
##입법부
##죔줄
적법
##유단
##직업인
##버림
스탈린
##식의
##흡인력
##안토시안
미후도
화산리
살레르노
진세연
##퓽
홀연
담수어
가정부
각시서덜취
##합송
##나이프
양어머니
딩크족
##자족성
이투리
이광직
졌으니
육교
황정경
##우주복
##살충력
오인성
쇠기
손발톱
##돌라
김동표
궐련
##가탁
부분
북좌
##내무부
나극환
고식물학
강상현
##팔역지
##방송
정은상
로돌포
##산경
닦여서
김종규
오른다
약산성
##통이
신빙성
상발
##단봉
##조명식
강임석
##천매
행벡터
보자력
구김
다북고추나물
##퇴양
등기부
##담원
허벅
이기제
채롱
제곱근
행진곡
##지나왔
한갑
유성종
활빈당
짚신나물
##시부모
열등생
용접기능사
오석진
복흥면
이기화
당황
강영재
박진감
안영욱
스너피
##복궤
##공금
입물
백일장
##시즘
##급속히
제문
##징발
보상비
이찬석
윌킨슨
##던가요
유제풍
보상화문
이귀형
흩날린다
공석붕
디딤
조용근
명변
이용률
모경환
다금바리
테크윈
내소사
##화하
힘썼으며
북부
##이정욱
갈두
동후
허밋
숱한
##성금
##극작
##용덕
지방종증
진다고
문유라
##산비
비어스
이갈
장송
##커즈
복치
##쳐도
##말마
할래요
늘어짐
신현근
##녹안
##레벨스
후계림
용문동
트리플렛
피산
리피트
강인선
큰고랭이
##언집
녹두거리
배재학
놀이기구
내맥
전지원
##요가
##빙해
모야
##나갔
덕적리
베링
국제항공
임대근
취발
첸나이항
니시오
김계철
금성산
모아서
쇼핑백
내국민대우
쓰레드
##석수
##략물자수출입통합고시
고광춘
골
몰아칠
판장
정암산
팔꿈치
심미안
급락
돋보인다는
##을라면
##번지
##히타치
##흘러오
##정기준
##소화조
불투수층
마친다면
벽파
##올려서
전자석
김석훈
##대력
알려도
##복합체
시발점
##나마나
##수착
##님
카너
홍연애
대분
빠져나간다고
구척
이의행
##슬금
##망태공
만어산
비백서
수탁자
##억불
##평화통일
레퍼토리
상대사
##트랩도어
수추
##피박
손경옥
##등리
아마존강
##렀음
##까마중
발사각
전두수
권리변동
##진보
이행이익
신해룡
##지진대
박봉선
##실직자
상작
칩보드
##새비
날다람쥐
##모커리
노유정
##외인
손동일
##골프채
구어
카일쿠퍼
##선흘
가지고비
나자스
용두
##대장염
세면실
##형국
학습회
##여감
로카르노
들어찬다고
한정아
용법
조병오
의문문
협동
장폐색
백도경
기동로
연방국
평균산
##별반
져온
맞바느질
구름무늬
최운선
한세희
##무종
##분산도
바이오스
에리히
##병장
원화
조경희
설상철
덩크슛
##판어
##지연
모았
##추국
##세츠
박기호
홍명우
른다라는
서연수
누년
멘토링
##산형
내려져서
전기
하판
위덕왕
배럴
답배
##정철호
##태워서
전석주
후숙
##항공학
생닭
정재승
지희정
대통령궁
롱안
총폐
몰래카메라
임종환
##다파
안익준
##논해
##곽승철
##착탄
이윤석
주근원
##청방
##정창무
일급제
기
화기
뒷주머니
##극소화
주문갑
##채권
늦춰
주기장
##배기술
터먼
##파변
##신변
짐바브웨
##사무장
##세척력
대해서
전지연
민영이
##쏘렌토
가망
올지
##돋보이
인수위
류마치스
최영광
두훈
공공사업비
찬자
더글라스
임희준
##럴은
문진영
일죽면
머리채
##수나무
구속법
최성실
로제
##김중현
시닥나무
차대운
정격치
##김기승
지혜로이
저질러
선더
침식곡
##이종열
풍년
장샤오강
풍손
##산계
##수줍
윤연옥
##분쟁
허혜정
고석오
##점상
드라고
임유진
##자재
##관저
국문법
설해
토백
진동항
뿌려진다고
수출품
측출
##트렌치
돌아온다
조선일보사
윤택림
##레드
퓸이
이자성
김승록
극초음파
##간성
##성충
##냉동법
정규남
##원론
덕연리
##영류
물렁물렁
명면
두드러져
리베이트
시보
합쳤
안광진
##배추
맘보
김태경
##이봉희
##야정
##에비뉴
##챡
##내려
남정숙
고령산
까마귀머루
불현듯
잠저
최주영
##오카미
##산각
##응원
미첨
##낭연
김방
종지부
마론
카고
수생균
황양
알비
##노발
윤석훈
송철호
최광환
통각
김용
차두
##변화
싀어마님아
##특기
신용정보
임연화
##환기창
산겨릅나무
영업전
역전앞
훽
박석규
촉수
##양주원
활석분
헛불
강력밀가루
##미야자키
카트린느
##실말
혈액가스
아르
임종우
기장근
은박지
통일
##시풍
서대산
##히후
자가돌봄
##따돌림
유패
홍명희
##김형주
박력
겹옷
이영식
응력법
송기덕
##길앞잡이
감로법
이남숙
홍성역
로터미터
묵밭
##채워진
카르복시산
##주사위
장기복
자수천
최명석
##황수철
날줄
##벽천
치법
대원칙
죠이
치뤄졌
주형틀
##종어
##물수배기
노세요
##혁진
경찰차
사마리아인
모리타
잡채
##무도
##넙치
수차례
숙영지
##의예과
수십
##범행
하버스
발흥
주모균
흩어진
##뚫린
도립
물어뜯
류근택
내만인
그린다
승객
결합각
도부
라호
솓은
남기성
혼서
왕사
수화자
##세대공감
소방위
깨뜨린다
경과실
총격전
##지동
조재용
자서전
엘도
심의섭
헤모글로빈
##결과설
##서합
부정거리
오치훈
##세네
비데
학교수
사계리
모호
##역결
##선향
##궁산
사각형
알섬
##복잡도
종좌표
##폭소
산총
배내
해도동
장부관
강석준
##깅토크곡선
##들놀음
##조준
능장
##권근
복놀이
##육촌
##교취
##수규
박성옥
##개구부
쇼트
##익현
홍순철
##잍를
일래스틱
##울드
구주
정구현
권문택
##조국
조영미
실섭
##연색
부칸
뺷신증동국여지승람뺸
##홈피
큰길
##고등
##조포
전준민
##화산군
방이
덥수룩
##소성가공
전봇대
유명건
박이주
생깁니다
##슬라이드
생산비
남윤호
##임협
##안궁
##특송에
##화해
##페인터
육지인
##전
인태
육만
##원척도
##로렌
##종점
##봉합
근맥
교태
나빠진다면
##관외
##미소체
음악캠프
으냐
병아
제삼국
조정안
합연사
곤궁
##리티에
불임증
과천시
##인침
잡무
느껴짐
백두산정계비
##연천
페실리티프로그램
김학순
군침
##주의수
장선이
리시버
네이션
##지가
##우모
거류지
함묵
황인서
황근창
하준영
대전기
관구장
격동
회로
우행
권혁춘
캐산
열행
최수민
턴버클
페타바이트
##공진흥
양상열
장정임
##노숙인
새옹
##러시아
##잡색
김창은
원어
우군
해지권
류종원
시큐어
광주기성
제학
변질
문제자
투기상
##마이스터
스케일링
##촌거
##블랙
##여필
짓누를
##톱질
공공요금
미학관
노진형
##문명사
외소
답변서
김인범
송화
그라우
현창수
배진희
횡재
불쾌
한용대
중장비
꿰차
##영오
경단
##교통국
만수동
##이국립
함묵증
져서
한현미
민병욱
##샴페인
##계세
농현
길마가지나무
##각과
##레익
김세일
##이병주
##피부염
자망
##웨이인
신동춘
##설태
단지그
백종면
##공란
다렌
##추출률
가렵
##직결
##광맥
##도당
방호벽
강윤미
안태호
수준기
찻그릇
토모키
##복혼
윤성필
##조건부
가시덤불
중앙동
올림픽
신동찬
##독집
오클라호마시티
반항심
##웨지
구량리
##서지
내체
마창
평형석
도충
북창
합비
김창화
논들
##본조
만진
##퀴티은
상단
이겨라
모화
김창경
하라르
##눈
모이
일침
##직로
보팔
인형극
##고야
박대하
사미르
삼각주
모듬
머무른다고
콤스
최낙철
장재영
한재혁
엄태붕
캄코
다케시
천히
불거진
권혁수
##산패
##적재율
영접
내레이션
##등유
지리멸렬
우보
이정태
##경태
아타고급
##빈정대
창내
김찬호
##포르트
채터
될까봐
체적
문흥안
붉은머리오목눈이
##감수
역부족
##방지기
름대로
만연산
##항공사
류근관
염경
##지져
이의현
##두마
##내핍
조지아
서광석
##만능
##애쉬만
원효
김형균
윤기방
밀초
홍종명
##유사증
센서
##프리티
김선정
정약용
영유
치하
박민
##아크릴아미드
볏과
다이얼
##세밀
방촌
##림상
진수일
##패널
최동락
##코펜
수목학
광림
##박부
튄다고
맨드
##중대장
김문희
##야구팬
##자가운전자
##어야제
공손히
포구
##력학
정대균
##누런
##범
발육기
도깨
##향토지
문정용
내려와야
장생포
관동
불사조
깨뜨린
부정취
덕천동
##어긋남
##색환
##까요
조각달
##개양
유직상
경양
이지홍
##러디
김희철
바늘골
박석지
맥네일
윤명조
##이중경
함주혁
몸빛
이성혜
임지혜
##이데올로기
현윤
연수
##막한
가감례
문성호
최영옥
##암
유불선
박재희
파라셀수스
##안개
덩어리지
일본식
열평형
농대
쪼개짐
##상대
터트린다
장력계
히고
##한티
##면종
##자립
설탕물
##됐
생강
##내피세포
오건수
정제화
청수리
##정궤
니콜렛
주먹다짐
무대인
##다매체
퀄리티
복사화채
송치훈
하느님
일몰
뉴클레오시드
댄다는
선우명훈
##참전
송병선
##매주
연회색
##두묘
설승기
정동관
오복자
케이노넨
움벼
##퍼터
미시시피주
진찰료
이창숙
엽연초
쓰레
##중전기
갈게요
##건조화
박중구
##생균
귤화채
뉴우스
투여
백은주
동호항
##수벌
라마
##잡의
석식
에게서
##등가물
수입원
인디자인
한규홍
알미늄
사층리
박호섭
##서북단
설미
나설지
정석원
다배체
거들지
부하
##엄감
##나옴
##구조식
##맞춤하
임충수
대황
초근목피
굉촌에
##설해
본안심리
남명우
##관물
##지그재그
이한림
배진석
##선풍기
복와구조
기후풍
용띠
##국실
정봉
##덕산
제군자
##두드러지
김영옥
축제일
##컴팩트
##육중
##벤젠
균핵병
아핀
군순
사우스웨스트
서원택
덜기
##궤도
마술피리
청취료
난각
곁길
플래나
박철민
##조각장
##결정자
정효진
##천연섬유
##실천
추파
샤드
식조
초학자
##피지샘
##생각
구본길
실수익
참가인
에놀
최석윤
탑동
김종률
단비
##활력소
##총포
방대석
##안젤라
홍제역
꾸며야
##프롤
정신상
국제전시장
맹사성
신원사
음모론
공사장
유삼
이아니스
##올려야
##퀄은
돌미나리
드렸
삼락
##고습
증수
윤왕중
소녀혁명
군의관
##불예
##세묵
루던
야머
뜷린
##본대
여행길
황보창권
사용주
황동주
수정체
안영수
##포트
후쿠치야마
기역
셀러스
도서원
양기철
정상식
고의
무지각
##방충제
누름통
메모리즈
윤현진
##이음매
##헥스
갈바니
심희원
##낚시
곤잘레스
쫀득
다이로
##대소
분평
버지니아
섬황경피나무
##토퍼
조윤제
이좌
##부빈
김동순
연천
클로
##파계
##진동원
이병철
김용신
짜인다
박대성
##로커
쇄빙선
소여물
염제
##위벨
유기인제
들쭉정과
조윤호
끼인다
김일엽
##꽃술
솟아난다
폰스
섹트
표리부동
##포내
탈회
##공명음
정규일
##명암
가장이
액커
접속구
연장자
청학동
장세환
성철민
##온노
도착지
임박
과태료
##어프
귀마개
##기민
##갈리
신창호
함성훈
서순이
이자원
##지티
캠퍼
##병참선
조각자나무
허익
유수식
박기태
김택환
교환국
벼름질
에나멜선
##에너지탄
인후
안식향
구리온
최혜련
##전도가
##윤규
조목
일물
##초번
##표본실
##학교차
노상철
##예매권
오차율
##웨스턴
##착굴
해조류
천측
##어메니티
##고구려
##안옥희
가스층
윤은주
다변
웅크릴
조상
아멜
노시평
광신
영차반응
점용접
##승장
예술인
청각
대칭형
##임대
##버다
초학도
준보석
##인벤
장선재
먹감
칠교
##아이스티
박노철
입하
주덕영
프레게
조르디
##편족
이두
목호
삼소노프
건설업법
조기준
##지궁
##보유국
무겁
김판진
보이콧
방탕
이유선
구해라
석총
##안동만
지방성
##른카
존대어
##주택지
통도
##김미숙
그럭저럭
골격
보살펴준
획급
강내면
서비
웅진동
##대함
김용혁
##제너
##별돌
구태원
뼈대근
아킬레
##삼용
오을임
건해삼
##보드기
원용
##피양
##영암
##기계력
으아리
나성웅
어고
조진래
##기준지
오히려
추시
##배당금
이영면
편광계
스펙타클
진군
공회장
스페클
탈실
매자기
##영표
노갑택
##박혜선
해독기
극정
진균류
언어기
##빈개
감리사
##어깨높이
##프라이팬
적엽
어휘력
토류
김완민
쌍화점
##모낭염
블루마린
함윤주
창우
스리쿼터
전시창
간곡히
##코니아
##불사
와우북
정어
햇볕
##탄산칼륨
유락
##신연교
유태호
허대
##탄내
숙업
아픈가
둥그러지
비즈니스호텔
구두선
내리기
트류
형편없이
와이카토
##기삭
산수화
##순봉
마셨으나
방열관
##언필
##줬
##안숙
신혜식
분해
귀족제
##노동수
강상호
로즈마리
정웅섭
##노결
지균풍
벅찬
기준영
시조집
프링글
허천
객화차
이중주
오르토
추워져
난반사
시아파
##힐즈
바닐라
##종환
권순주
##압축성
정명숙
서비스율
판매자
##특권층
흠휼
남방노랑나비
옹그
신동익
마샬
돐
마강
##방사백
그물
우덕
박희섭
설제
수자원
재학생
김은화
##초학
큰길가
무거워져서
김양
##잘려진
##달롱
##랜시
도등
##분암
##황의
##침강
테라
숨참
니시노
##로프
김태진
고기환
##텐
뱃길
범재
부리면
##대복
고도
##휘리
##뽀뽀
##연구심
##히데요시
##클로스
되살려서
##마친다
세밀히
##동력인
중토
이준서
##고픈지
도전장
관음봉
투막
지진제
리부트
##스트림
##전정의
##비판결
뢰플러
콧방울
텍스터
찍힌다고
옥병풍산
##측선
패들법
##나눌
##소유물
##쳐
##공운
작방
##즘
##큘러의
기동수단
##망침
묻혀
삼겹살
위정자
문드러지
겼었다
##건위
황민영
##단체
##랃들을
홍윤화
대묘
##쌍수
##출점
정가
카루소
뺷오늘도
상봉서동
고윤기
포맷
입혀요
백현수
납산
점판
김동일
면역성
양재근
다얀
##클로즈
강성웅
##중수소화
##워커힐
병예
##케이프
돋보기
나병준
##로아
유영지
##고봉
시켜야
웨이즈
##치순
부쳤
엉덩이
지하도
정승일
남편
##습처
어연리
인왕동
##중숙
##쾨르
유적도
##현서
획
##부해상
주식회사
관곡지
약해져서
노인상
마석
꾸러미
이타이이타이병
##소구유
바인더
##주행성
##회귀기
유춘번
##노보
막공
떠오른
촉매
꽃핀
침루
##그로브
시대
##승수효과
경영수
##맥류
헤어진다는
성추
김범희
시곗줄
시누
##인평
번져나갔
햇곡식
천왕성
제안공
최수웅
강분다식
##공군
현품
알프스산맥
상표
라보니
임시완
프라이멀
김경찬
슬푸
##분급기
냉담
식게
##임당
##관장
한운
닥쳐오
##명랑
망가닌
##흑자
김태영
냉수괴
풀솜
##상층
허동석
정연태
아나운서
가보세요
이란숙
##서점
노용만
아틸리오
김신형
시설
베갯모
죽식
꼰사
##덕목
##시향
거리낌
자동포
오룡동
전남일보
##베터
##다몽
##자궁경부
매칠
굳혀진
##절차법
##알레르기성
다니엘레
남춘호
##여은포
이봉건
세대주
전경희
##연제
김춘경
평원군
무기명식
##유희문
##양성기
강입자
부여읍
왕정복고
##대위
##빈자병
##착역
다큐멘트
##기내
해리스
황예슬
연금술
헤움
김형갑
##화독
배정은
만년빙
춰야
까칠까칠
번역자
##프아
장진혁
최성식
김충식
##솔나물
보살폈
##병상
##성수
반야월
가늠쇠
헤티
##운동전
##금태
보노로
마이터
이창인
##핀다는
원추각막
기나긴
민병환
한정수
미실
부산대
##렴
댑의
신립
저지름
##총합
쪄
산구
김원보
일등병
##렀더
방향
##관료주의
신혜자
귀밑샘
아광
가아라
##놨는데
##가슴살
##블랭크
회면
쉬우나
움직입니다
틀어쥐
##메시징
보사노바
성문화
첫째가
만산
##이네즈
업적주의
##오경보
장례식장
빠를수록
##동명
홈룸
광인
##흠집
김성균
##무호흡
김월화
##후년
자율
압축력
##프로필
##카델
솔안
주상현
##영필
천영우
선두
나왔으며
다사다난
이백희
예두
##호감정
황아름
##장고
##방상
김화수
치환적분
동기속도
은수저
##여설
가곡
##잡림
급박히
반모
반가
역적정
맥아더
##구매제
동북방
시퀀스
시바야마
혈강
수역
각도계
기울인다면
이미순
파이퍼
쿨타임
엎어지
윤형철
##프로파일
조명재
노컷뉴스
튀르
바깥주인
협골
리카르도
황장봉산
퀄츠
##손용석
쏠림
송홍기
##통역
파괴력
아디프산
강호영
스왑
주먹구구식
측간
최민기
##무형문화재
##납기
제사공
##요란
##보령
신지식인
##요구사항
김용택
아카이케
짜
오다기리
##유영현
수크랄로스
생송
홍미경
##범절
##색채
이애랑
켑타이어케이블에서의
##가해자
갯사상자
##근지구력
낭무
취반
어역
##방출
김석신
##원단제
세염색체증
##주간
간식
##비짜루
물세탁
조하현
사로잡힐
두텁
##아메리카나
##양개
가지
##펠렌
##과중
저속도층
모아
##지역민
김광선
음렬
##습득
반병두리
##방음
달릴수록
교복
습량
##콥스
김삼섭
##운반체
##거시경제
##교목
감문
쉬바
##개갑
노브레
백수정
디아즈
김종권
##식목
##여비
한상용
맞아떨어진
##요업
라이팅
##산곡
##어리랏다
순응
회간
자유정신
낭형
김유영
오결
##전수
남진수
##입물
위그모어
아등바등
강신규
나타납니다
변실금
카이사
편자
퍼넬
뒹군다
눕혀져
강의록
삼각도법
##기프트
역용
주회
들쭉날쭉
측재
재무서
지정환
양하전
##흠천감
이근용
##캐주얼
카와무라
저어서
불살생
##바르
##인내
식변광성
앞모습
점층
야금학
조민진
분창
신의학
하난데
로큰
##로사
짜장
##등산
##측백나무
나짐
키덜트
##뤄
##납색
하진부
남서쪽
진정근
##허손
서석준
##개심
탈민감
##유아
##전창대
이정립
숫양
##매초
##적항
이순배
추앙
##거미불가사리
##석탄재
##지애
부릉부릉
##중왕국
##쇼트트랙
칠낭
타호
##티유
물러져
포스트잇
이희권
##합섬
##단위
##뇌병
의문보감
산성산
김도훈
조인절미
##증강현실
장의
##간환
양가
간곡선
유경현
권경희
이복자
약령
흰콩
개벌
##명주
정조실록
작토
자본력
동청
##앱니다
전문과
위령곡
##떨어짐
현비
쏴서
##부총재
##주보의
방식제
##보빈
임종록
신입자
##깽이
이탈리아
장한업
##도류
알아들으
이긴다고
심영택
신용남
와이어
경위사
이효원
##상공인
그리로
견고히
신야
강내희
##누적
인턴
교사
크론
##디지털카메라
틀릴까
윤정인
임경한
고마
##뺸에
##미성년자
의태어
가오리
바인딩
##항온
복대
##위험시
만미
산토리
박재상
접지기
여점
보목
##릴리프
변태
동전
헬먼
부연사행
궁사
코리아리
과만
##파찰음
##당했으며
전격
과보
엄성현
양훈기
민지연
손정락
##호간
위압
##오갈
애착
##내식
##대설
암시성
막대그래프
망막
헤름
최영출
광선총
중성색
상위어
달라붙
##수문학
겹친다는
공탁금
수어
어부사
순간이동
루크
학계
청비름
트레저
김득만
탈퇴
어플리케이션
자동기계
선혜청
조재승
이승상
##공권력
부가세
감영
근원섬유
들러
##나영환
만져도
도본
##피토
동갈
##삼의
##롸
##추혀들
인삼
송재영
##공기층
피롤
텐더
오세관
##검거
믹서
##된대요
렀을
역반응
감회
용당
배압
측량기
보균자
박경완
아세토아세트산
플로치
##마지
##그림책
오드리
아르투르
부사
##류도
##내편
이병재
줄바둑
블로그
서정천
김순귀
##납니다
유선희
##두드러졌
##읻드릴리즈로
강대석
복착
##배달
##종학
점역
##상흔
잡과다식
해지
##냉감
지난다
오도산
##조임근
##척한
견도
##희열
##장기종
##요석
이영보
소혜
이어가기
##이대로
마랑
##김영섭
논공읍
서쪽
장아영
꼿꼿이
정상준
여인네
홍경택
최철민
기록
염초애
정현승
박계각
##교
##일곱
반가사유상
##퇴적토
살가죽
자중
김헌정
##로체
필계
퍼덕이
혈관계
##학생들
망재
공존의식
강용
최종재
바라쿠다
##일상화
페나키스토스코프
찬도
##초년생
##아르곤
구프
브
싱크
체료
최명진
##이태
슬로베니아
영양가
상수리
불순종
##족보
식당차
전대근
무공해차
##홍장의
##선업
측중
##희석제
님
배영민
##신영의
##신파
네오마이신
프리챌
원재훈
권순배
트라이아스계
답안지
영파
##페어링
연낙
업보
홍완수
해매
##올계
세이어
서승
##유린
정인하
서강희
##단능
스톡데일
간동면
법주
##련차
##졸림
이원양
스캐너
좌대
금테
참새고기
피자
키이라
월수입
통안
이희건
레빈
돌파력
법왕사
약콩
규범의식
호위군
##배정렬
뇌건
##금룡
##소유관계
김미숙
라쇼
지둥
이성창
해칠지
##기능성
왕도
##출회
부였
추곡
##서루
그적
##명숙
마
##듐
긴축
뜨
반듯이
흑색종
태극기
코지로
##직할시
##울림
원범희
##타사
##고용
걷어가
##판단
민바랭이
굶
조성계
아님
카프리
##묶
##베이시스
양순음
사무원
##밀영
카브라
##만별
##사장석
황철민
광링
츙
먹탈
염소산나트륨
학번
##아랫니
뎃생
붕우
추급권
곤드레
기지떡
김이지
따라도
게이머
좌병영
금세공
주마간산
동작상
조아름
##다이스
##온동
전약
##해악
가마소
북한어
이필재
울화
분정
홍계옥
##소속
##결어
한창
허민수
압량
단요
김수림
면적계
생피장
향연
사등성
##장강
##졸이
사모님
윤홍주
찰랑대
##적오
혼합주
전경미
##샹
송평
에스코피에
유괴범
방한의
시인
체르노빌
##썰렁
주롱
굴종
손수건
경폭
간세
흐름식
메이드
##내응
얼렸
팔등신
연결기
경실련
##장경간
코미스키
권내의
박선구
카즈토시
모음근
백탄
쇼토쿠태자
계신다고
조선행
##도화새우
송우근
##웰리
이상남
김행
입법론
스킨헤드족
##웅주
대릉
한만용
##구급간이방
무용복
궁화
추적권
일양
영해군
구병두
저당권자
유창열
삼산도
유물론
##약효
부적면
복백
원형
##청정제
##서고
##보통
로즈버드
##불식
리덕션
윤이상
경주마
옮겨도
조원제
이성희
민수지
엄성호
가주어
##필수
##읍
희소성
외토
김용은
숭문
##후봉
나승권
##상업주의
퍼질러
클로나제팜
암반층
이니셔티브
##선면
김당
혈관
유죄
석실
다요
지중선
테스틀
황유미
##의석
##엽기가
##옹성
##세희
초서체
박성근
전사법
##지적법
울퉁불퉁
신승훈
##네만
##담학
이효재
따졌
##컨버전스
처해지
포장수력
##전철민
##인민공화국
##피아노
##다던가
##쿠로
진현수
탄약고
변준형
##스타나
예하
노형남
자칫
능내리
흡음
단평
게기
민중왕
보리감주
강즙
카텝신
직무범
얼핏
자기실현
이동휘
브라더스
파괴점
남궁협
김남두
폴리아세탈
##삼일주
김신정
서블릿
신영숙
향찰
괴목
감산제
령도
곁들인
##부학장
##유연
##휘정
바란다는
##민생
##취수탑
꽃물
협하
대장간
맞췄으나
##팝
##익제
막아내
이상곡
##눈높이
##자동
염탐꾼
김한울
##정다혜
##동남아
##캘리포니아
마신다
지연관
달구
##사토
천세
올레산
뭉친
##인판
공명감
습사
##속경
##퀀트
김효숙
##장지원
시연회
##깅에서처럼
어두움
정렴
##포우
##평로
데츠카오사무
선후창
##은사
우복
심미
김흥열
여행증
다키
##체조
비산
루미스
##헤인
##공각
##정수식물
하운드
##효원
##벤타
공신록
제련소
##재청
최두성
본부
관원
허기
코네티컷주
##체척
황상필
항공로
##셈판
##합쇄
심덕
여창
클로라이드
##사필
올려둘
쿨롬
유객
젤로
떠내
덕택
곽진숙
군감
패이스
##정규직
박종빈
사랑니
적벽
허길행
피칸
##거신
권혜원
##갈로
윤천주
오성희
##압초
로테르담항
##창거
임병리
난도
##명언
##요절
##평문
##두골
##정주형
이후상
감김
선거
기동통
준이치
##예이
민병록
기오
김창석
질화규소
당긴다는
호원
##상하수도
흡인력
##목관
세곡
이헌표
유상물
##시대
게딱지
산위
##벌레
##소그라
##총참모장
##검토
웅남동
파울러
가동역
##보일수록
급화
꺾임
량기
서툴러
##기체
창평
니트로소
만송
##비저항
##만경
##온탕침법
억새노린재
##흡수기
국태용
화신
정혜운
##샘플
초심자
##수직도
다케우치
이종서
##스펙트럴
##축임
##바구미
##강수
##명사
세워졌으나
카셀
기회주의
변두리
유세준
강진우
개미탑
비결정상
##변양
이럼
##화산섬
바위틈
##마식
위약금
수집증
##칩
콜하스
##고지방
이의재
밴다
회음
비스크라
가시연꽃
##손인
홍기영
위치인식
중적
공정가
폭포
신광수
디데릭
키모
회칼
##포반
서제
말항
경평
고마리
김인종
데일리
이제민
계쟁
변지체
##능주
비엔티안
##재무장
윤봉규
사과산
공군력
패시
스위지
굉에
정권식
서민층
폭발력
##곤
##텐스
러디
보건부
##표면력
##수유성
##일
치우쳐져
##순덕
뿌리박혀
영남대역
뇌좌상
레이저
인문
프라운호퍼
홍명자
챙
홍은희
암소
로젠버그
삼산화황
타미르
염동진
세바스찬
대마
평등주의
봉와직염
플렉시블
문위
##괄낭
구추
##촐리
출발
##패멸
도담동
비뚤비뚤
##수총
거물급
수련의
홍남표
##마카
투망
얌전
르동
홍용기
비철
대통력
##면분
##석정
트리프
지켜냈
나온다니까
##허저
텍셀
기해야
##박천오
##닫
복주산
잡아끄
걸어다닌
황상수
##스토리텔링
정재준
놓여진
듀폰
거치대
고랭이
빙산
패기
##추각
##유중
세척액
복거일
대빵
흩뿌렸
##속채
채플
##요구
##정시성
패러다임
스토버
아흐메드
서안동
##의분
촉도
달라져요
##빌레이
김정아
한통속
부집
##붕소
전종호
근친자
금어기
이순정
로쉬
지방면
##될까
##사고
덕항산
임제민
광소자
김순겸
##해각
깨뜨리
조리개
건조기술
오우수
정성운
김관형
뜁니다
시어핀
제액
이민영
소년단
입도
##송환자
프러시안블루
풍부
서한집
##성헌
체량
홍창희
##내회
생활체
이현재
조업현
겸유
##구읍
강성환
선택설
나빠도
##방지근
망경대산
앗싸
허슬러
김명인
##돼지고기
에히메
주우
화지
쿠니아키
##친유
변작
동애
김병민
##연금속
뒤따랐
김진도
빈
##강림
안석환
조용일
수밀도
개각도
폰세
충주호
즉발
유끼
롱맨
##자산가
서영덕
시혜
취재진
조무
노진호
##형광분
##규민
운반선
##치우친
민망히
##괴형
잡종견
파피에
##빈
##광림
정석규
둬서
이경환
##세사
##구막
전병한
##만미
타마
##기준계
박종흡
최재연
죽전
##향성
논일
금순
폐충
시읍면
아극
박기욱
##사발
즐기
쉐넌
##감처
##개발
넘쳐
준주
후정강
##련인
소모율
질러댔
보물성
에노키도
뇌록
##외임
관찰력
김정도
한나라당
근지구력
##아자
##인양
윤순
##제습기
##경영층
동왕
##돌먼
무섬
와분
삼일대로
삼벽
##으라고
느껴집니다
##노테이션
##버라이어티
시코쿠
##결점
##키리시
성파
이용백
김기근
임춘성
##인데다가
혀
전국구
##구왕
정천석
경화역
##잇과
서일
##토실
쿠르간
##일사
생활필수품
이경종
중공업
##낭
오르내르
리젠
방경식
이태원
왜지
뵙
경리부
미얀마
##요연
##북북
김현중
권대영
뺑쑥
불등가사리
계피차
명명
쉬스
##거물
##계하
고문자
전지나
장보영
이병룡
##안날
닫힌
왜냐면
카바잘
##진망
리사
어원학
동티
##튤라로
버거워
##어고
##선행
##다형
##가주
##양영역
##피할
드러난다
알파선
이영기
##히다
늦고사리삼
극천
##산명
##첨가법
##게스리
황랍
길지
신원우
실무늬
건선
북소리
##팩토링
##명사구
강성재
십자말풀이
수함
바로소
레이크스
텔레마
김종우
전인한
##식민
##칭
허상만
##금원
수용력
재착수
패트리어트
조용덕
전광원
정상치
운동욕
김자영
##병렬식
멩
##전파력
웨섹스
팜파스
##남윤성
##촉조
참다랑어
삼제
##중모
기뇰
정창희
##화회
##디럭스
거들떠
##산학연
##말뚝
류경호텔
중국건설은행
임창빈
고대광실
##또는
철망간중석
##렬파괴가
강종진
##옥집
밀어두
##훈몽
남인용
##목적어
군직
알데히드기
지방혈증
##오르간
덕암리
##성간
상업학
##별부
진현관
엠티
단필
##묵산
인류학
임용현
##수스
승준
##콜로
최연욱
##김정진
애달픔
##이창업
미르센
신인수
##출자자
이소아
읍천리
동패
뒤떨어진다는
대응력
퍼낼
전환연
건너간
자극물
일반의약품
드룩
태평성세
청어목
레지던트
구애
##혈실
말매미
배종대
##홍문
통마늘
복위
자유주의
남적
청대
허랭
탑헤드
모랄
정률제
맞춘다
##미달
##말림
##포톤
겉대
법성포
##곤봉
펼칠
철치
##윤의
폴리토프
임계재
어떨
##자돈
준대로
##예하
단발기
물러난다는
##글로리
선의
##마발
증거
의정대신
순수도
독물
군물
경맥
임윤철
##쥬스
교육감
기대리
지득
해독제
부송
##영훈
##연광
노림수
##사교
이득윤
##성나
핀다는
내한
지동
##보형물
잭니클라우스
이본느
물으니까
##사냥
촬상하여도
##타임아웃
조중연
백병훈
진퍼리
외대
##보철학
시꺼멓
기업공개
공기영
신표
방폐
용돈
시절가
##녹즙
오태연
태자태부
양문수
박민철
##부흥기
함세영
##폭탄
짓물러
##안통
테프라
융접
##난발
##우펑
등쌀
##진도
김남송
신기석
감시소
시라큐스
맥켄지
##허리
안칠성
오경진
권광호
계족산
임수미
권보미
광대가
솅커
##수확량
언데드
전위차계
##련군
냉각소화
개황
##유총
뺷피터의
##반봉건
##접합면
##보도국
폭
월인
##털파리붙이
데스크
##조립교
교정기
제브
띠우
모범생
##귀자
눈썰매
정규수
곽우현
경광등
희락
즉시
옥윤
강보선
##호적
장연
##단일세
노인식
나현준
접합체
##녹니석
섬유종
불러서
마르코니
##용객
빙의
싀면법
##모재
통제부
##복제
##암근
탈수소
산과학
##스타터
적군
강도
반딧불게르치
탄금대
##행동평가
월등
##속바지
##스텔
살오징어
##프레슈
##닛
쉬워
사륜마차
랑비에
흥밋거리
총무과
즐긴다고
하태수
신범수
화물
신현목
오연선
##랑선
##설리번
편심
##편입
##페로
생전
##표면층
길한
하여가
설계
샌프란시스코
꺾쇠표
금사강
안윤주
##학협
##증량제
##녈을
감안
의방유취
##취군
막힌다는
구득
##제육
##진행
##천문대
황태진
테러리즘
막치
임희경
윽박
##소체
##미분
등본
취해본
##감동
나이다
##햇살
쿨링
최정란
암나사
축관
테크네튬
정종선
##기혈
두루두루
구겨
독우물
봉긋이
##월기
프란틀
##반응계
작업반장
##수동형
메편
사철쑥
##점오
객잔
##퓰레이터이며
가져온다고
마젤
미늘
삼릉형
##중은
테트라
때려도
##레카
사피르
변압
유권
이지효
##반선
##소독법
파브르
##상당히
경봉
##유수식
박근혜
강구
충복
패러데이
강혜림
동사무소
##쥭
##윗면
##약학
이진강
##중방
도당씨
심미정
판문군
##기시
##쿠토
최경규
##심목
계류조
산대잡희
##강수일수
##커터
인날
##행실
노랑꽃창포
##착시
##길일
공식집
##월산
심진
장정무
폐야
이미치
최우림
황기로
정익주
김인홍
정유산
갑
맥패든
규산
##경찰학
중의법
후두둑
서정익
가란
##인종
##스타일러스
병감
한정치산자
신동완
심미자
해담
독산동
문제시
유키오
심경순
비단벌레
윤종익
처했었
박용화
##황금
복막암
운영난
발위
벗어났으나
피오나
금속판
광염
금산읍
##신분증
##친사
생채기
얼씨구
##월평균
손미향
황주호
##반옥
문병원
##증배
탈린
연도항
애플맨
##몽고
성분
강군
##정촌
노정애
##밀랍
##장은리
영불해협터널
풀려요
##병실
열재
##피근
박성림
##종욱
양경숙
개시성
풋고추
사모
에이전시
##자동자
##숙식
앎과
##복의
류해웅
예종실록
처용가
송기숙
##개쑥갓
지출부
칼레
윤수현
항우울제
데니스
김동락
김명열
절치
##형편
길은배
##을시
베컴
훈국
대교사
##시아누르
마이크로웨이브
군액
현대사
지청
##아지
##건축학
남기훈
##송일병
군마현
원희룡
##신병
장경윤
##가빈
##감만
김영봉
호켄
당의정
##증질
전시문
##서계
심판
##천음
##가시화
##비첸
송헌
최소길
박순열
문치가자미
##혼종
계덕
한유
이두호
##월소
정균
##이틀
명심보감
##환발
쳥어념혀
우들
##부인회
쌍리
범월
미생
근장
##이형석
탕구계
##전지연
휘돌
이후락
주삿바늘
자동성
배균자
전전긍긍
신증설
심장성
인시
강영권
열어젖힌
##절제
대범천
##노심지
##임식
포아풀
균염제
##박금
꺼려왔
팔리
##상수항
각수
중국동방항공
헤아리
분소법
##에너지부
유공충
오철민
보은군
유해무
정편마암
##크리스탈
영은문
뭇매
##소방교
신났
##호미
신용학
시데하라
값진
##오염도
최철수
바깡
건축용지
오사카만
매스
생명수
##홧불로
간점
정치배
##먼솔
강충열
로농
##첩부
장태
최옥자
제핵
이영남
가쁠
박기정
전송이
옷맵시
박찬근
이태리인
도입
##역명
선은정
촉지인
손진
조복래
쌍촌역
가설인
##구양
항간
##뱔압버으로
##잡심
아감
##쳬계를
##고쟈
여대생
##새새
##수랑
도시풍
콩밥
레지스트리
신경전
종부
실리콘밸리
이형윤
##김종진
현진영
##스티드
##월례
출려
##비빔
본들
뭘로
울음바다
윤형덕
산골
##드러났
석간지
온정리
치아종
##방사선과
박미경
##직급
##역과
##찾아냈
##진단
교의
주인수
축재
##놨지만
애쉬톤
하재훈
압입
##기생식물
컴투스
넘볼
최현찬
어긴
##근세
용원
신첩
광해
##이페이
쿠스코
전치
수수미꾸리
강원영
충정로역
점파원
##일악
깨칠
고가
##이가와
##나무좀
목기
##황작
##마젤란
주명
##캐리어스
점토
수정능
##업화
이정은
##황과
안성마춤
디스크
##모래시계
##관수량
##암새
삭평
##팜플렛
배상도
##듦보다
명예혁명
##시가총액
니자미
##슌
찬송
진봉면
##안에
유황색
관부
##풋고추
자카르타
##초입
##황인
##엔버그
겹쳐져서
##불러들일
##수부
##일반교양
모카신
코차밤바
미지수
등
김중식
버릴까요
조용원
기기국
후과
만년
낀다는
##업스타일
주본
##어형
계천
오경록
일엽
강희찬
부상병
배운다기
##끌린다
황철나무
번사창
##연반경
##리바
##담수조
##박상준
그래봐야
장중첩증
신현택
한석호
준장
##명벌
파농
조동석
야마나카
##탄가
움직인다
김석원
##외국어
석고
##축척
옥두
여액
스필만
김병호
##읊
잎대
벨잔
##형단
이태광
악차
송진형
재경
시험편
박금성
##받아쓰
대금
와우각
##오력
##본다고
방문
횡각
해머스미스
##랴
##정서인
곽태기
##농우
안수근
가르친다
##른독립변수들이증가할수록총입원비용이증가
##니깐
안보리
현재훈
갈락토오스
##기회주의
윤욱
통계학
뻥긋
교정침
쇄목펄프
정례
일여
옆판
부총장
##조제실
석병
##세이지
##안흥
봐줘도
##도심
모래판
들뜬상태
김철연
뛰어내려
의료계약
이루지고
열에너지
박근애
신간
훼밀리아파트까지
서지희
##평수위
##단류
##가루깍지벌레
서포트
가슴안
집정관
##웃음거리
이서영
##어음
감옥소
##볼록이
설주
##선추
공진소
##어모
##렬비조정방법과
논지
##괄계획가및
들깻잎
##오쓰
##재색
스토리보드
응찰
묻어난다
##뺀다
##대망
참고래
매약상
독소혈증
##초각
형여
문명준
광호흡
아녔
율리
뒤집개
##조절대
##비교형
##갔
배천
탕평
원령
##연재물
저분
민병석
##헤지
홍감펭
히로사키
김왕
세변
##시메드
둥그런
지방
##칙
노태일
법인세
##전년
천관우
마추픽추
한상열
박정열
의고
튤민의
야스퍼스
유상석
##라피스
류명선
절강
먹힌다
호국사
보양
##브리드
유클라
백성선
##궁각
##서민호
순뽕
저공해차
코니스
정혁진
호스킨스
##부피분율
제넷
##업위
##강건
명성황후
##다세대
정일문
폴로
트랙
아크열
##싸이언
공정정보규정
파티
고숙
티치아노
이몽룡
##아틱
##부조종사
과자
최규완
헤드셋
##일록
##리진
##문공
본전
##안정동
##광무
주둔지
당연지사
##지헌
푸윈
복기
헬라스
서후
두께계
규산나트륨
##극소
정사각주
이킹
유아인
##심박수
육색
집촌
거즛말
식곤증
오상희
탤지어의
진고
방뇨
범수구리
도시코
##시켰어야
방위신
노동효
권봉
시폰
켤
박영아
##천명
##융이
##덤불쑥
민보
유병의
곽호영
##본집
삼광전
뭉쳐야
신감채
서글픈
##입찰인
##윺이
탐구자
##인우
모라토리엄
##영업장소
류정우
##삼정
장광필
개평방
멘즈
##저해
지워
들이닥칠
심극
설욕
##국생
전주
지로나
##지례
##응용
##사보
##추격자
##진료소
홍보람
##유치에
모노스키
로우
벗어난다는
예해
가자나무
윗돌
취락
##유네스코
##방축
##취했
배제
드영
핌프
##은성
김광혁
##솔기
##비상시
##김성진
정윤목
자연대수
저비스
##협통
신광희
##피랍
##방연
##생후
민경대
향부자
신라영
##서관세
돌봄
과학고
##선구자
##설검
##고협
유인의
가난
중도금
스폰서
자정수
경남기업
굳혀
##동어
##소보원
버코프
##겔젠키르헨
후의
김영덕
옥계동
엘보
##열소독
##양부
##보애
시중
번호기
##덕유산
##금속제
##부착물
폴레에스
##전망
포옹
##전송로
라임병
벼물명나방
게제
김장종
비스
디즈니
협력체
송시열
김위식
##아툴
토니아
고려율
메츠
이주승
작읍
콜웰
감싸안
줘
생활수준
자취방
지장보살
감자밭
컨디션
##린웨이
##진흥국
##섬화
##성걸
서정향
학소
기름걸레
##총동원
##자니
##팔로우
박우종
장사훈
박춘호
이주향
전화기
##거종
문영규
오철환
유광현
까마득히
참취
셰퍼드
신간선
##표면파
급고
로터리
선역
페불러스
갈릴리
##쉬
종안
##제곱법
권호
표현형
김아경
지방풍
옮
발포성
포만감
##우슬
역관
친조
앞품
초저주파
범제
##루마
유한동
부평구
##선란
##고팜
##헌의
소진광
##목극
둥우
영철
하나야
황조
정팔면체
##빙주
양철
박주완
해군기
서먹
최영준
임직원
들을라고
다우지
합금
딯다
기저핵
##디렉터
##라미스
길제
##펄
김형진
##금천구
##므드로마을은
깨뜨린다는
##양균의
##용어법
좌섬
구내매점
방저
산염
자체발광
##계열화
##윤승금
시카고학파
까지양태
독창회
저커버그
맡겨도
##퀴티란
##느끼
문경애
##방격법
성가정
##스미노
김혜금
##색이
삼원색
국채
맨홀
뼈저린
##구설
##전라선
권희정
상록수
##장준
산증
전투단
서일원
##질산염
##득보
우각
숫놈
##행글라이더
홍채
다카사키
에일
이정호
##고만
##독산
노기덕
용안
##편두
배강
바그마티
교육망
##해답
##연폐
최유현
박철순
김형신
복무규율
팔위
##판목
이문석
##우드랜드
이마트
##형범
우회로
적연
이뤄진다면
주산
유연자
크리스토
금백
해석법
##하돈
##흙물
##비밀
고사목
실비녀골풀
코르셋
##몰딩
세칭
구형도
장영실
곡창
입이
음료품
투발루
금천구청역
이재창
영산포
##수창
애정
##의사코드
자문자답
부스럭대
##가우스
##장언
통합민주당
안홍준
녹아드
##밀리
논리곱
##숀
방란
김형종
준영
##후망
박정재
진학성
총명
##이수영
카신
이세일
신시도
##흘러내리
##찬진
문정화
##렴장
야콥슨
##피로
에스비아르
잠비아
찰기장쌀
진영규
최미순
##걸러진
지명자
극악무도
춘궁
개념어
쳄버안의
가슴통
윤기종
검기
예술미
미담
##쫏
나사선
##수혐
##프리젠테이션
대작
김주건
축학
훔치
파로
김유홍
사구체염
##셰
유구읍
괴성
아동도서관
##무꽃
안정수
오상진
페르디낭
##농산물
##티오펜
찡그리
군부대신
외사정
황재훈
##광중합
동평군
뺷
이황의
##호완
갑상샘암
##젖가슴
문화영
시멘
##수산업
대구소방본부
쿠퍼스
김희자
넓혀졌
재청
변질암
##직선
오리목
시원
깅그리치
뜸줄
전태훈
##도보
미륵리
##망
반낭
부티
내린다
강연자
방탄복
하경
라우
##킬레이트
경락인
두들
탱주
##경표
란돌프
타다히토
##차인
##늑각이
결승전
굽혀
##뽐
##탐침
##습성
목로
상승군
보존료
오부
##살모넬라
##이드라
##방수액
프랑켄슈타인
##써두
역박사
가물치
##전참
항입구
##중과실
기촉
독선생
##연고
##후장
랄프로렌
나무말
먹빛
종
제애
##침루
재목
##라고는
배정하
묘족
##바도
교중
상업문
미지급
제헌절
##출참
일탄
##분향소
화방수
연당지
설봉
정노경
정윤식
직감
##종숙
내민
##소양경
##아캄
##멸적
##빈번히
이학태
섭동력
천련자
계획자
레건
위셀
##나로호
베도
김현무
밸
##질까
예교
콜도
한국학
깨소금
##수송
강첨
승패
뾰로통
장영순
윤태화
적재량
부교리
##복잡성
정융호
이덕수
##소채
서범
모레노
어은총화
##적절
미워서
채질
하귀
아스파트산
이루라
김성준
친다고
##그대로
신장형
행주
보급
수라바야
소크라테스
##유홍룡
##적령
신성휴
블립
고국산천
타남
이순옥
##된변
오세천
쪼이
##박상문
묵법
##할래요
게터
상승세
노재성
키모라
석호
서대구
##바이오디젤
##통처
추자
##화산도
##더슨
##연구림
##삼각망
체독
##공부
킬달
##수정모
맥카티
왕세제
##기법
##주사제
쇠비름과
아오야
반의법
아닙니까
부정맥
마목
박호환
굽슬굽슬
칙임관
독립채산제
디퍼
한제희
오그라드
빅토리아주
남궁경
산들
장원규
김길정
납부금
##응역
수송원
예술품
하모닉스
쳥옥규
박상회
##팥소
##전배기
##음외
##분액
최과
속사포
홍보
슬슬
##방형구
##교통비
청허
강막
##벤즈알데하이드
카이트
##별세
주칠
이현대
##펜틸
해트
##길모
초보
메레트
##열매
안종숙
##마인드맵
##보료
##시시키
##다슬기
공보
체념
##양파
팔자
격목
스터디
##과이
발매기
##해줄까
최윤성
사번
##도라지생채
리어
괜시레
전용백
발란스
##본가
색표
치생
비파엽
##스펙트로그램
준추
돌파구
초경합금
지아니
엇갈리
미샤
박정국
엔드
##스케이팅
태전동
##재검사
##인본주의
서경민
##바깥
##위기탈출
김영훈
##압통점
도로고
볶음밥
명거
김승억
이금이
구환
##바라이트
뚝감자
##형성체
백종인
##위구르
열등재
류승필
##가면무
나정원
시케인
이소룡
이영웅
몬주
유치물
##빠빠
황두영
셰르파
범희승
##컨트리
##해짐
##망목
뷸
가이슬러
평균액
버넷
##정약용
제면
##유물
홍성창
찰나
홍시
그리울
돌무지덧널무덤
##차하
신재영
##듈레이터를
정악
파상풍
##띠끄
##크라제
중양자
##뷰제
##우식
오태호
##탕방
묘박
##합성어
인귀
굴뚝나비
##트립토판
자라남
기다립니다
오마르
반동력
교간
헤이스
##소형차
튼튼히
##오리온스
김춘동
##프레이징
##퀴티네이션과
가요제
북내
드높
흰쌀밥
압축강도
임창헌
##부유물
##개포동
지하철도
##정영숙
나을
##이유리
양석조
##지대석
이은표
마이스너
국익
##백충
##사이즈
##트레이스
상마
생방
한국은행
강희숙
##펨계항생제에
##김원인
질화균
##천산
가시가자미
국군기무사
이한형
김대섭
##페트병
##언론사
가벼워
유작
##수이
가벼운
##장마루
산제비나비
계주
성공
##영음
김종해
##철홍
이일한
##테크니컬
요구사항
폿트당
석근
한우진
##수일
##진성
돼야
절산
에드윈
토마
전인
폴리리듬
송지연
이수진
##훙
최재구
##사회사
이근경
##편장
불현듯이
잔잎바디
통신소
양의영
뜰망
오행설
대항마
신현실주의
하태형
새아빠
촬상부를
힘들
술집
쯔
박병익
##표재
흡혈성
바텀라인
##강도상
목이
핵상
##새창
상업자
##튤리즘
정미영
백지영
장봉식
흙토
용납
참석자
백선
호르크하이머
강민형
상무관
최신현
##집중
##이소영
프라피룬
그리고나서
##설전
하이파이브
양해술
비켜라
##목걸이
집신
실함
##식야
##이석규
##포재
얼룩이
조난심
##시거의
##강병의
사내리
배성문
이시백
천시권
민혜경
이용택
##종선
유기체론
장인영
##미착용
##배농법
##강술
이회
##동거
김항우
콜록거리
임지성
##마키토
##장미꽃
##덕복
대장금
동아시아
터져
쌍극
마법전사
녹화기
물유리
반령
##식품
훤칠
##박민
##라즈
빨갛
서명지
##환경부
##흑연
카스파로프
##방해물
##김제시
상점가
임영언
카르복시기
뒤떨어지
어쨌든지
##대형
어찌
능마아청
크레파스
끓여진
##내권
숙체
권혁준
##여교
괌
제월
과시
내부시
달랐으므로
항자
텰닉의
법리
##뒷간
대륙붕
금장
고해상도
신건호
임용권
##페이도
##방풍림
##하자드
이혜정
베껴
뉴욕주
강인봉
후버
일지
임상호
##동교
##드럼통
케토글루타르산
언밸런스
헛
김용표
##메탄
횡설수설
철의
##사촌
권장우
소승
지표파
뎃사우
재협상
##내밀
##스턴스
평의
전광석화
울렁거리
##매료
어감
프로젝터
##돗
재세례파
유태경
대잠동
##면척
일봉
이차영
##보내기
##사자상
과두
##심정지
스카시
##진상품
김수미
정성규
신건식
생물소재
나타냈었
등루
토산
환각제
##양비
##이동연
파이터
##김홍범
전서구
##콩과
편협
문자사
##관측소
바쁩니다
쥐어뜯
##뭉침현상이억제된
소방복
임연진
차산
##황분
뺄셈
넉넉
조범상
주만
깁체
##감손
산터우
패권
얽매여야
##트래버스
석종환
##보증인
공구강
피니언
미수
##반교량
##나반
정두언
조악
단파
김민재
##건축미
다함
##표토
##마신다고
적덕
##대본
공모주
##냉채
즉조당
박화규
##하이웨이
고기즙
##옹기
조영조
보증료
빌게이츠
커밍
수위표
둔해진
각막
키길
메탄올
##토카
##초지기
충족률
메틸수은
##호단
열장
디오트
하반기
프로필렌
##생물량
호한
민속화
양안
정다은
닝보항
##무서
박실
옥설
서퍼
실수부
예타
##전창
앙코르
되살렸
양정삼
임수정
육심원
가상훈련
박창복
검역법
박희근
담가둔
분극
플랑테
##릅들
곤줄박이
카탈리나
조태
노관섭
김윤미
##정강
이발소
##가르쳐
김웅태
원조금
김주옥
수진궁
최용성
임산물
흑삼
미끄러진
가시복
##겘
##현용
김동제
##귀항
수직기
##엽신
국재
입욕제
공정민
##렬방식과
응원
침출수
의발
현철
전영길
정장용
군사물
##마치
##플렉스
동메달
도술
황한섭
##신인수
##연조
고타
패널리스트
양희택
##하열
##암당
##증감
균수
당항
갈아엎
##퇴경
##상락
##농무부
##서기보
##장기형
##천봉
##십이지장
쫄깃
남영옥
##조폭
회규
김영중
##통달
##증자
사버
노숙인
##뭉침현상을
김의식
##매연
금속본
알아본다는
권형진
맴도
보좌
김명
팔가
##후퇴각
피스타치오
풍신수길
김준일
인도전
##전려
판매전
조립률
조용범
로욜라
접객
##학살
주적
반대
지클라우드
신명숙
다녔으며
##스러웠어
연소자
위기탈출
활나물
알아맞히
##기공실
천종
##부스
수하동
##자유재량
권성준
김형곤
격월
단순성
지권인
정중수
김정문
민형동
알브레히트
##애주
속채
항해등
돌리네
소감
창문
비싼
##비손실
전통주의
##디레
경상분지
##였잖
잎마름병
건조품
강강수월래
##핑거
본체
##눈금
뿌리내리
야매
##드역
삼성동
강세원
##통영반
창조
김성주
민화투
##동도
지보공
대행사
지킴
먹중
##끌려
강가
독자층
##보상화
노은리
으스러지
최병수
대학당
투과막
##나빠졌
##중앙통신사
조정식
꿰인
사상균류
##에틸렌다이아민
교본
페색과
건습계
포부자
산호말
답장
김경윤
성창근
금적
토대
박찬부
피난항
동문유해
##원배
판임
유정
##약과
부정적분
손광민
##건단
##안전발판
왜냐하면
임꺽정
##택할
이장규
##졸곡
권석균
##수로
일조계
##측문
##봉사자
창식
##메여
날린
광혜원면
현릉
##브린
백기청
##할로겐화물
##선아
틀린다
보틀넥
서울특별시장
변동대
알버트
강동권
##균열로
##성시
경음
##성약
송필
##주만
쫓아다니
수요량
##압살
베네트
박종옥
신단수
총체극
소부대
##난교
가을배추
굳힌다
장경남
##우두
박종훈
##시리아
드나드
##니더
신용철
##영우
##쌍북리
당겨져서
추정량
묵사
입금액
생채
굴착기
급팽창
선사로
조명한
하태
##파장판
프란센
세워
##원한
부기우기
##윤수걸
##일긴
쉴츠
제철
##콰이어
##요청서
##별론
심해서
##벽지
##대운
텁텁
##시우리
승정원
피아노선
전처소생
한주희
##큘러스에서
부적격
향설고
직파
##졋슬
최혜령
지질학
브레이크슈
온보
##티지
황익
불만
심규
공중목욕탕
고동준
포복지
##줄까요
##환풍기
이세인
개고사리
산나리
공연계
##형식화
대업
정관용
정괘
완도
##이복
슬래브
##삭장이
##악상
여객기
조성민
징구
종교재단
말수
탄저균
늦장
##민숙
##누출액
박중환
겹쳐도
남녘
##특별기
##꾹
##는고
구메
##여충
데브라
##착화합물
복덕방
이건강
##문포
원호
백정원
코뿔소
유직
품바
##노영희
잡목
##괄세
변성희
##인습
박양수
손정현
돕지
안정현
##수을
##기엘
만력
단촐
천정웅
톱뉴스
손성민
##근만
부덕훈
남키부
앨퉁이
둥치
부정확
숙련자
##우선성
고영기
##선저
둘러쳐
##용귀
소리지르
비잔틴
부동자세
짜여졌
##아라비안나이트
잎다발
##달갱이
취해왔
##유미현
##문숙
최임순
##펀칭
손진곤
##국회
고광호
흑사병
##속인
유영태
메리케이
헤아려요
오순희
구민법
##외형제
금납
박종규
영양소
지축
애자련
남반구
괴롭혀
캠
펩
간풍내동
##할린
추연근
정주헌
도묘
야곡
대사자
##산부추
케나
산악국
나빌레라
##배롱
##재봉실
개목
스틸
헝클어져
심두보
꽃여뀌
##앙금
잠비
##비산염
먹여살려야
김미루
##거십
쇼아
##품포
초자아
해드려야
##경사지
##수유실
##작재
생군
선랑
초가지붕
이덕희
차부
버발
드리스
극영화
여산
손정표
마을신
비만도
홀기
평가전
류리
##설범
##치약
##김종영
자가품
굉장
##당종
견뎌야
##선택형
정상열
군법
준위
수티
##나갔으나
박서보
방배역
무형적
##드을
건면
경피
한덕웅
사우터
캐러멜
림프종
##연설회
##철광
근류
수은분
변화경
예술문
##후허
고동
분자살
##교수학
##현대시
박낭자
미숙련
레드먼드
##심속
강혁
윤재혁
##극수
회이
김성달
위병
오장
돈화
억눌린
지투
출력축
오경헌
##장벽
선수금
잃어버렸
빛띠
스와트
신민경
허수축
역접
군사행정
김재용
##이일수
샤일
박천영
락타아제
##아닙니까
맽
##임실군
##순기
김성우
백영진
권오현
사담후세인
복곡
유시용
우필
##초배지
정수찬
볼러
##관수기
##고농도
##금오
##이상곤
내안
##영액
페쇄형이므로
대뜸
##예민
##불인
##누산
##닥
##건설물
##하책
새개
영리활동
권혁면
##겅분
난토
환장
남규
고성훈
지율
##이규태
임대현
##업저지
중경상
##사복
##알란
권기덕
웤샵
과학만능주의
이향열
동산
##연골막
##거린
필플라
##저무
배리어
이현규
상병선
배어
의구심
##아인지
진덕규
##페합
고래잡이
어겼
##쿰
방위세
이국표
이응선
마르크스
앨프리드
김준정
##포한
##바즈
개서어나무
오토메
드라마틱
##곽현근
토슈즈
##영양비
이학규
능수버들
##프라이버시
맹윤호
##사스래나무
왕조사
##가벽
삼각선
취조실
##난대
서큘레이터
늘려갈
##마운
류영수
박노국
고원희
##법등
##마시타
##포장
지킨
##연모
조희근
카쉬
쉰
문익점
##키아나
집모
발자국
인정받
종반전
정환식
수목원전문가
##테마파크
차가워진
##입절
##위당
손정의
삽도
자구책
지식인
히라타
권종대
가녀린
##안내문
##평균조
사월동
줬으며
수산화철
공명단
##위천
##화환어음
창천동
노여
##채묘
전북
최병두
##아지지
##널판
윌콕슨
##형방
##노마
##베네시
##올레길
보인
리재
##정악
사회학
교회사
무월경
##난이도
축합물
##지내력
##안전변
방추차
큰개불알풀
정동일
##로스케
##다운로드
##민서
다이옥신
##결요
진해졌
가공지
##건자재
박욱
걸러질
만주리
##가해져
촌부
백수연
이인곤
##이득환
청소로
##명휘
파먹
백다
구자형
하마스
대다수
껍질
합계액
살빼
남미정
서북산
유운리
안식처
##루포
고미야
모락
새끼발가락
첫돌
##졔를
차명식
학술지
##도바이
##효일
쾌자
나폴레옹
보딩
농사직설
준수
##지젤
##핑크
##촉신
조남민
꼼데가르송의
석화리
##관두
##루멘
남동구
흐루시초프
수근대
상법
아미산
##우황
동료
모여들
##방송위
##아림
가려짐
액셀
##복채
통해서라도
컴
##슬러
##어진
퍼즐
김문섭
조재준
신성현
과반
##장패
##신지로
##마달
##별신
안톤
##예정자
윤기
##모제스
잠길
핫메일
##적체
합착
##기편
내림
발뒤꿈치
##상헌
사와
##식자재
심난
통합
김기화
나이틀리
번역관
직권주의
흥얼거리
개수
##인집
백모증
하원
정반사
박순근
검색창
휘어져
##오탄당
지근억
선결
태감
##항적
임효
다져졌
두터워짐
##집수리
기본형
추상체
심장보
야시경
##페리틴
##문고병
교수협
##말액
장용철
윤석원
조영동
후두염
이영익
##촉매
덜컥거리
윤형근
##방형구법
##응찰
김원
권수열
노조미
문시연
나사못
죗값
스터브
##로워야
디시
##평결
##층고
책서
배지영
초공
함경선
사색공복
##질역
소해
처벌
이호민
지유진
정의승
한성부
##오목눈이
마이크
모노그램
##스압
폐혈
니들
우명
##훼스큐처리구의
범도리
누도
온혜
피차
임상효
깬다고
손경자
폭풍
공병대
##수점
##분비물
길이쌓기
##여닫
##훈
허무감
##사화산
수라간
##포화대
특근
중복리
홍재원
##도쿠혼
타르드
다카모리
홍경태
공은배
좌항
암부
젠트
##제습
세울
시오라
##쌀보리
만해
여홍구
등솔
제주도지사
##박제
다량
심기
이통시
서덜랜드
최광석
##누름적
나목
각승
뺷대학
오믈렛
##회원증
허기진
##두근
사성
정압
권영락
경부
이봉춘
##교습소
방성준
##구곡
추창
예언
##평리
유명세
제번지
호서
##변별
송미라
##배속
밀어냈
실버산업
##루린
##근사식
울먹임
쫓겨
김숙
윤도영
##미기상
트리니
병의
##산령
민영선
불로주
블루스크린
안낙균
능직물
생길까봐
##세스코
악취미
고가교
##경준
##하특
##박현아
안기태
##경비함
소손
철가시
뚫어지
위오
기국
잡탕
회왕
산화물
##다짐
##나구모
##번들
최영임
페턴
다가갈
##깅
##수준
사벽
뒷발
박승옥
##열분
##헤머
유례
윤효
##도열병균
##판단력
안테나선
쁘랭땅
이세근
##맥키
##오장육부
점액포자충류
송경옥
지방뇨
자절
송길호
이주환
##색팽이
혼연일체
꽂혀
##에츠시
##우가
아몬드
이태리포플러
##태블릿
안영준
이의선
으스러졌
##박정철
살갑
##흡습성
돌길
돈모
필링
내츄럴
아세
광탈
크레용
차악
##일어나
상기
##근채류
김정덕
을로
상악
상송
모셔야
이원중
##상완근
강철희
타림분지
나빠
매장충
동휴
##설트
창죽
도포
도우려는
컨대
소재오
##상립
뿌리골무
즐길
##마종
김학성
##절경
전장화
택한다
##아단
결손금
세워야
조너선
##달자
배워라
##마영
주세페
전상표
페난트렌
투표소
경식
릿지
표백액
팔로군
홉킨슨
강동헌
김인순
##모국어
한승
산앵두
당소
손제민
절호
조규만
아들딸
최석환
##종속도
##튤라
누울
상부살
이무형
##염세가
원현성
실올
##게자
##칵테일
##머더
벨라리
계란
최윤선
숙박소
말라버린
김의중
윤경수
##비두
##인대
동일
##스티스
김천기
조숙희
##반응식
암모늄기
홍수주
##플랫
공산당
##푸둥
내곡
##여왜
##보혈
송두호
더디
벤조산에틸
김윤식
얼치
##련주
이재율
##파우더
장막
##운구
연화증
고열
슈퍼맨
낙월
##인몰
한봉구
미망인
미시스
벤데
소방경
##괴정
웃자란
윗물
##간척지
소객
파자마
박종성
##복잡
파력
중간본
한은진
##어께
봐요
김효수
전재현
뎨일
최음제
즐거웠으며
##명품
외용약
성견
간장약
박명현
느려서
수유
##사진술
##라희
신성호
##팀원
##검출
수발
불량채권
이리나
##케인즈
##복인
임경훈
##신립
반족
강하용
복받쳐
준동
포모스
로열층
한관
##이원표
허성호
##분조
아랄해
채금
##생포
쪼갤
회전마찰
상보
세워둔
내편은
대혁신
##채진
보통학교
할로겐화은
솔직
나진포천
합성보
미음
##엔지니어링
유구천
##보전
김병준
##아질산염
##유유
##무언극
이동저수지
고운영
이청아
묘위
##류정
달려도
정진기
##용등
상영권
닻
오훈
##다랑어속
전파성
빗치
퍼터
겸양법
임채신
양부현
놂의
진효
##작장
##노린재
기와
다우링
##높여야
마이봄
심이
중륜
##검찰청
##집값
김윤지
펨브로크
조을룡
콜콜
흥사단
보수비
##류찬
은하수
대상그룹
##지은
보여이
오달리스크
##옆모습
혼맥
계추
박시진
앵글
정강뼈
##망점수
루테튬
한대석
좌식
단특
##겸업
대표음
##하계수
영전리
##편안
차흥억
뺷얼굴빨개지는
##적
촛불
##트리할로메탄
뒤쫓
지절
##광축
산화수소
성광
메콩삼각주
정기선
뺷공공기록물
사진법
헛갈리
박용천
국제조약
##레커
##정지음
##단연
##졌
헨리무어
산딸기
기녀
윤성열
살구꽃
박연흠
볼터
독본
윤재욱
##조참
한재원
##찰제
엄성용
무격
##항복점
윤병찬
##슬프
마님
출입자
정합성
비틀거리
재통
김광원
띄우기
정형조
헤어핀
강수리
정량
##사판
결주
##미신
거수경례
##휴게소
##각모
##기아대책
##고독
##간염
##검약
이강대
지루함
수번
보국안민
##심소
##포인터
##온건
익구
김석영
##응향
모터보트
촬상소자가
채밀
##피통
세습
가티
명보
낙필
지엔
##정정부
적력
##라이나
애경단
##경애
발틱
이해관
히드로겔
택리지
찬트
하이옌
결집
동력원
장숙
강호갑
멈춘다면
긴장
괴정리
##작업복
##김연성
##주물
보광
##숙심
불리웠으며
##인화성
안종건
물질경이
상평면
크레솔
##금려
헬링
##방사유
김종준
오세인
##장재혁
##야엘
문정아
장홍근
타성
##통념
산호충강
청자
노스탤지어
셈여림
##장채
중앙대로
퇴자
정의훈
술시
신현종
가격기구
##척상
열람실
광장
##놀이방
벼목
위수
사사분기
여느
##사론
경위의
이근선
머문다는
##특수부대
성가퀴
##농반
##와셔
##요금소
씀바귀
해링
사우루스
##열비
##쿠르
석이단자
뽕나무
가금사
연할
야간전
##케나
택내
##방해죄
##대퇴근
큰두루미꽃
서보밀
광역시
##켜
발레리
조갑주
구천동
##폭투
빠진다
옥석재
##적석
편역
나선도
##세이빙
##쌍이
수십만
홍도
거취
레프세
신주쿠
코우
##풍단
최한영
##옥희
야르칸드
썩힌
호젓
##기나
주지
##고극
##수자
고함
비뇨기과
플로우만
##속껍질
유인순
고가로
명이
손아랫사람
예술사
죽절초
산통계
참이질풀
지방대
##이향은
##그래라
협주
금룡사
라투르
외래미
권혁진
외김치
청가
##붕락
혼마
이대연
꼼
##밀도도
넓혀진
타이베이
##승적
##죄책감
##협과
금강역사
몽골국
노른자
유제원
강성우
변곡점
강광하
원제무
입중
철화
##미숙
아질산염
##차함
##임성은
소음기
##고스트
무조건
김흥윤
##석식
원단위법
이두환
수득
변한다면
김여옥
입천장소리
음성중심주의
익년
촉지
자애로운
##소찰
이혜란
략목표들을
동승자
##격구
지날수록
박장성
배득종
황령산
협량
영양계
반작용력
##센트
잘라져
다가올
체상
전명규
도착항
##아카데미
##베츠
분원
따로따로
무용총
별안간
하절기
명법
대전투
##영태
오막살이
모범촌
##황사
##고마움
충격파관
송일병
터렐
로워
이상임
이영엽
##월이
최흥국
탄다면
루바
양성애자
놨
이필영
걱
##시달리
관성류
잡저
떨어뜨림
이규필
구잠리
##떨림
김용율
이봉상
이안나
최인성
##긴코
##토육
##출결
##말산
회건
문명대
스케줄
종소리
##칡
귀고리
송원경
오명열
다북떡쑥
##포르
##극품
행렬도
감춘
조과
흡입구
##아르곤가스
장정진
새털
문시영
##마시스
모수원
식물도감
개정판
##오지
폭정
은태경
##지양탕
전우정
금강선
요분
##독연
번청옥
마츠에
노영철
최소자
##폐야
##영수원
역속
정희웅
##라방
##갑지
개더링
태좌
##뵐
구제품
요패
전종갑
헬파이어
##감치
##동편리
##제문
구명숙
리티
매그나칩
가등
탕지
##대동방여전도
해시계
혜의
라스틴
아닐지라도
송종호
##트리거
장수풍뎅이
푼다는
화습
김언종
유재욱
##눙감의
최병만
와과
기운찬
움켜잡
##장주
##이집트
편찬도
보조국사
피로회
조보연
돌말강
##거류민
잠궈
반각
술떡
하인즈
조찬식
##참나
따사로이
삐뚝삐뚝
##인데다
##코바
##안토시아닌
성실로
복채
김호민
탄투
사야카
##노손
박현섭
##통해서
장마당
이병권
랜딩
이혁구
##면업
조관훈
##얼거
크렉
신헌
##품세
윤정희
돌턴
백신
##방어망
술일
자랐으나
경덕왕
##학부
##위신
드보어
특집호
초립
연좌
##비드
강홍석
곽동근
저축
험지
쟁개비
상승효과
공출
하중기
디센트
##통폐합
정화법
이계원
비주얼
대곡면
패표
헐떡임
성원경
검역소
장재홍
활착률
정태윤
##향속
조희영
스팬
더니
##띤
신지호
승일교
무학자
##조밀
##강북구
프리미엄
##합하
##헌법학
재작성
##듦으로써
술탄
히드라
##타시
도외
고셔병
선전장
트루잉
이준석
인산철
##여성
즉흥곡
토시카즈
비상지원
구전법
생동쌀
김효실
서정윤
##류태
간접구
장길진
구현
도자기
거보
범색
##키넬
국면
손쉽
##아마
##객공
살만
페브스너
장민주
일라
##실록
비쑥
##시오야
주루룩
##전궤
자북극
지방행정
내비친다
노스케이프
커베로스
세백저
앙투안
##작하
칼라
##조각보
윤리학
##랼
연예
##원투
##부크
참국수나물
##시샤
재생고무
##종손
##헙부담이
유정기
화구상
희작
강진
##영직
##미경사
##관하기
##역조
잠식
아루
생래
##봐라
##페미니즘
셀렌
차압
특수전
간월
밝혀진다고
김관보
김일웅
##망동
실학
##살인강도
계절노동자
일말
안덕
용마
라이어던
등촉
이의복
제조업
##간사이
##렀는지를
로마네스크
전관예우
##득한
선배
##안립
양주군
##홀리
나덕렬
##고종
김동석
이평직
##주행로
##균열
소포트
##철성
락트산
흉가
보로미니
##스프링
타선
주객
강성훈
넥슨
##떄문에
만찬회
셀프서비스
폐가스
서재명
메르센
목양견
##츠치
노완섭
증제
회인천
대무신왕
스틸벤
##슈타인
벼려
##더라도
노리
##음의
양전자
##밤색
##사장파
간열
족근골
##특허분쟁
##담뱃값
옥시염
폐수종
광열비
##남가
섭렵
##악발
##모셰
김화자
튀
##불행
풀어놓
우린
라규
마시라
김상구
한광야
급우
##종방
중신
납속
문혜영
##쟁사
배재환
외경부
염재호
##호선
콜벳
딤
아웃포커스
첫눈
김재수
##물들이기
럭키
이건하
울릴
이장의
강봉
민락항
##동한
##관령
송민수
사유화
##마칠
##재령
응시자
##라스프
흘러나갔
##상론
##걸음
##무손실
##후출혈
속편
##쥔
제과업
염동
홍동권
김무경
##폿의
복소수체
##개의
##난망
##기사협
두둔
##버네트
풀잠자리
강윤구
엄상호
##하우드
길거리
김재로
호공
##광도
잔류병
선천론
##화
##져야
알곡
브루어
소낙눈
##씨수소
##간요
총산
보이스
영구불변
옥제
원도
##객관
장할
황산바륨
##페로니
고정수
적도의
전륜성왕
##중앙고속도로
남동광
남민정
넌더리
행정과
시실
특허
게이트
##체파
바질
개시제
미더운
교범
##육적
노스탤지아
낙가산
후원회
절맥
##지천
합참
중앙고속도로
##퍼럴
이한얼
애착심
홍유표
서민석
조충식
건너뛸
##번하
강성애
한재진
걸어도
주관식
##남록
##간호사
##상접
참나무속
하북
##통지
페스티벌
액면
##강수지
수시력
플립플롭
이준우
##선도
##치교
##항재
화입
염화마그네슘
##브레이킹
내응
그렸으나
박인혜
##이라는
안건혁
##군만두
법무성
비충
무엄
김초밥
앤드류잭슨
심태
한문본
라우트
응유
##조절변
석창포
로원
제충
홍민철
실린다면
독선
별처럼
올랜드
##임력
##방충망
이정혁
국조오례의
시리카
아울렀
강영철
##구조선도
조운행
##켸
로션제
비단잉어
가슴쓰림
직능
부등호
펌핑
##노격
홍금희
맛버섯
픔질의
##완경
제프리스
김창배
크레타
인접점
원미경
서미선
황태희
##본제
이홍제
##결처
그레이스
담뱃불
##선조체
허홍
새우전
괴동
##구찌
##구구표
바다거북
박덕훈
포항시
##이용규
에오신
##고손
##재발주
버너
##등과
극악
##치지는
가득히
##고압가스
디트마
기초원
보존제
농신
##과세
배중
##천연고무
##선국
##그리기
예능
##트레이서
젓나무
참골풀
토끼털
##에와
진득찰
##키토산
##무밥
##염호
돌격
##금속화
휴전선
분홍색
온몸
눈금자
##무기력
##상궁
혼탁도
버치
각동
##장진호
건포도
##결국
##회용
##음동
홍덕기
정성숙
놀라운
##끼워
##김경숙
##배수톤수
##위부
##양사
우백호
##다용도실
없다
그루만
##도올
##박상인
케톤기
##구성체
등외
오범환
지킴이
경술
콴
세영
강승모
아마도
세작
##아편제
이동권
장준혁
연액
치유력
수로
이기영
##충비
장미성운
##국가
##존수
헛땀
##윈치
##이아콘
이월액
두리봉
##수확
일본어
차고
##납취
##퀀셜
전기협회
##프로세싱
장열
##골골
연초댐
이중효
##병변
국민중심연합
##본부
##화전역
낭이
선보이
##해자
##도명
건축자
열통
##속미음
비구름
##리얼리스트
민하늘지기
##생계
##해수어
##북사태
육탄
긴병
리스타트
동몽
##합문
김현조
##막도
소형석
날까봐
이승재
른
##유림
##구띠
나뉜다고
인티
타슈
확신
석유시추선
인스파이어
##손발
##여자농구연맹
상광
졸속성
이혼남
##막기
된데요
유소연
칙령
보인단
코슈트
이철환
올려진
구본일
임윤성
승법
산란관
##루이
김기국
뺷동국이상국집뺸에서도
리믹스
##시험관
변산면
전별
##국공립
실험장
##겨울철
박호용
유흔
손유미
스와노세
조용만
##점역
##과피
##세밀히
##카란
까무러칠
최송
가리키
룡연군
박해영
고진현
과정
추울
블러
발제
##탁도
김창로
##보목
##수증기
앨리어스
##에다
기름지
송기성
재인
##따루
##손날
끼친다
지냈으며
이동관
##염철
일리아
희노애락
##기립
김석문
놨으니
된장풀
하경호
##알려진
연쇄법칙
##향국
손영규
##동충하초
신유주
세계주의
##지켜보
여겨집니다
사분위수
마철
##원심성
##염량
세정관
끌어온
서장선
조수력
##루게릭
솔트룩스
조가비핵
단위계
##알라닌
서임
오경옥
##총대
##금고
##이루지고
##조짐
주먹치기
##껍로부터
민하영
##서비
##싶
취사
##정칠
띄워야
갱문
함수비
##유연제
맹아
최선용
몽어유해
김국한
하인수
입사
##행술
기름짐
##보따리
##경채
아리스
당김
파나마
가짓수
수완
##임상시험
가르시아
강경훈
##포츠
사하중
클락슨
효시
##요기
##이마루
복숭아명나방
비육우
연군
##대명력
##양리
세군
이산화규소
선기
반추상
바꿔치
최혁준
##선거법
급성장세
조나
홍정연
이우균
##예프
##차녀
보외법
좌초
폰더
루이지애나주
김효현
##연교차
선동성
사구체
숏
정웅
최병태
##최장우
##스트레스
##대술
시축
반사법
최기숙
칠보면
서미화
능곡역
정재규
신선육
박양희
곽이
약할수록
조경만
토스터
강종호
최하등
혈합
한배
강경심
##치우침
루카치
호몰로지군
##두전
갖춘다
낭도항
##코끝
한국산업표준
이형민
송암
##강의안
##약부
이의길
난쟁이패랭이꽃
쿼터스
다가온다
놔줬으면
이왕가
고지식
집고양이
##교기
##육과
지혈제
##리조트
태양풍
호소형
##만금
자아실현
전아람
윤갑용
울컥
최애숙
##홥물이
타목적
누상동
특별기
리카르
맥아즙
신동필
당해서
샘내
박시용
##윤순
##가까운
강보현
천안시
수랭
정박료
수상관
##농무
김영철
롤백
하미나
김재연
##등기
마운드
줄러
천속
임시종
##지급인
이민웅
원시안
건문
##대서양
이현찬
은고
##사자놀음
보호관
금법
왕만두
##편석
##공택
핸드볼
짐짓
정승원
마천동
입체감
떠올라요
로예
소물
##초능력
내닫
부화뇌동
말티
떠올린다
##잿간
우스꽝스러워
카지노
황명호
##표집
알펜시아
용산기지
기하라
##삼문
##포루
김영길
노재환
박수인
##채종훈
영상물
오충
철불
##이황화탄소
문유석
이희호
클로징
##령판
덮어씌우
강신복
가레스
##백분
우회전
##대철
송영무
교보
##노라면
혈전
##일색
유정환
##우양호
눈뜨고코베인
##언마
세미트
##당비
연통관
권보
착암공
도네츠강
##심상
세워갈
##페디
문비
소출량
강화산성
호두강정
홍길
채종민
의모
김호연
##혈윤
서복
축지
견장
##레크
비엠
##판정
##험결
하정수
천품
치에코
##은령
유종원
유전자좌
류은주
맡길
##브러시
휘둘려
작대
##늑각과
##엽채
국동식
전략산업
히브
##윤대
거름
됭경모치
##촬영
백화산
##각점
광선
##토기
이루어진다고
##부천
타바스코
전수
##니들
정희욱
통람
##박성일
##맥문동탕
요배식
규화목
##혈기
##김해숙
이뤄나갈
엄두
부끄러워할
##제비
박용욱
##실패율
발병부
가오수
일주일
##남단
모일
드라마투르기
지성용
석송자
솟아오르
헤이오
##이윤재
진해진다
유종민
##무의미
##망단
새것
김위대
신수희
돋친
##리브가
##해풍
##베를린
##우구
종신형
제라드
곁상
목축
단순히
하반
##객기
사차원
면심입방격자
오수미
학력
단지
오언스
밀어붙였
##핀테크
끊겨져
장안면
먹
선회권
사극
늑근이
중륵
팀북투
##칠량
갈아입힌다
짠돌이
##경피
최정근
##최석근
삼
문성암
홍색
제악
마구리면
##수삼
굴젓
남악사
콜터
박원환
박효달
##일통
세상발견
정군
모자반
노은정
##세무서
괄괄
참관기
숙도
지료
##양청
##유성
##지량
##츠와
편찬자
맡겨라
정기양
아인산
##웨
부정어
##회방
##안림
훈전
똬리
가려울
마이니치
논
맞장구
##서폐
전희영
##금효
##서화
의정
##퓰레이션
##황새치
한대성
아리마온천
펼친다는
##기별
파이썬
정형돈
김경택
##마신다는
나뉘
암호명
범지
김정광
쥑여
목
##과태
성수대
유담
플래닝
검사대
조대성
권종훈
정겨움
연륙교
거마
소구치
범적
##핌
밥때
빼빼로
##준다며
##문식
정병근
고랑
마주르카
이윤경
자주방아풀
정준희
맨틀
박우열
정화용
통배추
즘
이영규
강진구
구명환
##스트룹
요오드칼륨
이불귀
미점
피항법
김설
##나꾸
꾸민다고
##매병
기븐스
곽현희
##흉중
아스트로
눌러서
##외식
케이블
##임신여
야라
하양숙
반환형
엽서
크레이브
여겨진
여성국
##룽안
용전
펼쳤으면
다이브
##증발
##미제
은수
설저
##소실량
##입자량
김평식
연성찬
내이
##송기호
줄말
##해면은
##탔
살구
부조미
수읽기
갑작스러웠
리팜핀
쿼
##김민주
##기금
호티
##재해
외교사
##개교
##아이돌
서혜인
유미선
##동성부정맥
##생소
사대주
강도하
닥칠지
티셔
알래스카
도후
윌로우
##등물
최소희
심부
끌려
##혜승
##송송
##송민
열운동
이소니아지드
시타
권태수
##분감
##동위
본루
##석연
오수헌
##목재업
락타이드
##적설
신경배
교정부
개혁파
항독
컴퓨터
##변주
##인격자
윤용석
##타그
주석희
페로망간
##김상현
기계어
씻긴
##의체
여해
오동주
김성륜
##속일
거대증
##회조
자질
몸단장
##근허
흉격
##말뚝망둥어
##카지노
##활투
정피
##한정판
##음속
보이드
성서학
청려장
##건진
똑바른
나타난다면
재평가액
탐미
##목단
혓바늘
연건
팔레
바이오피드백
협상조약
이현세
겓
증대
에르고미터
김동필
설토
##익스팬더
최도영
향로석
이수영
공고성
컬럼
폐현
김성남
끓여야
##오이생채
흡수열
##탈놀이
아키에이지
간범
흰나비
긴소매
미래산업
기슭
서희열
거즈
소방본부
협약
논인
인산마그네슘
##용운
##딪침걸림끼임
##외형
##급복
##추남
##건의
참인
웰러
##실
던지기
겹치마
##레트리버
최평호
사납금
통환
똥
종하
##깅성
##이즈오
##삼림
쥬스
자율성
은합
신슬기
뒤쳐지
##치목
##빠져요
바울
점액선
##록선
##통파
##감군
##장여
눈부셔
##신문기
심장구
##하진
억눌렸
##레즈비언
출목
##지방세
##안정주
##다던
##으셨는데
다심케이블
##시안
커리어
##정해졌
생선찌개
장경원
##세통
소희
권대혁
튜토리얼
##존엄성
##사림
##한론
풀릴
공유자
최무영
진위형
##계집
이기권
##중독환자
##살비
##순미
하진태
가오밍
드라인
바꿨
임준상
안일
구강기
양은순
옥분
하판리
브로치
##원추리
##저격
레이로
##스러질
김구택
##철구
##추출비
##감심
전수진
코덱스
##제일주의
인덕턴스
신복수
##펠
##일약
브리튼
##탄산가스
##당단풍나무
가당연유
탐정단
홀시
소시오그램
##현국
##혈당치
##양마
##숙인
비더마이어
김나은
소독실
이재삼
매
구자춘
##홍보라
##돼지갈비
김남춘
양동주
각국
##것
부득불
서성일
##렬균열이
환자실
##원자화
##릴리스
문태현
보연장
박우철
백용규
비록
표정속도
##카풀
빵모자
##가난
폐석
한동철
흉하
정교
##회사선
이따금
최종운
홍동기
일광욕
장매
취역
##즙장
정복교
집
##파유
##첨가제
해운대
토버
생글생글
가해짐
##병행
함정
비아냥거린다
##신입사
천담복
금보
##창살
##했을지도
##인터랙션
##태선
##구강병
무인기
빌라도
정혜주
적파
민경두
##디안
##투긴
잔뇨
평강철원고원
조형익
내온
자기
##종편
름질량율
받아들었
개벚나무
##이유아
##린스
봉천대
##역상
정웅교
튀길
김유남
망우
##터리
##미치
진동
치노
사무기기
제선
##본미
체취
##온수난방
구견
##구금소
구족
##담부
##태축
임종훈
관질
뉴칼레도니아섬
문산천
신제도
인천시
원화도
전상완
김우람
상참
의협심
##사슴
자문
사스레피나무
부른다면
##비석
안다미로
##카이퍼
정종면
뮤온
여성환경연대
아팠으면
저도
니즘
최태섭
저질렀으나
정임
옹기
숨길
욕지거리
인상착의
##서은진
간적
##소방방
꽃뱀
구매부
역동작
영진
적성면
보라
재밋거리
응해야
##국제관계연구
피아노
바스트
자배기
류승렬
치움
좌석
만유인력
신대윤
확약
방향수
상규
연결
##용융물
##물매
내간체
조영채
최근유
류지민
##활성산소
해변노간주
##원두정
메소포타미아
풍속도
허정민
커져요
##니타
##식토
##동인지
이를수록
틱낫한
이송희
안단테
상관분석
한정란
##라쯔
윈드서핑
트리아세테이트
우무
##비설
겸허
##그려
신승희
구부려
##프리즌
##택선
재면
##역형
##하이퍼
##보리밭
민태
정란희
혜공왕
이기오
훈몽자회
##교환수
관방
망석리
스파르타
나관
##정진경
홍지형
소결기
만년설
부병
##작업등
임감
##광세
도와
정지우
이경은
셔블
나타났으면
##급화
동행자
배정자
##층운
흥취
조선일보
변정
##오환
유도화
독해서
자갈
##거관
하승희
카바크롤
##제어반
##내내
드날리
오규현
유민화
유제일
##점판
##감령
곡골
##나대
이광욱
송미림
##후원
총리
##대추채
량산
어두워도
고요히
유수옥
몰려드
##강제
양등
##지진력
구고현
논담
김효미
필립핀
장발
유리칼
##깅력과
인구론
##암통
유흥업소
쉬땅나무
다져질
##어태
일흔
진료소
##결흉증
무성화
유순용
##활
고상미
면서도
백운식
##정완
황남희
특송
송해
##꼽힌다
물밀
우측
유래
베넷
##마비
헐
##점심때
##연결선
불나방
##장척
양찬우
##보람
##포화점
##어중
반회신경
##윗배
불량자
옥텟
##고탄성
유수복
예외
우산동
##걱거리
하성
조동인
두견주
##습요통
서스먼
하완수
집권자
높여온
남지기
##탈모증
갈레아
교로
##카트리나
왕느릅나무
월계
기찬
##자연유량
##관광공사
퀴노아를
##이예인
감탕나무
##소수자
정책금융
잎집
이수호
##스가타
인보드
합시다
김춘영
백성현
다종류
복자기나무
무순
농산물
혈구계
옥화
중앙선관위
서강대
설정
##단말기
북한산성
복시
##채용
##곤상
반사활
양재식
##소유지
##원뿔
정병곤
김기운
관렴
여길
##성광
구리지
톨게이트
윤성자
이소윤
##친링
##레티
이황화탄소
궁궐지
헤르만헤세
유섭
유동환
##자로
등성이
뱃
차집
##청소기
김택구
탐폰
##오피스텔
수심방
##책문
##피드
반출
##제초기
##제다
줄리언
##렉사
저편
##도큐멘테이션
녹색연합
##수직관
##공저자
걸어간
##관리
메종
고영남
##디자이너
##하우징
고역
##성수가
살타
힘써왔
루벤스
아바카
종말관
양승우
##에니어그램
##지평선
벌거숭이
##뒤섞
##비극
정성휘
연호
학상
##핵가족
중대문
##쫒는
과잉치
붉은색
##긍부
통초
이종훈
##졸고
줄기마름병
황영철
피카
애장
군것
고음
##아아
삭임
##탄다
문형태
##스프링클러
##양식척
허성남
특신법의
상모솔새
딱다구리
하선정
습염
희성금속
##철호
##조지
정걸진
##짧
페틸에틸아민
여우오줌
##전중옥
짤라서
종착점
김용우
##벤처
독초
전화벨
신응철
이준열
진옥
단게
우귀음
근교계
남호기
##그루터기
##동순
에미
태양년
권익
뭉침효과
테츠
##수선비
충실
로우웨이
비업
##기품
퍼스
방백
진미정
되받
허물어뜨렸
오이과
둥가
되돌아갔
회전반
외벌
##고니
젤마노프
존슨
하우슨
반달
##축적기
허환
##범우
손꼽히
아출
소양
소개팅
유토
행정주체
박석운
뒤바뀐
김홍미
##의호
줄여나갔
##병선
에어
##능우
콧대
간츠
출토품
인스
##문중
꼼데가르송이
##벤토나이트
소고기
##칼국수
##조창
인장재
생산품
박종한
##트렉
망발
콘돌리자
언어유희
##요환
스가
반일
##양성목
스레이
차석빈
##허물어져
가방
성형
박균명
냉면
운산리
주코
##속거리
크레스
##추진기
카빙
##청명
김정흠
눌차
##성형
두께
##석암
##스모그
파초선
류츠
개샘
대화재
론들
알칼리염
애기나리
갈색날개노린재
##표현주의
실어야
노동현
##생구
크롬철석
공제조합
##통칙
줄리아
자연독점
##캐
임지훈
##광적
##황방
앤토니
랜치
압축천연가스
##안초공
##한영실
노규진
연사기
수서동
배기구
##번역본
주글
어딘
##나무씨
##이섬
점칠
##본동
류병윤
##상급
##인선
중손
이상엽
가전면
악화
전종환
최준철
홍완기
물개구리밥
독하
전려
여상조
준해야
##놨다
송순옥
둘려진
프리처드
##온파
##매수인
고무벨트
가어
안연순
지름길
##늪
걸을수록
퍼부
장해물
이대식
##강선영
개오동
##호칭
놓여도
잡아먹
예비자
##구무
다니엘
보험금
토모코
##장석인
조태선
##아윤
떨쳐버릴
렌턴
심희옥
유치반
강선리
##조량
##이상의
##겂은
##독신
소일시멘트
봉긋봉긋
##노매
조선만
##식한
##각시서덜취
박도연
조태훈
후텐마
곤지
교통로
쇼스케
토착어
##야성
자콥
##모함
검독
회잎나무
##학습원
잉용
데이빗
잉에
여곡
기심
##니스커
##혹파리
최영두
도련
블라디미르
용의
##나암
게워
##근간
주문진읍
##문범
시토신
셕이
산욕기
##연부
연희
오계리
##결정론자
이정치
##악력
베일리
환경성
##소조차
##능인
##서역
소천리
##스네이크
오은진
카페인
웨비
황재민
달뿌리풀
##라시
정우용
딧세강
##언지
우문현답
##건설장
특이점
##영세
##슐리
##던지라
정은혜
엔지니어
낫질
노역장
애기천마
김흥준
면벽
안병원
주피장
리샤
##이렇게
##폐원
딘
제도학
치르코프
호남
엄무
야노시호
##감바
##림보
성토장
곡곡
김길동
기명날인
마니
팬아메리칸
##스테이지
##흉
궤변
##양각
빌리지
##거류
바르다
##버짓
연설
##권주
산족
전
##장바닥
자격증
##시네
가필
김흥
등기소
내압
##준교
##티니
##강우기
##부토
##파니
##시켜간
볍률구조의
메일러
똠또르스크
자민족
##경용
배용균
##항해
임종운
가로놓인
##종지점
블루
##버슬
##교양인
실갯지렁이
김주석
백승혁
윤성규
찻숟가락
시작인
여맥
곤욕
아지아
오영철
조윤
쿠알라룸푸르
금기시
과상
가위손
##관마
고환염
청순
##입자경
가스탱크
다수대표제
##가늘
명실
여의보주
지무
##우방국
대항전
비음
이병로
이현배
초면인
들려요
고맥
화장터
오관영
##근곡
##이보혜
의각
신호인
##폭부
##로저
이설주
##작대기
##마방
평소리
괴어
영웅본색
문준성
교자배
해빈
##해행위
언해구급방
산벌
모상관
긍
조재림
정창환
##통예
지하라
도전율
##학교명
유창국
아뢴다
상순
##쓰레기통
강광욱
정양근
자료
로메로
카사이
모기약
##어촌계
박나리
소스라치
영평
아시타
두포
김연욱
발전량
##생강
차올라오
##과속
##스테아린
##최단
신방식
보수주의
##전단지
달릴
##뒷전
깬자갈
쬘
##아말감법
윤영내
구인모
관상가
##외암
막명악기
안재환
버지나
전우천
북해
##서술
##적묘
종가시나무
##자아
##도섭
뱀장어과
##가구
##량장
정자형
최종언
##작용
##벽사
##착신
화장사
꺼려했
##발송
한성용
장동익
하여볼
출판소
##제철법
##브르통
##셕에
황금정
##보안관
##가압류
보인다며
##탈퇴자
유성형
썩였
실증
##실감
공시가
죽창
##영립
허준호
페록시좀
소트
원고
##트리니트로톨루엔
##리조
##유체
최예나
연희동
##무직인
##감도법
누름단추
콜트레인
산이면
대간첩
북비
무주공산
기울어지
발디
워크캠프
##상악동염
##정률
##강녕
한창완
목공예
신록
##문적
이연택
안학궁
곽재섭
##거배
##옥공
거둬야지
응대
막심
통폐
지류
##은교
최기득
##른지방법원은
박미혜
혹한
오병태
배기택
조갑
멸치
고텐바
##행처
뒤쳐졌
흄
박균영
발돌
간화
##동아정과
메마름
##기호가
국민대
게이밍
##졔조법
오스트
이중호
##근무지
##생배
태성리
정저우
##새봄
되돌아간다
엄숙성
원월리
끌질
생명주
에티엔
쪽진
문명인
##자한
도축장
##음악제
송진호
팬시
목패
탱고
##레빗
##세견
유효경
파생법
딸려서
배인
가벼워진
소엽풀
##의룡
부용동
관제탑
해답집
돌말
똑똑똑
덮여
##만등
##비육돈
아이카
질러서
##진유
키노
좔영술을
젖힌다
우암
샤또
리티아
이수동
##선발전
##상물
깨워
##신분
##육상
거역
##학회지
##원질
##압흔
기린
##페키지
죽염
##차압계
##차집합
박량규
소홍
##노서
한현정
이종록
호온성
권오영
합작품
이균봉
저고여
서승환
이해수
유희승
아이보리
황창순
성주호
##경윤
기질지성
다윗
옭
박순지
김찬종
가산세
##연운
향광성
강보형
##안식처
울컥울컥
동문
보그트
기산
##푸름
쳄버는
##유재활
최희재
강절도
수용기
고현진
임재석
고료
##무지개
농기계
어얼둬쓰
치자
최성자
강소영
다점
권성민
##프로토
덩굴식물
##품식
삼투압
정벌
##개짐
박건수
최대량
교통편
##에밀리
박석주
##부대찌개
의물
목둘레
잔과
맹안
산요
##록의
##책시
가벼우
기지시
##쾌제
통풍창
##소폭
##깨우
##박윤정
수능
교접
캠벨
순홍
사라졌으며
트래블
##전법
시나이산
좌정승
교도작업
청량
신발장
둣한
요릿집
##촉박
박승헌
최은숙
부식기
##후빙하기
문철
엠셔
김호철
##축방
##만나
##미처리
쫒아가
더워진다
초신
포용력
##엄서
무전기
##약용
##어부림
고두리
완료
이한승
##스케어
##감액
볏짚이엉
열한째
십상
자궁벽
부코스키
보머리
##늘러
##오름
송정리
##제거율
##입찰서
##수납공간
강신형
어셈블리
##울에
자기기만
한상민
꿈쩍
신완
불프
적항
최승길
르카쩌
만민
아이크
오광대놀이
좃
여아복
조참
간접사실
간섭법
봉입
톤수
구재
##옥촉
근생엽
중심주
부딪혀왔
양희중
정대진
다가섬
주응력
##렬을
도배장판
복작이
최마
테니슨
##머플러
국무회의
생성량
건오징어
니다
원종선
##쿼
##귀의
울려야
허범
정돈
##만법
봉덕
##수익
갈천
##교지
##가정일
##고가선
쩌릿쩌릿
너와
##권인
##포소
이생
##쏜
화성인
이종화
험하
##대리인
처녀이끼
라딘
골머리
##유현명
공음면
바스락
탈진
뺷주역뺸
휠씬
##듈레이터는
톻합보안결재시스템
공원화
##스팬션
행하
공민호
고문장
바구
대학살
이수빈
판매대
탈지유
모본
##시삽
##제찰
테세우스
체펠린
##동우회
##줘도
잡식성
김남권
엄영란
완자
##문홍
일신전속
대증
##소네트
맥각균
승마갈근탕
##외곽
스미더스
외족
새파란
조상대
관평천
김회경
##하수인
비본
부실시공
그러그러
냉담성
강우대
퇴침
편간
모터쇼
한주호
##외대
상백
도하쿠
성율
도솔산
마네
역연령
##수행평가
##키순
##마크업
##이정우
펠리
물까치수염
##압치
빈연
##김지영
쇼핑
##띠
노고단
번조
손정환
회기동
##간경변증
승낙
박기병
한경자
김정석
박보근
제논
승무
진격
##콜택시
화랑로
필경사
##음상
성동기
##금생
강순희
식탁염
장운동
세모고랭이
프리스
몸풀기
투자자
카니에
하객
탕이
겨울철
##화로
송품장
학창의
##불연속
##점마
조평환
계변
##어학사
고와서
놀아난
곤쟁이목
다엽
##아모
##뭄정보시스템의
##비즈니스
이경일
배경조
##좌당
불정
김경
카조리
##육박나무
기류건조
점교
단칸
##대내외
구자철
학개
인사이동
정상박
조혜숙
단오절
양구
신극
부팅
엄니
##상생
약재
##결단
네스트
삽입부
충담
매겨야
##보철물
##벌라
이장
단심
인바디
스무고개
진방
##칸디다증
##는구나
##재아
벌집
최병삼
##영쇄
##양오
##장근이
##로고
백유경
##이혜은
단오
박승철
노방
##도전율
텔레파시
한창호
유성범
전만중
토피
영흥면
##우파
반응기
임학태
창광
유관지
##상항
이일화
마야
크로키
대분류
의령
축회
잦기
자소로
백창식
전동진
프레슬리
후계자
##꽃밭
이규경
##암식
납작납작
##촌계
##폐산
김경도
##어운
색동옷
투로
##장일수
부속서류
우병철
##잔골
##했어야
스카이라인
##생쥐
장호연
산파법
이방식
##낫
쓰인다
곤룡포
돈트
최빈치
##김상만
##건조재
구이
##계압
김희제
명랑
##결정체
##재평가
쁘로얍
##그라피
비코
남기민
##방섭
대생
백용기
##도슨
##원아
##크리에이티브
배수펌프
모의총
가릴까
붉바리
불가침권
레일리
코도반
##논정
공미희
고봉연
프리바
##급변
매크로렌즈
이준표
산토닌정
##택부지
##코코
격음
강우근
과꽃
절였
월성동
유시원
성표
흡음력
##송선의
읽기
레위
파크
##제상
##기방
갈바노미터
##추동
조사서
##예감
온다는데
수교위
취서산
##군수
다큐멘터리
유소성
사라진다고
탈유
장승배기역
오천
##한윤형
비전론
입암
##경광
최승준
##광구
기성회
##추치
복달임
유희용
장미자
사회당
전영숙
임영섭
##템플스테이
렇다의
##갇혀
도직
루아
비괴
계승성
##소환
부풀려서
순장
이세이미야케
이미현
##미숙아
##노동절
유영식
그려
델마바
단식성
##이신호
##공공성
##비젼
다윈
시격
방사선학
##건운
박강문
구침
이규화
탄산기
매달리
마쳐
뺷신증동국여지승람뺸의
##눈썹참갯지렁이
##처녀이끼
비늘잎
허용도
민병문
##간착
자른다
혹벌
##딜러
투과도
순손실
다래나무속
##패배
##뒥
골산
무상관
##총각
광루미네선스
월간산
##급수지
전분질
##신모
##유연주
##중금속
심광현
아즉
빅밴드
원방
납골당
풀질
연엽주
##토관
##신들
##구국회
시그마
##하남
##밑위길이
김도삼
천마
앙와
김규혁
뺷까마귀
##무사
##부예
##둔치
교통난
현규환
집체
타월
프랑소와
개폐
##내릴
고토리
대청봉
삼음경
박혜미
##단전
폐회
자네
헬렌켈러
##놀리
완료시
##널방
일본목련
칼톤
스완슨
등해
걷어올려
입주상량
송장
노승현
##스토커
굴신
버섯
양명경
이무훈
멱승
##지울
##정망
나위
##네거티브
구상난풀
가계조사
촉서
국전
##강도지
정재필
##헵탄
접촉자
조정훈
문지원
##누거
수화제
##청화
##셨었
##입심
아미노
미니밴
하백
##오찬옥
##샤도
##계곡
환내
김인권
##신디
##이창구
지연
##밀통
##럼프
엄포
엘머
조선어
##왕자
심현섭
이주호
세척소
개똥밭
훼르디난도
주천
이의민
다리아
용미
토정비결
비색계
구겐하임
조거
스티브
홍포
정진훈
허쯔
도착선
##리드미
##고보
##민첩
존즈
##형권
##구월
한진숙
렬이
스크립스
샤르코
##불황
##후의
##클링커
병석
##부사
김보성
이지
탕헤르
##열파
저민
##쇠물푸레나무
##하도
해방감
천심
한국국제전시
##입력단
검열망
한남동
괴탄
##박종옥
시골집
##생산비
지노
이상해
합의서
##초원지
붙인다
##이서
꼬박꼬박
신천우
##위팔근
생선국
장백산
손진희
가츠라
##주종인
이언정
장윤환
박준태
지에스
##치부
##갑상
오테마치
최경남
민경호
##종덕
웰티
##말랑말랑
기학
상화방
##열소
정영우
장뇌유
된소리
##까치두루마기
##연란
가리킨
현륭원
##본다는
코텍스
##기척
기능자
성인병
##해바라기
##약사사
남구
##여열
##일령
들락날락
콘서트홀
조주연
상용박명
운전대
##독단
##기러
##무기학
메이시
발칵
범죄학자
##이동만
##데로
끌어내릴
성숙림
##이립
국립보건원
##셰이크
복초
잊어버리
##조대
정덕훈
민병훈
별두
데토
김상겸
전혀
남여
전은지
##빌딩풍
고달프
팔부중
##일뿐더러
민경동
윤지호
국영
##정수
인쇄공
##관작
배수량
참갯지렁이
멋진데
손우성
나중덕
황남동
##이얌
단경기
자바티니
당로
남아공
카르노
무반동
##그면
##보철사
이남구
윽박지르
김상필
##조담
##신훈
감성리
##휴진
감아올린
북미주
대랑
위트포드
가일층
브로이
이상헌
붙잡힐
##용역
##그적
근사계산
태과
상대력
제제화
##다이메틸
섬약
##청산
황경철
상동리
##쳥액
썼으며
표현법
윤영삼
##여행용
##조항
##어려웠
수보
은괴
##구련
드롭존데
반듯
##천장화
김범규
전병규
상용로그
##신용하
신재호
그린코
수포석
연취
정우섭
최재화
기화기
김흥주
일본국
##빱빠는
늘어뜨려
베어드
권오붕
##네트
초경질
##취편
렌트카
병장
##너무
비식
신식민주의
녹말풀
가져볼
김경례
해주반
태하
고택
##성어
##서술형
##입법론
숨질
김명남
박현준
리스팅
오태영
찧
##평포
엄나무
##야임
##기호품
##시현기
##이용환
굳혔
가해져도
가양
##트릭스
##판매가
##아각
차렷
듈에
남정석
##찬수
까끌
##발거
곽창수
##단족
##국희
스페셜
공작미
##쇄설
조숙
##섬쥐똥나무
##경화능
##잰
열접착
박석인
##차대
##리세
동백산
##광전지
조병래
밀려나간
글래서
##가동역
##라이
오신채
양수석
전차전
판초
##돌이
강해진다고
##토익
이래서
사분기
가해져
퀵실버
사관생
##승강이
##근해
밀리언
변소
헷갈리
탈분
##수신호
##일렉트로닉
##연침
롹
팔콘
이일권
순덕
뜨거워
로테
##보아
육묘
시스
##적류
자연초
흑사
##킷
##알려져왔
배고픔
##닭고기
봄뜻
##탕연
내항선
물러나
사죽공
감자걀쭉병
##강효
##접관
마찰열
수현
이윽고
##스트레칭
이길봉
귀족사
곰팡이
##듐은
상국
철광상
강축
치사량
##낙석
##특별히
윌리암
##홍재
후두융기
상생
##친숙
햇
클로리네이션
총망중
최민호
##상면적
전집
##차량기지
레시피
이승한
##손택
삼발이
남동생
##일체식
증발관
혐연권
김영도
밀워키
의존어
장성준
##깅스
분소
서정남
눈멀
미래기
##사회법
딕싯
##여허
사느냐
남광우
정산면
피렌
한국기계연구원
소유지
##놀리지
##고쵸
##지원용
언뜻언뜻
백인걸
마틀라세
배정석
##접지방식
##경무서
정주연
##얼개
태지
사진부
퓨처스
고정단
##출문
엑스선
이규원
##학창
##오에
옥황
무뎌진다고
정원화
뭉둑한
강호경
강공복
##방수용
실루리아
조로아스터교
가는개여뀌
괴조
유경아
##이용료
로젠펠드
야심만만
##권종
정영배
중해
강인
##코사인
롤러스케이팅
##신경교종
##총화
심한가
##변사
묘법연화경
영천사
로켓탄
숙우
##김준영
##혼인
송지훈
수식체계
파
##쓰일
##용수량
깜박거리
간편히
##측파대
거들먹거림
파리바
만대엽
##모치
영만
서도리
새길
베이어
##약이
의학도
박주가리
중심구
성선설
##어막
임원항
정기진
조건호
##윤재욱
생화
##다에
##가네
##석대
임종찬
원님
##잃
부원료
##규제
초기
##배작
민경익
쌀엿
##고처
문일경
내스
실동
##동아시아
##영렬
강용준
##리박
##취함
한유미
청완두
점멸
점종
당랑
##우월감
히비스커스
문강형준
민산
정조원
펍트리뷰어를
##곡인
이승수
##계농
돌아섰으나
아린
##훈의
배불
노병섭
##라그랑
##상요
##박경환
##전현
##백정
##현사
##진딧물
##지출금
부딪혀요
물침
김주리
이관제
원상연
##치지
양부인
스키야키
져왔
해맑
김윤완
연환
구조료
변지
##무슨
조니뎁
이승용
든가
##산부인과
##물발
지덕영
씨족
공수병
따올
##제이션
돌아다닌다
하빈면
문부성
논토양
굵직굵직
##색결
보사
##허용
강찬호
문선영
##오일
##김기문
전력량
페블워치
메밀가루
푸리에
이자람
##박옥화
푸토
하우스병
##창덕궁
김명용
##병생
##측색계
세일
윤태옥
##호부장
부임
##몰탈
버렸었
조홍식
쫒아가는
산생
최병길
##객차
홍재표
코오롱
##혐오증
웨이하이항
약나무
왕양명
정병섭
김진욱
동화록
영지
윤일병
##이영면
오영주
필터링
##크리드
옮아오
서조
##남간
##이은정
##지남
용두사지
번트
일심동체
발
정호균
##훈기
박규홍
미원
장준오
모지
청음
황보열
##상묘
조사원
쇠박새
주당물림
오현경
성조숙증
##흡관
이종희
##한제
진단서
이송환
김민욱
보현사
도미넌트
극락전
##상금
이이다
##좌골신경
박진하
휴관
박가영
나중
##모사법
불내성
##켄달
성감대
어업수역
스카니아
##수련과
스토퍼
척박
갑산
황규성
저냐
##페체의
##시색
산께
##올려요
규진
##조성술
견직물
전도체
피그미
가황
계영철
침활
쥐시외
합유
##김욱
익면
견준
##숯불
##버럭
##액방
타이즈
신민영
##습포
##퀴리
이문보
안경호
포립
장동춘
중앙일보
최선희
덕정
장미혜
##백주
건축술
박병호
양금신보
##납골
##삭비
충국애민
되돌려야
무약
강준치
##자행
##별시
냇물
총수입
##예수금
끌어올렸
##백숙
##지패
도매상인
이기주
##쿠가
갑각류
꺾은선
짝짓기
운송업
카논
##총영사
문성근
후카
##분업화
이레
사이버네틱스
깃무늬
##광역시
##대통
곤도
무기성
##이만형
##뉴튼
오이나물
들어와라
남겨왔
##보태
일함
기백
적취
##티지에
막창
##돌성
적멸보궁
##가증
문래
##현미밥
봐야
##측광기
박조용
내비치
##우르지
분복
세족
딴소리
박찬준
정숙영
##소박
부작
##분사제
##나현
새머루
##공작
##고분자화합물
덕장
변문성
변정민
버리
##리매
##일례
##교통량
쌍성
콤파스
##안토시
##경질
엄인
한께
윤복만
능위
김상엽
##출범
갈고
윤대호
전미화
보빙
##복소
##철골
게토
##관우회
야당
##하경
구황촬요벽온방
아닌데다
합주
철채
유어
경용
서상혁
부쉬넬
이순걸
겸한다
##니니스
##상환
##적응력
##듈화
임성열
##산란층
평당원
난적
움직여졌
잠근다
명첩
녹녹
황영실
노장춤
##렌탈
##궐음증
##육류
##특성함수
##쓰리
이은주
퀄츠를
침자
둔해
광민
##애쉬나
##챔퍼에
장호윤
##사병
##회전율
##춘다
내후성
##캔
김광회
노형동
계량스푼
##해항
블록체인
이골
톡소플라스마
수분리
##뮌에
성낙도
김동권
##달인
애물단지
중대장
변기식
유통분
박시우
##부익
##엘리트
남라
강정모
##스카우트
가져간다고
군만두
##비소산
장현실
적장
##공헌사
어림값
##이각형
##바디
여호근
정진이
임하나
##표본
##찬
일본학
이형연
조민기
도에이
##시켜서
능곡
위인전
베이비붐
신호위
백종락
토에
##박국
##전데
초종용
베어링스
등질
##조정법
부고
서인천
브리즈번
오카무라
아우러지
소렴금
활터
전투물
##사빈
##보단
교통광고
##루레
##포도당
심했으나
남긴다고
##덧창
##작척
##자화력
문기선
손준상
핀처
다문화교육
섬진
어류학
##변우
##용로
토성
법성
##플레시
박원우
송조
신태수
강연욱
거쳐왔
이승언
##수막새
풍시
끙
건
녹턴
##시디아
바다나리
##조선왕릉
양희
청첩장
수리딸기
강혜연
에릭
오줌싸개
##하과
퍼져야
전통댄스
##반응물
척이
##시안산
지산면
풀어낸
삼사월
직방체
##이수철
##산란계
오스뮴
평석
전진우
##핵단백질
##기밀
대웅보전
심신증
명패
산송
김숙진
내려졌으며
유윤수
비몽
남승우
전탐기
옯기는
##노출면
이뤄지는
##비준
논두렁
시장바구니
##조철기
부자이중탕
벌어먹
##페이즈
건방추
야쓰시
정정의
##가르쳤
##운동량
##효자
##메디아
민병현
취음
세장비
강홍
대갱
##수로관
점프력
##웨브
트레비노
김상익
##뮌의
키네오라마
최지수
##할멈
##새의
##학용품
목활자
##김운경
##성적
탄성률
장길
죽림고회
##모른다는
송파기
판공비
##여선
코랄
감시구
주영섭
##라로사
이정렬
포전리
홀하
##면담
안혁
틔웠
가청
보낸다고
##급방
김철진
장동완
권상희
혐기
동동
떠받칠
장동련
도참사상
산화
##벙을
고백체
잡담거리
로세
놀림감
장의자
넬슨신
중성자속
시나노강
장평우
중증
##산신
정수남
분실
소치도
한혜선
제랄딘
송정헌
십계명
페난트롤린
##경선
당구장
오끼
오종근
최성호
등국
##신한첩
눈뜨고
응집
##처함
깻잎
##서포
권영필
##이은주
크라운제과
중과
의젓
##로인
조무환
박민규
말벌과
##탁전
유재민
##최혜지
쳐져
훓
성지민
속간잡종
임민수
황원
서혜린
동론
##신근
##여인숙
정일권
홍지명
제주해협
고문헌
김부연
뺏긴다
크리핑
산동네
가습
##거로
들여왔
적설량
##인프라스트럭처
이종형
##세습
##조여야
백조어
무환
키워야
##복사기
##한상연
##무방비
리더만
김경백
줄지
와이드
##장촌
##간의
##발랄
터전
##방언
##디외
##측심기
사드
살리실
##물빛
리다
전용선
##란터
가바
은연어
##장력계
월드
계전기가
최제우
##도묵
서다
채상현
허숙
##차비
##난동
##피시
광생리
##얌
##급전
가악
내재율
##조인스
##윤자
네르비
황증
대칭
조성래
도량
정부용
##서사시
##심위
플래트
통이
이병태
해좌
손승일
발착지
이기하
도항리
시세
##준망
##네이선
상향
철석
##세황
##절단법
정순둘
스기우라
놜피
종국
도외시
세포큰조롱
##늑과
난센
사탕단풍
고산병
권석현
양성호
##화아
권태희
##숙행
##덤핑
류수현
아나톡신
호별
모권
##준문서
##변의
정보주
##생체량
이경준
지죽도
무직인
움직여
곤두서
##고호경
##잔재
침산
교정시력
##최경희
쓰다듬
발단
##매듭단추
올려질
산해
실린다는
##떨림이
검역기
어째서인가
자벌
장좌리
##신현한
지어다가
##서관수
포르투
##장폐색증
##총민
##극광
감모
보태
배열도
밝혀냈
개걸
코너
##음간
##비유량
덕우
##유감
황도경
최미자
##도편
차배근
##체육인
풀비
고수경
임인택
##했으니
고빈
논문
##원자시
안소니
엑스선관
다급히
양희경
덮이
이윤의
임준형
위빙
아트라진
##어탕
##세척소
늑선이
##우시
입면
##중신
주간경향
##스포츠센터
##광선치료
##분표
박문규
구아닌
올베
기왕에
임주영
달러환
##초작
##다녔
보급로
##채시
이호배
##배아미
국가관
권혁무
프리츠
실측값
신예나
##농교
##한염
##종설
##화채
##버스터
##강섬
##관봉
내추럴
김내현
범어사
모충
##까
버려질
##체한다
꾸벅꾸벅
친화
다이나마이트
섬서
최준열
##예외
줄질
관헌
유준
중요시
##크니스
에어컨디셔너
##모역
##노트북
조합회
수포화
##채석
거니
##계피차
들으려고도
##증후
보스니아어
##교준
무양
마고할미
나기환
##포조
컬컬
공당
##이레
치간음
김요나
스텐실
맞바꾼다
흡수
원할지
##제요
갈색대마디말
서금보
그라미시딘
##복분자
음선
안강현
##들어갔
##감쇠력
성기정
민방위
측정
조용희
다리나
##라세
활성화제
아펜젤러
북새
##봉항
##등고선
불러들일
아칸서스
이응숙
마치종
##어피
##전유어
방패목
##단치마
연옥
구수연
조영균
##무계
##단가
##할까
억양
김수용
다비즈
태사
돌부리
레스터
출장
대중화
크로스미디어
종아리뼈
##렬파단을
불입
양기
##좌연
##갈려고
##연공
##무유
##팽압
한과
##무하
진봉
##연구창
비력
##색의
생애사
입방근
이원춘
담성
말분
해하
선부
동의보감
준비성
##그래퍼
온수난방
경이롭
강습상륙함
##동경
개머리
영원불변
기록국
토량
원조직
씨아
임대기
다상
시커멓
##동불
백인열
##석괴
##배선화
##추이율
##투더
쌀뜨물
##집무
##관도
코너스
##점미
문라이즈
확연히
나머진
늑선내의
한희원
조삼섭
히루
##송환
상상력
항무
##샘풀이
조덕연
문산읍
민경철
고종시
전미숙
##염화칼륨
##호러
##학행
골절상
##로자
이세나
촬영기
호연지기
송민지
오세진
양국진
##포
졸여서
정은식
하고초
선경
래드포드
알레아
##급락
변태점
유재두
퀘이커
이근범
대칭행렬
고정리
합가
트레이나
최서윤
지겨움
진세
이채영
축열로
오국
##흉일
족지
떡살
##볍
태운
도면
##은익
##주물사
치바
문효
텍스타일
착색제
최홍범
연봉매듭
##이주연
신중하
아유
##발루
정탁영
파싱
##주무시
##어초
가진다
일단
단효
기호영
전봉준
우슬초
에스파다
##지표수
여야지
이승계
##두강
단치
##신농
자탄가
##백리
조휘
##총독
##민력
금성동
권석원
이계재
종업
##윌버
영련
말레이반도
##공보원
측은지심
유효순
이순
##굉장히
##김화옥
##접속법
##왈트
개척단
##쏘
용해도곱
만간조
위반자
월렌
이수석
최돈흥
칸티
읽혀져서
##속구
과밀화
김현상
룰루랄라
골층
놓여져야
##리간
심박동
##이충효
녹섬석
##여심
승두
료칸
##폐교
봉일천
도래기재
원구단
임대우
선형동물문
##환소
약왕
백운면
넘긴다고
미뤘
팔도
##일인
대감
##메아리
패키지여행
비껴나
##뇌부
손덕수
고속화
수구
윤현구
축여
정진경
최영휴
권순용
##고선명
##둥리
열두째
의사소통
제분
표토
길다란
악무
이득중
##고감
쉬기
##환함
##분말
변윤섭
##마형
##광등
임정태
서벽리
오정희
##전력선
사통팔달
기교
##고농
상륙정
하멜린
김성욱
티오피
##루네타
김강화
전지수
쭈그림
내지르
빽빽
프링
정숙화
박민진
주자가례
끼인각
##부릴
##근연종
김사훈
에돌이
세밀
##사이보그
칠성신
분양
##분과
순차
유민영
##영양원
##양명
불지
##주계열
하루노
배정근
임춘식
전수빈
대학가
##하상류
##좌수영
##교와
##갑과
한둑중개
통소
드러눕
이상우
시컨트
##머리털
김기경
예표
##앙상블
전성철
중도좌파
##저렴
정삼
위머
양식
##판관
운역
무오연행록
##제륜자
##미네랄
이화진
남현화
타일러서
오수용
##컸
틸
##캐스
직업병
홍장의
겅호는
나팔
##갈비뼈
##공정
문현호
이철우
##르이
소유욕
##강추
거동범
##기댓값
##지지벽
유효량
절용
##현문
상무국
맞배지붕
##신접
우함수
신지정
공고자
대덕
루비스
검문
절절히
오성대
##별업
사라지
오영곤
##콥
##최원규
##가뢰
헛디뎌
공회
마누엘
비정의
임무영
##득력
##우먼
##모습
##염일
부홍
유균
메머
조성언
##손부
부드러우며
전조시
호색
지상전
##석판
작곡
이미애
##블랜딩
##크립토크산틴
다현
정상위
천황산
위이
불편부당
기다린다면
##나갈지
당단풍
무성히
상개
남조류
고건수
사직신
쿄야
김하송
고상진
기무
원스텝
##봉역
##만남
순환계
편평발
##몰래
##괄아키텍트
장정우
호행난주
봐도
시칠리아
미야타
##핀다
김용휴
서종수
##병집
로송
안전면도기
정취
폐부
선공
##어금니
마냉
##임욕
앙증맞
##해어
##숙원
##계획도
##그리프
##더이다
형대
진네만
환풍기
조강래
길기
소사구
##토식
풀피리
##병마절제사
리소토
됴흐니
##불편
석을수
루이지애나
콜로키
캐주얼웨어
##예술계
양장점
##프렝
은대난
왕용
##보존함
연결판
##구행
이귀
귀머거리
브로우
내몰
##복옥
##적정선
페논
말썽쟁이
하태영
이상칠
임상오
##고저
치주염
서은아
##계수
환경미화원
돼지감자
버짐
##아픔
존숭
##도리이
##트러스교
천종숙
청담동
오마주
서영암
돋운다
나반
##등줄실잠자리
별자
줄곧
복덕
성스럽
##전장
울적
죽렴
청결
##자유자재
##염분계
일만
##임대용
##김은정
##정신모델
장현정
김충일
##처한
머시니마
##전관
##가산점
##새우만두
##적실
##암체
김응석
##제항
갑수
##탄대
하영욱
전신욕
##현단
말더듬이
##정생
보베리
##열상
추용
찐득
##떄
핵형
지주
##가객
##타리
워낙이
김상용
##산소량
들이마셔
##으고
조백호
##모건
##스카시
소렌토
장승재
향한
##제막
##차현
##일연
김병목
안성천
광복군
##청공
장치기
##랍
이휘영
초유동
##검사제
김강일
의례복
시공법
찾아냄
끓여
블러프
피대
김세영
카보나이트
곤지암
신상호
영성단
##산연
메가톤
박정석
##신극
그렸으며
##인두염
분대
정경렬
마모트
젤너
##올림
두리뭉실
월별
김윤형
이춘택
고삼
풍랑
시흥본동
펴냄
##퀀시를
주기함수
##국축
하조
후타바
교부세
허만형
반칙
##조소
찌꺼기
최보가
##촌장
로드리게즈
갔으니
강팔문
녹전면
##반상회
##삽접
강성대국
화변기
파브라
##광고인
##착고
홍석기
##초경
민성
일색
하커
##설편
##화폐
##조업도
중국해
##정재용
전기난로
증후을묘
박명혜
형광판
김성길
맛나
하루하루
##상식
##시켜야만
변공
기제
장무
##유성경
정용재
타라곤
주꾸미
종감
규두
##소역
스카이
겐조
##학급
선수파
임상기
얼굴들
아시리
한석
조상현
##급수관
##인식표
##장증
발대식
이성래
이희제
종달도요
아름다워서
##오작동
정규
리컴번트
##입면
별명
최고봉
노문철
프로펠러기
##분발
강조
##설통
##진한
무경
고잔역
##지하상가
민성욱
##다체
이봉훈
김려령
토혈
##파연
##현명
##금속재
##뉴요커
목계
매경
베라왕
##미니
박응범
무학년제
음지
옥중
예라
진지왕
하자
약사사
우두머리
##증거인
과학전람회
현동걸
야단칠
##알킬렌
##차후
마진도
중미
중재법
##체장
타카오
박용민
참죽
결빙
정재욱
온누리호
연급
프랑수아즈
전복전
##엽서
##가관
쌓일수록
문자
보습
##희석법
에곤
##입학식
##휴면
##하피
그인
꼬맸
청승
##슁
전병철
외칠
##개기
리코
##복당
코르덴
수골
외쳤
최이
윤만
박지홍
일면
역법
갈참
조수곤
국외자
고환
워
거차수도
##밀러
정진호
##집례
서기관
수덕사
정연순
농염
취결
대중여가
##취임식
##편모류
##색염
##히에
박기환
송축
##달수
이형관
발주자
##과만
##랄로
##리제이
##병증
전명표
이소발
서상욱
내갑
##부상자
새움터
혜계
고무주머니
녹두떡
우경식
최경석
##요동
##수준기
제막식
##고바우
##강
자유민주주의
설비비
##배수로
의연
종착
이성만
김동욱
콜로디온
느려도
운다
전자전
##듦인
##자스키
##자작나무
슷하였다
시원찮
최윤식
마가
유준희
최명화
앞지를
화작
##앨리
장보성
##부옥
돋구
망목
유지윤
요구치
띄어쓰
노터치
내한성
##외집단
데포
월곡동
차광성
##이화인
##벙
##심사
김두량
문산리
보철
측신
##재나
##유한주
마이브리지
##치습
##구임과
박운호
식신
관재
홍완표
승용
인노
##패스트
##참수형
리키
##옐로
삼하
희열감
##아웅
##내실
##헤이
##매인
##공융점
탐식성
영경
순라
##병갑
##릴리즈
##조영채
직주
레벨스
구귀가
이혜영
##연아
최종관
##용량계
##재벌
균형설
즐겼
##규문
종내
에스웨이
지명
리조
##사방
##하나
시배
강부월
총호
##인접
일자형
프로브
##성편
적어도
##지산
전환율
##골지
##오엘
유희열
##이셔
신주인수권
오춘석
오세창
근근
투손
소재선
안렴사
##제기
축심
도둑놈의갈고리
나나
스피로놀락톤
##영리
##기술료
국기원
##정들
##가져
##름털갯지렁이류
뱃놀이
물방
##동철
##이착륙
##정열
만져진
##신호상
흡수선
##산업면
민달기
임신부
경계자
##인간
휼민
김두홍
##퓸을
괄사
부속실
잇꽃
지역상
유영해
기령
헐떡거림
국전리
##수귀
게릴라
뒤얽히
가로질렀
뱅크시
판치
##털목
일반급
##려뇨
김관호
솜털류
카젤
##몰트
##효빈
##주군
##쉬우며
##누렸
##미분법
수용장
자기력선
##베라르도
멍든
혼용체
크산토필
##나도그늘사초
메타규산나트륨
##큘러스는
양송이버섯
푸가
양광식
##유엔
##방명
##주준
##고위급
민태진
##가매
담금
대렴
##흐림
다가온다고
터파
화날
김창규
##축산업자
마소
박현진
포장용지
##언어학자
전영신
##으랴
찾아봐도
현대아산
존제이
윤수복
포천
봉동읍
충청북도
##반사경
탕평책
대리모출산
##만구
입학식
##일상생활
계셨었
반대자
##알아차림
합쳐진
부글거리
토모
박범식
생약
##당조
##녹스
##진등
초식성
하장면
##파이저
##인젠
정성현
장세영
##목공예
소건중탕
강성헌
최규동
##자기장
개체
##려던
도병마사
은백색
상업망
##경담
색점토
##부신
부황
##철부
##예비치
동원령
돌보습
석춘
##류홍
박진규
동리
링크
##항려
투신자살
##진방
##진다
전치혁
호닝
해경
이금숙
갈려면
안주영
##결급
##황상일
접지층
기년
##국정
최철희
##이브닝
신장위
##멍할
보나
귀래
##전원
##광선
진자시계
간련
##찜
용존산소량
주름치마
충고
오쓰치
##새우볶음
##기를
##경영비
##역외
막설
아울렛
다보탑
황태윤
조승제
##지방혈증
떡쌀
배기량
박진선
공정거래위
훌쩍훌쩍
청산면
마투라나
수시도
##디츠
베렌스
감사히
조단
##계약서
쇠뿔
##뚤림의
##정보관
송영배
박현빈
조세
##페경
둥근모
양도체
##뼝
##결절
김호신
사분합문
압수물
관하
군외
유영제
클라이브
복제판
강효석
백지성
조선령
차동구
양찬
안영태
푸르키녜
둑
법륭사
곽신영
광석
서무
난방
영세불망
##박동
세척
##천촌
일경
##류야
멘텔
추격자
망치고등어
둔치
샌티
우참찬
대청
이세춘
##비알
중소기업단지
빅브라더
##티탄산
쌍림면
##코도
강북구
증별
염수용
##므델리
우협
산등성
치화평
체온
토닥이
남경모
이채언
벤투리
##페플럼
##렬폭이
잔가지
##늦
귀신
##주민수
자케
황귀철
옌취
무상교
등식
옥개
##로스코
##난백
권혁빈
##림프관
##대길
##텔라
##백색
따라선
최정남
##강철희
원시동
황금동
한축
양식업
좌단
##연승식
##파토
김민건
공류
광희문
향채
장승제
지녀서
용담유사
성과기
의풍리
무감동
흥덕왕
윤인경
황지
##질까봐
대상어
직접법
##일기장
##갈골
##장조림
익제
##부대설비
##남긴
##이리트
##인숙
오준석
부정굿
##사말
한종대
##브라인
##후당
##흠구
빨치
서점
##박쥐
클라미디아
김순심
이세호
공사지
권혜숙
김현모
##관양
라마야
##하향
##각대
김재관
##이훈
델로스
뱁보다
조선영
늘어날수록
##이뇨제
모크
간쑤성
데사이
해미쉬
조중생
말통
##성심
무술
##고즈
김윤신
##발자취
불친절
##반신
##소형화
##포석
만든다는데
약
전력손
손세관
마르셀
동사강목
증체율
조합론
류기철
내수
##천재
김경준
##천문관
융기부
먼지바람
특례
최용규
이인화
오거스트
대응각
##배강
가이드
탈바꿈
낙엽송
##사령원
옥호
##이분자
##캐리어
찡그린다
근본주의
##강체
##공환
##혐을수행한
미약
요들
##문경주
시킨
김종안
##황정보
조엄
독비곤
갑의
미비
손희숙
##군관
성소
봉직
안성우
##촌중
남회룡리
관절낭
구슬프
##표명
등미
오각형
부정기
정영대
날아와
##득분
이중심
목영선
헬머트
##별방
##김장
일조각
##볼레나무
착즙
우격
임종욱
소사역
##이불
엑소
##웨더
이승열
뽀빠이
태내
아래채
물린
##으란
목질부
나타낸다고
##변호인
정신사
##몸매
##표식
장재용
##치에
임태균
회피자
##벵에돔
##헬렌
##회복실
폐자원
##우선순위
##냉한
수막현상
##바스켓
##난왕
에둔
##중만
##선한
자연재해
두경
주은혜
혐호감을
이봉구
윈트
노정선
득효
박천평야
##투명
전환가
닥종이
황창근
해산방
김밥천국
부닥
월장
견주
적강
거슬러서
박중길
도미과
메이비
플라스마
##미림
전영삼
전재성
##관한
##이야말로
##재희
관광부
신지
##각화증
윤익한
어긋나기
석화
꼬부리
조군
공혈
##박민주
갑천면
수중익
느껴야
##유리기
경도선
다녀야
예기석
홍승욱
과심
##유영운
고압가스
어네스토
##설우
##질소분
미끄럼틀
득실
##리무스
##자삼
도비시
##반화
주자네
##점파
싸릿대
끓어오름
##서재
왕후
##분기기
##폭위
교평
전비
##근수
##이미선
타원면
##승연
이준상
##량역
첩자
콘주게이트
이국취미
##장미원
지혈대
연제구
육기환
단정히
농번
질환
헬퍼
다녀와야
##사드
불안전성
건릉지
접형골
##신저
##기동선
미스터리
남세진
후춧가루
변재상
황보용
##화학량론
보좌관
탐구심
착빙
소배
레인즈
임피면
정영래
파트너
##진안
바위섬
매그니튜드
보인다
앙리
집어등
##확고히
##육림
인효
##향한
심준호
규격지
선운산
양북면
묵정논
##분뇨
##균수법
##영상법
차중
산사육
이냐리투
작잠사
##권수
달라서
이태리어
##답사
오진훈
입힌다는
레이시온
종신고용
##모액
##양악
##헙된
##고유치
##제선
##냉수괴
##뉴욕
박광온
콜린
이상율
##결항
밀침
##멸균기
대한제국
이광명
눈여겨보
아시카가
크로프츠
하여간
한동엽
##하형수
##휴무
문벌
##속용
물리
##올방개아재비
##출재
프로서
자클린
황갈조류
##쿨링
유기수
와야겠다
송지수
박수형
주방식
닽
도깨비
푸마
대주기
##혹은
영상법
문화정
골경화증
친문
조상균
산토끼
선번
전염병
이어져온
강의
##이수체
수입리
모리꼬네
양잠법
털발말똥가리
벌수
하치장
이형구
길상
##회통
##찰임
재검토
##차진
말린체
이환희
소인극
자우
박병규
금북
고등학생
부러뜨려서
##이웰
##인발
##알림장
조현섭
김두중
호란
광산도
홍석표
##음막
인디펜던스
교육청
와봐
보인다는
보살핌
비트코인
##쮸
깃들인
##컴퍼니
맥과
동성빈맥
##전군
##권고서
려
##연찬회
이용섭
장운
소청룡탕
불사신
##읍시다
##화권
공결
##순음
네이피
송영길
손은영
##김포시
##녹식
##덮
전이점
##서어
##마우스
브리치
이상득
십자고사리
박연희
수리부엉이
##디아이
전준태
후루
심지훈
좌귀음
##청안
화천읍
와인
이수재
이육사
##관행
##염액
선박법
원영
증수기
##인코딩
막스웰
##나혜영
전영준
장사선
도교서
생리학
김중술
김찬홍
한제국
깔린
바빌레
박준수
##보온기
##의적
김모아
타원체면
책망
##략표집을
차용은
부당
이태양
##업
##온다면
##동행자
백은지
##색깔
##내경
졸여진
위경련
정영희
호접
김중재
월소
##친부
##임진
##납
윤정숙
나이젤
##칭량병
##방론
폴로네즈
##부도체
입후보자
정조시
상승기
##지스타
정량화
##전통차
당머리
원종현
무명수
거스른
소토
김혜령
##배출형
적군파
부곡리
조범진
지삿갓
황벽
##복처리
##필순
##반사파
##탄진
##독립성
주무시
##청력계
##닭의장풀
메시
관목림
##장침
잔날개벼메뚜기
명멸
이기종
나수미
고기붙이
##발작성
##했다
##공유화
성정기
남경민
에이젠
##낙산
전람
계단상
##에세
흰줄납줄개
클라스
##수표법
케잌
키워라
##전문대
각적
남순
##쳥거
오른다면
마약
셑은
최영
최진숙
##콜라보레이션
##공선
봇돌
오항
고속가
물선
종숙
미뤄
고형종
권태일
혼잡시
##구존
##리
디그
선한데
센나
각골
열소독
느림보
굼뱅이이라
걈땨로
##장철호
쇠구
##맞춘
##바느질법
정슬기
방고리
##울적
시종일관
은륜왕
텔레매틱스
##김영배
무자비
덧나
환마
공형
차분히
##납자
##견마
##남성복
##튜브
서상면
소례
##용암대
꺼져도
##직률
##시거리
칡차
어린데
##운두
경지
전진단
##침경
##악어
담겼
##신의
권내
##간민
배비장
##기료
##류미
소방차
큰반쪽고사리
도어체크
##소수력
##원정대
최봉홍
채산성
##개인차
트렌트
김춘선
##갈매기
##육족
##간선도로
##관정
감속비
서명교
막인
보장정
백량금
갈린다
홀스타인
박중윤
모품
소생산
힘입
대흥란
##페브릭
##톤즈
##가일과
도저히
##산방
전농동
공초
##서려
규형
배운다는
육친애
##용히
##아데닌
구획선
경낙
실뜨기
미끄럽
##화우
##세면기
신상용
떡국
하락
김경민
담갔
봉출
##오락
김은식
벨트풀리
이성국
##솔문
회주
이심이
포켓몬
##성패
##암염
바이오센서
차민
생약포
북신동
낭비성
키워드
스탠딩
추적제
망가
법가
##더듬질
##평년
##입출고
디딤판
##라상
##균체
소바
개박
##활동력
김우준
위치안
야박
김화용
##야생동물
회회
##민법
뺷꿀벌나무뺸를
유지수
##땝을
너그러우
자몽
양봉업
해밀톤
플로르
정연자
이석환
마랭
##토법
정상호
윤재현
묘령
고경훈
전홍
##스러워졌
내룡
교리
행랑방
이한선
##여림
##곱상
##항구
##포충
##옹벽
중앙군
임성원
상현달
전영훈
배치도
##농구
정선혜
용삭
공옥
##인계
할롱
아비산염
##동해
진안
파트라스
김금선
이도경
임대규
##한농
색정광
호자
##지맥
구본정
언디
대사간
##이재범
옴스크
극조
개놈
송천호
의제품
김애옥
망점
매끄러워진
필모그래프
미면
랑데부
정민섭
남궁승태
익지
##고객
##행사장
논산
##결신
후두
유지준
경계등
##쪼개
##무당
나상억
##매세
갈변
경찰권
##절원
서터
##산동
여져
##노무종
비먼
나당
박삼
볼티모어항
백세
##범칙
래요
탈발
일요일
다이메틸
##중립축
생쌀
연대기
솔깃
##이수기
플레
올라퍼
한라산
무의결권
##논설
법론
리권
##거주지
림프선
##평천
재판정
허베이성
교대제
##안경모
규범
고프
간주관성
미끄러지
##드라
나단
##귀식
##다리뼈
##기명장
김인건
판시
##금원산
육각기둥
급등
##결코
련장
##가창
서균
기획력
외점
##연시
안치한
잠항
잡신
여겨야
소비자고발
##일식
##산북
차지영
생겼으며
##강연회
절간
신동복
##된다거나
아름다운가
##충
##후급
까다로워졌
조영래
개일
금산군
김대상
##리처
##페르소나
휴스턴항
개열
오버하우젠
케이스케
소스
교집합
##두레
##바늘골
크림색
태평양
조정장
묘주
리애니
점수제
말띠
사친
##예종
대부동동
##드보
김일신
##향선
대흥면
게바라
이필호
##바르디
김성룡
계획고
이민
콥스
엄친
가칭
##선편
보일지라도
독가스
계장초
##이키치
##구수
유헌종
##포피
내려올
##중위도
전명철
##오토
전희
##상사
매학
##하강
##근체시
안전제일
##산나물
##로하우스
극락보전
가야금
방양
##마미
슬라이더
기후계
쓰여진다고
쇼펜하우어
권순우
라티움
바루
전사지
배양기
고영욱
황금소
실감
캐스터
청어과
정재철
갯방동사니
##아침
휴게
##유도후
##머무르
안승영
디스패치
##인다
망사리
보르
절연유
굴삭기
관련
##변장
확전
차올랐
한방의
근들
조미연
##허가증
실유
아모스
피치
이상아
김세빈
아스타일
전상자
관명
플렛
한은선
스테파냐
환주
##록편
핵산
슐레스비히
가는갈퀴나물
##단맛
##음향기
참
빼앗겨
늑
능실
중감
양돈협회
활인화
호위항공모함
##선취
##악일
##탈카
##미관
##버무려
문학산
##출현
리날로올
##동착
유디
합병
배배
않아
##마요네즈
##괴암
##도이
터보
이광봉
빡세
횡갱
황소개구리
양복점
잔당
고참
장태원
배희숙
왈드
권영달
성문법
코난
김완재
##미산
클라리사
비사
갇혀서
##공유제
산후기
젠타일
극한
알코
하늘색
검사소
한국군
##난데
##신선도
##남현
헛도
백부
##탐색구조
##건조성
허허
##프사이
강한주
##호보
##배와
끗
고였
상물림
##예경
해황
사랑채
록웰
선박국
재통합
끌어올려
국산화
작업대
##강동
저장포
##서척
효덕
허둥지둥
##조해
##상구
북한산
보과
이경기
##맨션
싱크로트론
##몬
노중석
허위
견중
##존소
여례
토습
##출속
변영섭
##토후
무당개구리
##유태용
묵가
정세원
계기
가시연밥
꺼서
화분화
영절
##두껍
돌아와서
풍진
섬노린재나무
무배
역겹
박금순
추종
브리티시
윤회설
조선소
##주꾸미
##약협
##윤길
##낙진
략연구소는
온천공
아름다워요
파베르
조비룡
##식별역
##결합각
##전대
##비표
##합표
보유미
##뽕잎
마셔왔
##소실점
모르티에
남양항
이석준
브리겔
빨려
##이종한
고방
유대영
가열기
꺽지
넙
분신자살
조광현
처박혀서
류명
##초천
최은
##납덩어리
제맥
##철물
총유
호과
##십경
휘날림
쥠
외인구단
백출
나윤
남상길
북대서양
정기훈
신종균
##활집
철저
##비합리
##철편
김강현
가격정책
고유치
샌드라
강과
소갈이
쁜지
불러온다
자궁암
##암각
찹쌀가루
베스터
구석탱이
문경환
풀어헤쳐
##치료실
유성경
세계관
##버켓
투영식
알데하이드
##양식사
문후
이명곤
조한무
##전축
차재
##항산화제
루가노
지적공부
페널티가
감고
허수
##밤나
두리틀
##융원
이승도
##드렌처
광산업
신상윤
##텅스텐
스테레오
추판
박태상
정림사지
##고정교
이재선
김보선
일로
##터모
인수자
##쉬워졌
한보라
##왐핑
##승감
흡연석
##파호
석지
으스대
권미리
##호희
##최정인
우세
양산보
전분비선
어록
##탁한
##박명섭
가는장구채
##옥항
무역풍
##이인일
백종후
채대
##친근성
##합니까
##주의의무
명봉
##양약
송월
##레이딩
##알칼리계
마나
돌돔
##볍게문질러구강검체물을
선뜻
##동물상
오덤
생강과
건성유
이어져갔
##트립
느껴요
에어리얼
##다이
##현정석
노달
##누설자
장영란
##혼원
스타디온
의상
두타
진개가
복암리
도망쳤
노란꽃이
밀레니엄
##출연진
자락
태거
##페론
열화학
쿠트
##절풍
이론가
송하경
##파라핀
정형석
##코보
##접상
크리켓
티르
손꼽힌
창북리
평리동
##라더라
조성완
큰부리새
##구협
결결
##원성
지선수
##치경
매틀
부메랑
새디악
##큘러는
시품
김해남
##질경
이충효
##변제기
김도용
##춘수
##루핑
김충곤
지던
##온방
피어난다
햠량과
정치력
##하사점
##동주
편중
쇼콜라
명순응
##카본
##떠
문성현
체네
쥬니어
산여뀌
##관원
치아니
유효열
흘려서
프라우드넷
##장임
##전형태
센스
##김낙
문창환
솔트
계장
##이대형
털노박덩굴
양학
##공포
##와이퍼
##동효
경망
##광지
황하
이행영
칭원
익투스
전재민
어두운색
차스
습디까
이니셜
쭈쭈
고려개발
##언어주의
##과장기
애쓴다고
##내초
환매
정흡착
책임진다
##자면
조남근
토단
##특구
감면세
축여서
신탄진동
투사법
하원리
##명이
이프르
기형아
기능키
곡석
인두염
체의
쨈
물려야
치하루
##봉금
##슬라임
##선웅
##늑근
박원철
각해
##세수
##반분
종파분자
클리
##뭃의
복운
이설빈
##첩보
월경자
##익상
##약수터
서현정
민경원
##진처
엔닌
과승
송선화
프로세서
태성
##거치대
##강설
부두
각양각색
지수식
##위양
동간
달착륙선
임치규
##시켜줌
치유책
암놈
##이진
김송자
퀄러티로
선자
##전압력
런타임
##가외
##거트
##맹의
최열
조완근
초나라
문백면
갯장대
수빅
마신다는
권요한
이채린
정인
예산군
##이정교
흔적
겹눈
##김상명
호가가
지도부인
재수
화암
가진다는
실버들
톱니나자스말
신창동
##액화기
##산유
성관성
채영호
슈밋
##박민생
저크
##변열
루지에
##전민
##조정한
선루프
##이뇨
윤용근
자란다는
문제점
역설
##한웅
##입적
블랙톤
##목갈비근
권경석
이직률
대문리
##중송
구동회
##함일
##방적사
고들개
##우축
미타산
곽대오
성현제
섵정한다
등세
최상복
회전면
무렵
##판통
선고유예
가둬
특광역시와
정소연
##체각
대전차
오대식
장티
##충적지
근수축
로템
##도목
홍세진
하이비전
정광호
최동규
##김충실
백상우
찬수
여장부
고정균
##기업
둘러져
삼릉
현창택
몬제
방가지똥
규분
윤승조
태워졌
##욕제
남수
캐러멜화
감수
제멋대로
색자
##시탄
페이비언
설례
##농자
최길용
##홀리데이
이규택
단파장
모가디슈
##감결합
이헌창
신미경
후고
축동면
조성장
선정근
##청혈
진회
스탠드칼라
##라인스
군목
##조정식
현식
##사라졌
부천
##유안
##다산
특파원
##이리
통신위성
분광계
최명복
박만희
뺷행복한
청과
##별학
박순복
페름기
아교
##으믄
##소지
##척추뼈
강남대로
녹과
김남우
##근시
알레고리
어취
##장홍
##판매계
예궐
배리스터
비단고둥
할머님
##코판
##피동형
강수영
호유
새콩
강석한
##보고체
시예
생청
기요통
##검은점병
준다거나
뺷내원상화임자갱재축뺸
아츠
도동
여서도
##경정맥
##여간
##한술
민경현
##고정식
##까진
운북
진행시
오철웅
##추천
안개꽃
상파울루
붙인다면
##임효
만영
##두과
##감위
김종한
인터셉트
돌아다녀야
팟인코더
양피
예종철
##구나
장영명
##삼경
연치
##베이비붐
낼지
흡혈귀
공과금
김현창
김명정
필로
감언이설
기후도
강광순
##경험주의
견인정수
스크레이퍼
유창균
지네만
잔돈푼
즉청
로버트슨
엔젤리
##도궤
코르티
별좌
##터지
개방식
박영봉
여신
다위
##윤채
민상법
뻐쓰와
도요
##컨티넨탈
채벌
공공부조
##일람
쑥스러워서
변호
헤드헌터
##동중
##아데
##등분포
설흔
##쳄버와
##정형식
##상제
이행준
장허
거드
그물넘기
참변
오테
소룡
백상보
자룡
##원피
##항성기
묻힐
천연물
염화수소
가했으며
동부자
부부지간
마호니
##기덕
머큐리
김주곤
##대전선
이수향
넓혀줌
##문태수
##오가
문문
정자리
호밀풀
프랑스
효익
##투부
주은지
포면
악명
최동수
##템플
##프로모터
지스타
치였
드려내
봄바디어
##나갈까
하시모토
다그쳤
유제우
잣죽
니미
황기영
이정협
고전
##뱅커
집현전
##보여이
메꽃과
##만조
아세톤
정태환
##채지
서경원
홈파
전문
사광상
##알사
박수철
##기곡
##사이츠
촉촉
##조막
##신고인
누화
파리나
##바퀴벌레
##위환
하남읍
참여국
##굴착선
섞인다
코르크판
성정현
일장기
애니콜
이앙
야들
배명수
앞당겨졌
순서수
기실
##여환
##버락오바마
허영우
수동성
유층
일제히
정희경
##이산화질소
습설
##점계
연내
로젤
##탈지면
가번
러시아식
코임브라
안유민
조혜
##태일
##드러난다고
확고부동
다자이후
임무성
꺼풀
##허튼
사군자
내물왕
주커먼
이태윤
아낌없
지진
이쁠
균사속
좌선성
##김정호
동흥
생활상
워싱턴주
##경찰
종계
##여철
##필하모니
포스터
##자게
도라지정과
조천규
미래인
됴택희
사라져간
##운동감
동정항
동방홍
탁해질
##광수
산본동
정태동
##타재
심심이
##입경
소내변압기
##렀는데고종조
법정주의
고승현
병중
엄길청
닥농
##변형도
덧씌우
투수
##잔면
##전화학
무거워
건하
##이용국
정신교
암표
백분비
##펼쳐졌
누어
펄스열
지급준비제도
럭셔리
슈어
레이지
숙신
러두
##정시법
노처녀
울음기
##격자문
등퇴장
동식
진입비용
적층
건의서
라틴어
배규식
##영명
수비율
청용
전열
몰더
혼합아
##항설
##입진
##순수익
유혹
위호인
##팔공
양운근
박지민
군율
감발
보일까봐
한태륜
##뮌은
##우범
비목나무
##케
환등
김경탁
유웨이
기준층
##렬들의
##토양형
배윤진
잔치국수
근친상간
착수장
유니타리
##두계
##후리
연구원
울상
평각
싸이코
##할지니
객토
##건도
##순노
##이농
##이타이
##져간
안측
##황신
발호
##더래도
강화읍
태수
##바란다
동건
호요성
고민
얽히고설켜
정착생활
근위
##시지
##하혈
##련계
##외경동맥
미화원
국승규
비뚤
청사진
건간망
##문지기
돈후
법문
이호식
김민의
그래선지
염기산
##응의
생기
안희덕
##비화
체선료
##정주기
꼬불꼬불
교집
매화
방법
케
##건조지
샬롯
##수입상
몰고가
이종두
##강모
청장년
##방수로
##족근
문대진
##혼동시
합신
개상
답안
##남극
아밀라아제
산성우
##했었으나
주지시
상동증
고쿠
정남수
강정화
계관산
은경
##영방
홍대광
측면적
부저기압
호박고지
물막이
한색
길들여졌
조창원
만슈
카맥
##아초
##절망감
할로겐화물
항공술
신지수
##천억
##성과
##인터페론
이원명
찜통
헛개나무
##간이
뛰어났
계면쩍
##서학
신기
##소우
김남표
색채계
권오덕
손수정
떨어뜨려야
체리나
임종섭
원대희
키트
선원법
##칼라
##헐크
##방본
##야초
파훼
덧날
선석
염치읍
조인
번치
##펌프
##마대
##트랜스페린
조봉곤
소기후
것
##관어
##확산
백형찬
편지
총부
고냉지
말투
편평도
게이죠
키요시
##측와
정지권
장정현
의중심
괘지
김선형
파스
서동우
한상설
##워킹
문하부
불고지죄
안인숙
후용
아우성
최다니엘
윤석진
너구리
##첩문
위국
살려낼
서대신동
덩이줄기
##다각화
보안회
판매품
노예
임차물
아북
노제
##버짐
김형주
성수광
능력껏
피츠
이남규
천장지
##구워
송재훈
##환오
##궐증
##잡비
##객회
쇼고
올랭피아
융모
출도
황학루
##훈김
백명식
일석이조
초림
한지부
메워졌
##칼륨
해돋이
##상팀
정민구
##데
혜공
디테일
우거
강다혜
구상서
##씰룩
암영
##윤예
마차도
##귀상
이민효
##봉와
생식핵
치근덕대
높일수록
##비축
부증
박영은
이범일
일파만파
에세이
주린
유창연
마른버짐
이웅섭
양충모
##레깅스
##졌었
김진표
금강계
이현구
사촌리
##윤신
정덕
겠으니
워크스테이션
##단국지
구불창자
푯대
##편직
##소티
##다홍
미물
조선희
##비형
유핵
##기업인
##리사이클링
##동업
##도첨
강미
사산화삼납
절여진
##결보
부니
##덴티
기록물
청담
담금법
항암제
요장
번민
가까운가
어려워진다면
김억중
다다랐으나
##쾨
집약
문배
삽교
##트라이
김규덕
##경맥
##율조
처참히
대곡
볼리
수력학
플레시
이광식
##산정
스피킹
단축증
교점
##원필
치방
##익실
##용면
크릭
추스렸
신호정
어큐뮬레이터
엘진
산소량
커요
황학
국민연대
##거북선
오토마타
##목표지
유효적절
김혜수
코탁
등나무
연천리
##두요
##저잡음
정권
유봉식
고루
한해살이풀
래매
권갑용
서패
감태나무
올무
대공원
##행대
이승창
##품관
##백결
생원
산로
연동면
##안점
채제공
빌려서
지하실
가다
캘린더
금미
죽책
편집자
계획법
##교잡
유라
##학습회
페이도
##배형
신림동
##르피
감춘다는
유동학
삼절
이선용
선서식
물리치료
##솔저
페놀에테르
박양선
##세절
##큘뮬레이터
거두어들인
창거
##쌍구균
중상
##굴취
류지구
청천역
##초서
돈다면
##기업체
개선설
멸균기
타카다
도덕관
수계망
윤병익
##피곤
##삼다수
고염
안온
정우숙
예탁
낡
빠진다는
황성진
칠관
##마그네톤
에밀리아
서광범
석승한
##아황
정신택
##음혈
한편
유니언
##메
판별
##쇠용
유종찬
##정신증
박노식
체인벨트
##광대싸리
양재우
##비엔날레
##문서철
윤여송
유연관계
노천광
##빠
##이지정
알머슨
승률
##타네
루치아노
솟아올라
강세중
##병리
절축
엔지
요행수
##송재도
당혹
이비
장전기
방풍벽
가지급금
엎질렀
중탄소강
상태도
##타케
##발행일
업수이
해안가
볼기근
뉴햄프셔
##분시
김근회
도리스
##극한
키노시타
사합
내인거객
훈육
##공존
단목령
##기채
철갑선
게이한신
테오리아
전은영
##으네
감정서
##쇄식
버필드
##비해
양관목
줄리안
쑹
##준로
자빠져서
낙맥
이창민
비꼬
##주독
큰키나무
연월일시
##심기둥
김승우
왁스만
##자수로
##식면
##접견
윤복자
송석현
네미로비치단첸코
##빅토리아
##다우신
##닝난
서초동
##속결
피벗
중문관광단지
낙인찍
##속됨
##이력
개현
남종
전학성
크로거
쪽상
윤승용
벌어진다면
##아바
##구연
망상
##양육법
결제
##하수관
눈코
##끝단
아시아개발은행
##수토
##이룬다는
번동
한신평
오용준
치우쳐
원해
볼래
##산업의
##탄서
##고향
##계통도
##산주
##복독
임기택
여수라
등흘수
동경대전
심심찮
정초
프로펜
##당헌
이희윤
나와야
밀어닥치
##체자
분의
##패배감
김상동
튼
##니마
##초당
미래문화
의사
##조진철
##우류
##콕
##십자
화명동
삼출액
조규복
박재표
##고지자기
배축
##승봉
##간상
##숩
승언
정혁
##산릉도감
##탑포
쿠릴열도
암석원
##석성
큰방
뿌려야
박종섭
요건
##유복
과조
점모
##지반
이루어져야
뉴올리언스
실적
세수입
##소학
샤페
##맞혀야
##참배
패착
중항
##나무판
수평자세
##식중독
좌석리
젖혀서
##버릇없
진호국가
##일남
내감
올까봐
구명구
명향
황명환
##같아졌
프리드리히
일일
도신
박리제
이촌
비농가
프로판가스
마려
계명찬
민방위대
간호섭
휘저으며
민
유질
최준식
곡교천
##봅슬레이
##권장이
엽지
##토건
##는다던가
가모
##회의록
각근
실구
##동종
##프리마
##말매미충
폐출혈
조유진
발현체
헛발질
##팸플릿
##독하
직박구리
##항공
임진형
테이퍼
홍제동
##거실
임률
안성순
##재시공
종현
관곡
송정역
##따라온다
행위법
한제
##물리학자
최인수
조문식
##셥
##조간대
관생
##남양항
공저
총지
카라바조
근친
##여객기
욕지면
음악가
서희
운노
성망
대양
이중민
홍순만
##열왕
시킨다
오사치
##자실
##인입
드리울
한지인
##니이
속발성
떠돌
나이프
##인술
터진다
만풍
##총수량
##최솟값
해왔었
사전의
조한
하이퍼텍스트
아와지
##소응
매염
##퇴한
자꾸
연극배우
##미취학
엑센
정인아
##휩
포놀라이트
##사이안
조희철
조르쥬
으료
치티
사일런
라론드
후미오
버스터
##배울
백태실
장침
연꽃
신승중
가쿠인
##어게인
이진헌
##감수도
혈맥
중심주의
장진범
경인고속도로
감침
##채승
이중갑
면강
금사
화뢰
##제초제
##고정의
감두
##기의
동방신기
던져야
청음기
##비접
엄장섭
##결의문
남조소
강금석
##병마
반달형
시각형
구지인
##해국
##축열로
스트레인
핑클
오덕성
의집
둘리
허설
##오가피
중고생
##진조
##시창
게슈탈트
##이상길
조은영
##갯
근이완제
##시버
만희
김인실
식감
사라판
##제한선
##연실
윗마을
홍상
나카타
##황병
세지오
가져와라
담심
후반부
원북
곽영길
송라윤
##가시거리
김선혁
신경수
##박영균
##강단
고영덕
커틀릿
미켈슨
##조향이
올
양봉석
##넥스
##왕부
##변정우
윤홍식
이만승
##살로
비시지
##키를
연료봉
##정명주
##창두
##세이크
비겨
강명석
##반야
다스렸
코다이
##당소
##훈트
차종석
##명실공히
금도
넘어진
최윤기
##감정서
안위
오디술
양돈사
##강지수
이백의
##주훈
주설
도고온천
찐득찐득
이성애자
섬피나무
##석조
무르시
##다홍색
루소
##서원
출탕
김용백
##발츠
##초환
##들어올리기
##리베
따먹
흔들린
##잠양
최용기
납항
포토맥
자인
##과절
##도서대
##원양어
김홍록
##소둔
접착성
공항철도
잠긴다
우대
이양정
구준회
문제민
김기열
구렁
##역식
개음
설병
##유효량
병마
봉해
럼주
##자율
##다
애살
##연극인
신동식
관풍
판돈
##유급
이전인
정수동
##커졌
##유선
트레이스
미더워
물방울무늬
##용안
동악
##커졌으며
합지증
조영철
##총산
금채
##내려간다
##경충
##다비드
수화주
치차
순형
에토르
잉크
의란
나막개
문진용
##차감
정윤근
낙엽수림
##식열
##군구
알려온
##슙
타자기
덩그러
최무현
소재리
하현재
인권법
##질산소다
조성휘
채옥희
##황후
곽대섭
홍형옥
기울여서
진주역
##성함
부러
아웃렛
정남준
초마
##투발
오를레앙
##텃밭
##제조업용
##칸디다
항우
황금
##레프트
번개오색나비
##면봉
##동력선
##헥
금강산선
나눠진다는
##일언
##설사병
##사악
눈놀이
##트랜스퍼
자혜
엘프
송자대전
더뎠
강환구
##텔러
원근감
선동리
##렀을
아나키스트
##온점
##현채
여겼으므로
심상용
##폐질환
##순애
파타
이해찬
##머미
##뉘
각오
##봉분
양숙경
유케
정상윤
방수지
삭힌
김재향
##철종
유상렬
위본
엄은식
안주
##따또
클로로
내종피
고수진
가려
천연섬유
조영연
치치하얼
##부섭
##맹진
##그간
##높인다고
조작제어
근원세포
고달픔
윤작
암흑시대
##득률
##테린
##메디안
낙천가
상심
##광록
생활용수
손희령
신비로
오경태
점유물
호불호
강주영
청천면
산우드풀
김성무
이명섭
##저토
##이석현
##체금
민간기
사혈
##예능
로정
##신판
##뿔체
서환
내보낸다는
제세동
##홈페이지
피콘
##제휴
후송자
임명철
조그만
##회수
##나타낸다
잔영
메리야스
오리발
시각전달
호프집
유남재
##편서풍
##기다리
##쟝만
내부수익률
황두리
제자리멀리뛰기
##성운
##관능기
용적계
##애정
들을까봐
##고인돌
##노점
##극형
김채리
김동희
##할라
마쉘
김월하
박승룡
##피드나
백경미
이용흠
흙덩이
비계발판
퀴노아의
##자벌
에리얼
도파관
입환용
##옮긴
##넷째
오스트롬
김강태
카라로
보라지
식도락
##병인
태자
촛대봉
권세
협기
김봉국
배율
##힘지
주각
오이와
##딱딱
##하이주
성혜
##계견
삼각따개비
##안병수
들메
##조스
##양생
##용탕
##무신
훼철
요명
##구내염
##피라미드형
정성호
수심
손등
##테
##이동제
푸쉬
멈춘
##슁시
형도
##면한다
##여덟
아잔
반웅
프레데릭
국민은행
정성무
송심
위증
통점
##어깨세모근
산태
##평야
##륜
##가여
스카다
광교산
##지배
제석천왕
뒤범벅
장종선
조간
하청
보바
유은선
##중상
##술내
##앤
이회창
##국민은행
##연골종
##부딪히
##이애
정동명
문지훈
가변비
##사서함
앱스
##김상진
특송물품
##포장지
다녀온
끊긴
비틀리
##치역
만드세요
김영삼
환경정화
증광
씁쓸
원은
떡
고생물
현궁
##리뉴
등경
##강영신
의장대
이승범
와이어리스
두원면
이상찬
진흙물
##앙견
##뾰족
##용란
노희경
쓰라림
##종진
원대영
##개사
생활윤리
윤건
##히드록시
맹지나
돌아옵니다
금칙
##저작
패트리시아
의서
김한석
졸가시나무
설판
균질로
##채근
페렴
정편석
육재
휘건
##수리조합
##장색
경병
앙도
##전파자
두음
원평
큰고추나물
탈탈
정윤정
시거
##수세식
##바이저
##김미정
지오반
##와작
하숙생
쵤영하였다
깨어진
##모도지
쇠고사리
강영걸
조동
##등기부
##렬부위로
의운
가스로
최권락
일과력
정준상
박천수
보강보
##청적
이케부쿠로
싸리재
빈차
김희윤
고정선
좁힐
헤비급
흩뿌려진
돌비
자귀풀
높인다는
머리골
이수홍
##동훈련
투사영
##창고업자
동양사
허용만
##손일
##부호군
##웅계
##차집
항두
유선
##번호부
태운다
##로윈
자물쇠
##론증
아니스
내야석
##민시
신용한
##윤전
우식증
##낙하지점
##메인스
최영돈
세미톤
##광도계
징징
정보지
황적
여차
##재외
에스아이
##획인
##기계수
류재호
초촉
다스려질
구매력
부착근
권총
무망
허남진
백지은
청량리역
버락
군협
##스러워했
데이빗슨
##절통
산업용
수송아지
판토마임
정선구
닭갈비
유성체
##동경이
##산동성
이성삼
##척실
총사령관
##눈주목
##뺷
스크린골프
##충실히
벌일
오광욱
서승현
##뷔르츠
전명선
정준택
##시운전
곡변
##향색
##만주
##거린다
##청인
##스펜서
배타성
##그렇
##풍광
안락천
산타마리아
##정설
간추렸
보관함
응축물
계층
록
허니문
혼화제
##남획
어긋난다
##기어
용로
석진영
이연호
##역추출
파하
꾸꾸기
##수용신
미충
포트워스
##미화
안광우
##맨체스터
포라스
##헌공
다공도
떠먹이
가석
명계리
불요
키즈카
투나
##의착
돼버릴
승촌
그려졌
서남아시아
##탈질
##수안
섬장암
##포태
책임
##량실
히드로늄
한상헌
추서
##김기반
외접
##지해
래핀
##고베
합침
난들
드와이트
##율법
세워볼
이호창
운장산
정옥임
##진짓
양한빈
대륜동
오무타
이창효
나영석
독립성
송정희
특이
잡스런
##랑질
##여한
회백질
이칠우
앙
페블형은
덧신
무린
##안테나
##식승
##찬우
천곽
##영정
##개척단
칼비노
좌파
##꽃다발
다는
##코린
배시
고품격
계
포르쉐
안태범
올리브
##만수위
서재현
##캄보디아
케스
음철헌
요식업
부흥부
찾아내
구녁
한찬
이음매
##이후원
시실리
고무호스
류경심
로빈스
##뉴딜
민속자료
##보천사
##백분비
단열재
이선아
피레네산맥
이종신
김덕줄
춘란
##견직
이태재
전영호
메뉴판
##호공
윤상기
##못지않
산동리
녹색맹
##자극제
내초
미창
##승령
캐비
여승무원
분기선
기브니
다니엘도
궁둥뼈
제자리
신자영
주채광
반납
장세경
항습
시대사
장기전
지면
##토현삼
장하준
피로인산
치조음
소박
##두표
풀려나온
횡와
면했
##육감
마루판
백덕산
##가스트
케이드
##골담초
앞발굽
##령성
청궁
심현상
##심규
비등방
산추
##조정조
한동석
##정이상
완목
##전광판
##혼
##림종
샐
##조성숙
##진황
사직로
비급
##준절
순청
##르니
뜻있
위문장
끌어냈
갯메꽃
고은미
경금속
명응
포문
설발
고미영
위암
큰잎모자반
##준비금
##버러지
고무장갑
초하
쑥대
상임
송경헌
평양성
김혜지
전종덕
##뱉
황주환
음각
추설
전우
##퍼러
최태양
과급
중심립
양호실
작조
용객
남겨야
은사
공개매수
달린다
##헌디
##변생
##오금
붙여야지
바람몰이
돌감
행여
동상
운속
려두
옥산면
리모트
의소
피란
그라이
윤상
로구
피행
안겼
##고석남
##소르
##변상
##크루즈
클바지
##스캣
망가뜨릴
풍파
##나경
우산나물
모화루
미인계
판염
기재사항
##안성시
하북성
마트
##배하
떠날까
독건
##감속기
전항배
두부선
차승원
비크로프트
##타국
본조
##채집
병해충
킬레이트제
##부인론
조덕상
콜라겐
성부
##빈익빈
에서
이성복
##식물상
##감광제
날래
##촌마을
##이파
키우
팬터
균질
이학재
흘러나간
##몸무게
##구어
##현양
##은희
조헤이
시니피앙
후보
윤수민
보디스
때각
연중
##사들이
##어머니
최순학
##국왕
탐탐
이중선형
장혜옥
##뿐더러
##팔굽혀
퀘벡
뉴트럴
##마심
임명제
히마
##노산
도브잔스키
반자동식
구제역
##생식선
내파성
전추라
역화
아마나
##지닌
##차임
부항법
혼비백산
##기민성
푸마르
##두태
가스전
표해
성송면
깔딱깔딱
용당리
강경근
승강키
심미옥
옴니아
피츠제랄드
변승준
지원영
##거여
유운
##망원경
짦아진
아랫대
오뜨
고일상
달려
실로
##재창조
특송업체나
최원욱
카바이드
##금성
##창원
전성은
톱밥
##질산구리
강우일
##상집
트롤리
##골드
##피란
뜬공
호롱
암분
흩뿌린
##선어
기형성
권영자
##더라고
원감
물쇠뜨기
##이따
좌척
이정모
##어업자
##무희
##신영석
김두희
김경집
의밀
##예건
식업
발신지
쿠시
##입법안
무단파
므아브르의
##획장
##출시
##가영
하선고
밀계
##켈리
삐뚤어진
박하유
메모판
박외
정일우
##잡이
##피에트라
박현구
최규명
##스퍼터링
##기사
허덕였으나
청아
애독
권상하
한우제
##주승
##였었는데
송다영
시켜서라도
##표정근
이태민
미정
휘말린
원자력법
밝혀져야
남현동
##오유
보리멸
##벨로
##마인드
화순옹주
미확정
인인
구난숙
이어받
단막
##백화점
공식
놓인다
장지수
##금안
유리딱새
자력갱생
한종인
##는다기
동저
지나갈
##클레이드
예술관
우용태
##동판
##형과
장덕호
##용접봉
물배
김재붕
회계감사
##이현애
데스트
리투아니아어
골조직
장애인
고집쟁이
디플렉터
##갈사
만납시다
##보상
안전시거
조상호
서재준
물량
시기상조
법률요건
접해도
벗어났을
##식업
##망둑어
한성홍
##전용도로
이기세
엉
위장복
백하
##가언
묘지공원
와프
강익범
켚
반석역
##하튼
증
##교활
##오인
##초유
금혼
##장통
##간다면
##사치품
초동
##반고
##웅지
최신자
##섹트
속목
##전의
봉차
성차
소실량
하성층
정종수
배철훈
하태종
##착설
연구소
김요한
##경주
##남복
짜지
김종춘
여태철
대승기탕
사문화
##숲지도
병마개
서종태
##지시기
김정희
오치
김흥식
근대법
중은
##궁주
필살기
직제학
내성법
##문화전
영추
반균형타
넷플릭스
백저
장언효
##나갈
##한글
동부그룹
리베리
여왕봉
지주식
김석운
결핵균
낢
장성현
스피디
조선작
위생학
여사원
범용
산제비난
신현호
윤병우
하철승
김유
나상민
사회부
팔마틴
장성군
모비드
추진
##김성미
겅호
송영신
정의상
강환국
##도재
##서호
박종우
유석종
##사군
영양왕
##의만
김이듬
법사학
전병선
봉공
##희년
대왕반
매성
우윳빛
##웨건
##총사
개략
##달사
##충격성
이종권
정원길
듀
화파
##본문
포존
샌드위치
##홍두선
황쏘가리
눈다
김성문
##명확히
한국가스공사
모모이
월병
코퀴
##사한
##디테
노플리우스
시칸
##신위
케네스
고독사
못밥
정규범
박지문
원안
구직
##꿀
로브스터
이희환
##강피
영불
삼각형
견본시
간략히
##스칼
심해요
신호등
##존론
놈의
포갬
##기실
하농
김준규
대장인
넘버링
##거재생
겅호와
사이코드라마
##인먼
헥타르
오좀
채굴장
한명식
배호
대에
이지러져
장정화
매운데
호중구
##사무
부차
서진완
##앞장서
풀오버
이런
##널말뚝
삽입곡
펼쳤으며
청소골
전성즙
##조사연
칼국수
유숙기
스턴스
옮겨올
왕피
심정원
##맹주
불비
##보행인
띠모
잉여류
동가김치
##색성
##광우병
비탈진
##아졸린
다이터
전병곤
##근린주구
조수영
슌스케
잔가시고기
##정은
홍재범
브랜드
왕길동
과혈당
재정리
##첩지
서정희
우천리
##이나영
류성기
송재근
##선성
온정주의
웨인
밀리볼트
개곡
예초기
자스몬산
조광문
##시냅스
##비로사
선납
암민
##베일리
박형석
헤맬
##활기
차주홍
##무악
서윤
사각문
##검실
##상의
뿌까
##폴라
최우석
꼼수
펼쳐나간
##폭발물
유호리
뒤틀렸
갈락토사이드
박충원
최연희
면도날
오웅
들여와서
##미성취
육손이
펫코
##선거리
히메지
의판
병조림
한살이
률
즐거워서
모라비아
##집하
유근창
유경식
고준환
치표
##김해양
청장관전서
현수선
##학해
이면재
##철상
##아울렛
복종
##개량
##무들
##어름
##교육학자
아비산
##인회
나랏돈
석경
열흘
레크
난민촌
류재은
강우형
이선비
##신표
봉선사
살렘
##출퇴근
##치사토
달로
암유전자
##메탄올
황지은
몫
공의
관절염
##물판
윤거
말세
박인준
##식유
책동
##체첸
구민호
남녀유별
##고통
심광택
백형조
의혼
황규하
가상사
자책
풀무원
지라도
브라우닝
음파
##난공
넷마이너
윤리관
##저해제
##내합
켬
장상수
곡선주
뚜벅
강선홍
##속뼈
##자연로그
임태성
수풀
테마주
테크노
내속
##반병
##드베인
##해버릴
갈이깊이
높새
윤희석
너야
오르
로드리고
잘라낼
심곡
김선태
행적
집행력
서광수
진성
스타트업
뱁슨대학과
개진
남석훈
평화
밤엿
구해서
인천부
인좌
##에러
##탄우
##송산면
이태석
##노인
지용주
법해
##녹여
제게
##광내
쌍어
대륙성
소방수
주요
곽내
서전트
조준수
테라바이트
권유리
##앤드
##회두
##러니
##인존
##중문
민활
포센
##성녀
노발리스
부정히
섭화
윤상천
양맥
벨링스하우젠
##커진다고
##비야
타른
아브라모비치
멩보쉐
##대작
##가족주의
박상헌
대약진
좌청룡
용감무쌍
##신도심
정현왕후
오스트로
실어다
##산실
장기욱
##선측
정명희
조액
류기형
골병들
##채련
##근심
간석지
양어지
김득현
가중나무
괄할
총강
조성희
광물성
발명인
##최고재판소
##구품
##지운
##이민행
프로비던스
이동파출소
언어관
성효용
후직
##비에너지
운기
##홍수량
한양여자대학
##전도기
운동부
장남
##퍼시픽
충화
협부
일스
이탄지
##치재
백종
##고모음
설령골풀
반농반어
흠향
텐스
국왕
##지선정
히치콕
뺷동국세시기뺸
반포대교
서멧
머뭇거림
모이스
공포탄
##소단
##경명
##총무부
윤용우
재출발
한낱
페브릭은
재식
빗면
##응전
##서영
##익숙
박광서
이규찬
##후거리
받아썼
강세윤
##장려금
무리식
족척
이혜빈
에이젠슈테인
궁을
일수
##족제비싸리
장천
오형식
페어차일드
되려
조민수
##세규
##매개
##운동회
부르고뉴
##명석
윤정선
김치용
##사두고근
씨앗
##정지선
전기식
카트리
중소수성
##탕액
박민경
알렉산드리
우거지탕
하이스
주물공
따라지
안문
명예욕
왜개연꽃
부르고스
매김될
얼려
오브리
##면사
신상준
제곱비
신석민
##스크립터
국권
##매크로
벽재
##호악
바깥지름
장탄식
바이탈
양기용
김운수
내마모강
##펠로
이해춘
골무꽃
재결
기생파리
##분량
청강자
바르테니에프
신석균
갈전리
##윤현덕
##축정
##디너
종양
라우르산
물리쳐야
오세환
정적
목격자
종극
계명주
손지연
오탕
나비너트
방소영
쿠츠나
이민주
박주웅
스침
##름슬레우
보치아
공기실
##최형주
멈춰야
##외골격
##접어들
로첼
##토치
##기밀장치
심덕부
##인장시험
내전근
##잡병
통서
암점
후항
메가트럭
유동진
아찌
박동민
소황
##견인
스템프
점판암
장타
한용섭
통고추
이종분
##행담
왕태
##산수
맞댄
##강각
경정비
##시제품
##이코노마이저
흡수능
무지개떡
약명
박준호
##인업
집행
팃사마하라마와
베네데토
##토자
반공
##스자쿠
##점원
세만
회색
배이
다녀와도
매켄지
용균성
##마져
##루버
##탁점
마전자
##마법사
공기열
##내과학
##수찰
##정환
월년성
어도
##실행
자차
건조실
크로켓
푹푹
가창오리
쇽이나
소송행위
다일
유수부
임프
##벡스
신단
엘레나
참깨
히스톤
유영호
뻗친다
퍽퍽
법주사
어마어마
존댓말
옥피리
다스릴
##우보간
##츨과
여인선
직업인
애어른
블레인
카이케
최택영
강성길
김환철
피해갈
파미르
광석광물
##접처
김종곤
테트라사이클린
##크루저
##테스강
##사와
##명인전
단거
죽림정사
움직였었
##토플
##얼마나
적정
백옥
##단언
##방사선량계
협탄층
천체관측
벤라팍신
후덕
질세라
##익산군
울산
##아마추어
호모시스테인
레이커
##유염
도난
쇠미역사촌
김경목
여민락
스톡옵션
나르키소스
색성
미국식
백기태
##앳
##명모
남근우
뺷표준국어대사전뺸에서
민소법
라세
##기본파
화학계
##탁하
설교자
쇼핑센터
##지능화
추선경
계룡산
할매
사카모토
미연
적중률
맞닥뜨린다
##공산주의
우력
##혁신지
##남의
선택과
##휴어
이진현
포크
전봉관
##화궁
워즈니악
##아래턱
깨어난다
내달리
현실
정심
류재훈
세시기
소양병
##경통
식힐
명랑소녀
최대성
항복
##동량
모량
##정학
이경재
수론
##각혈
반투막
##염두
정윤숙
외통이
인석
원만
##찬엄
하마구치
##겁의
메타자일렌
봐준다
##광역자치단체
토색
공서
##정념
어재혁
집상
##한다니
부젓가락
실용신안
이희춘
노천카페
미키
전화번호부
기댄
김희도
##농산어촌
북적
광학축
황재곤
윤재창
투시
##조현
상관없이
제임스웹
##키사
펄럭이
##에치
심낭
예쁠
김신영
노태정
타카
##메인
이훈복
갈까봐
박상진
나태
##유고
##벽걸이
##존무
냉소주의
##반과
고총
##울립
##봉합선
##양식
정해민
##지다
견치
##미용실
엑스터
##짜이
요금소
수원고랭이
##구활
##입장객
미초
김선준
댑싸리
도력
##내화
##렀음은
뺷제
여행용
##나온다고
유크
린번
##호흡수
우상화
김재홍
역조
의시
김석출
들어낼
##시심
임기용
고혁
매칭
법장
##정수진
피트리
##기이
나문재
서석환
##윤희
##망인
대광리
그런다고
##매서
와쿠이
한국과학문화재단
##시험실
설림
마르시아
최내영
목마르
정효정
다져서
##말린
##면방추
광천수
홍재선
국가
##같
##창희
빈틈없이
서섹스
##꽃가루
##국변
간관
남국
형기주
칭경
##낼수록
커피콩
##평사
습병
##차아염소산
국수주의자
이구연
면류
칸델라
최성주
보데
신예진
##패모
건조과
재내
갈랜드
푀르스터
혈구
나타냅니다
##실란
속여
##약정
인유
##쓰임
권율
라그하임
씌워져
##아방이
소환제
바장조
부러버
마사이
길흉사
대음순
동손
국어사전
루미코
마천역
##지나가
신훈철
재한
익힘
김문규
루돌프
억제제
계절풍
부용면
마츠다
제이씨
도미
##화살
질산코발트
##환승
범위
떠들썩
박소리
플루오린
##브라이
대안군
비비추
##이창호
박장환
연다면
반상
##조각가
풍남문
공급소
##희연
##암층
##재내
그람시
말레이어
크실렌
##불감증
가스난로
정혜련
한지호
##현출
##모션
염명숙
김방옥
##은다
눈속임
##맞춰진
붙들
독립기념일
재처
##지번
##분할
박필규
##러스
종무원
이만치
을부
##동학
##양색
내어물전
합해야
소수성
가드인
도미니크회
선곡
범람원
##차여
##원범
수묵
구례구역
##합약
##넘기
아리스티데스
곡배
탈세액
##이화원
##증척
##장석현
장구벌레
오상천
려고
그라우뷘덴
김철구
합스부르크가
랑가주
병영
##말지
금여
이병설
경갑수
건달
상등성
박우석
##타가
##문
해상
흰회색
백서
극지
명소
양함수
행신역
외수
메릴린
식설
주홍박각시
제아무리
들렸으며
##표백제
##체상
물푸레나무
응식
해창리
히드록시기
##운편
김완영
##렬파괴의
황해진
바쁘
##사관부
편한데
갖
알킬페놀
임시영
해문
김상옥
귀환자
건축가
백용운
소관청
팔달산
레오폴드
##기정
서형석
정위
##좌견
선신세
청령
정색성
내우
덖는
##내항
조성훈
대변기
형상인
##룰리
떠도
목소장
조길수
괴상망측
배전기
부가체
그토록
항재
뺑뺑이
##출합
수중엽
홍나영
아동용
구제법
##인공항
##운전
숙엄
지지층
##의족
염화칼슘
##플레이어
##미침
역위
##석방
##한의원
정구봉
앞전
스텝스
##지촌
고압솥
자긍
##규분
퀸란
뉴햄프셔주
##전력손
자갈로
##교습
전준수
벽감
도소
흘러도
눙력과
유재상
화학공업
##이동기
방랑
잉태
돌상
##기술전
과하
##박손
공조
##한대요
넘어오
##리바트
##최성길
우간다
큰꽃으아리
만감
신수경
##가공물
안개상자
유설
##시그마
원내
##힘받이
그리고
최병현
헷
딤플
이미영
뭉툭
이수화학
##잊혀질
절접
밀인
##방사성
이효창
김순은
##다노
배효성
맥진
발목마디
##둣이
내접원
플랙
세일즈
##부막
즉각
##취위
인피니티
##향길
이상원
할미바위
번화가
장서일
허가
윈도우
##지도층
##포통
양천향교역
김지해
##합니다
송민석
##주십시오
##나간다
이길주
이영제
##금양
하행선
김신일
##지대
주완
##오미자차
##포교
##무르
강아지
윤원중
##로트
초관
혹부리
한현진
이선홍
지채
##링크제
##고현
##지방문
김형대
생우유
##펍
부총리
##쉬프
풀린다고
취구
##근재
내뿜
강선포
안연
갈라디아
##버러스
##파종법
문란
##쉘
식용작물
홍성택
설근
##통지표
제철업
##빙시
오디오
##사일
##주치
함무라비
묵은쌀
하등
##영선
조탑
애기가래
##숙주
마녀
배철한
##여급
##김호연
양세양
##저선
정차근
모선희
부쳐져
귀소
찬조
##행법
장경영
김상은
##로퍼
##김희연
김영진
세버린
##름재
##사소
동호회
##오디오
토양형
팔려도
니코틴
##센털
시티
신정하
처절
아이치
##내착
비와도
##소비대차
노랑갈퀴
##벌작
##급여액
채송화
사이토
송유
##속복
양수성
##면박
선다발
##센슈
몬트리올
##책갈피
황의동
##외전
찻길
흘러내려갔
특수아
맬서스
슈반크마이에르
##기울어졌
##적도의
떠미
##차침
##백상
구체시
##이즈
간균
정배동
미와
오달수
전신용
##듕광
##쥰
##아셔
채집
임성락
단안
감아올리
속단
살렌
오재원
동자꽃
오성욱
성강경
##일소
##별상
전춘옥
##왕수
최재식
유예지
이용복
알미트라
즉
##고상숙
증간
두려움
일러줌
장수
누스바움
한문정
양유석
##조재인
##불운
합숙
##알려졌
사슴벌레
##양지연
대진표
파이롤
고든
##시킨다거나
임광선
산법통종
모스카
스테그
룬지
이만형
날달걀
##저압부
김원경
##국수호
절영도
건살구
보조역
##양광식
그래
텍스
##실업
##자자
자화율
문상필
온간
##천초근
케니
시성식
##김미희
벽계구곡
최병철
창파
정봉교
##으세요
감귤류
우거져서
선교동
##묀
넘어짐
중탕
##나왔
물자
##위킹
치골근
##접미사
금딱지
두험
##손실률
졸지
유가효
혁신안
##와선
벨로우
은둔자
정예실
분열성
##디토
##흡입량
바인
페이터
독보
황순구
석상일
##병저
##각력암
누승
송첨
철암천
건축십서
바깥사돈
오스테나이트
헤크
김강영
##시공도
##김현태
거중
유영장
##수학회
다용도
상당
거염벌레
##우월
버섯국
##가취
##파스텔
##진정화
박대순
피지배자
##하둡
##찰기
##재옥
윤명자
손찌검
면형
황승준
풍지
봉산
들를
##목발
##뱃속
폐활량계
헨릭
김정만
브리
##관개수
##편향
기후대
페킷에
##인발강
##조견표
##마이클
타블로이드
샐러드
##연구개발
츙카벤
마사히사
##타종
죽현
홍선희
충간
##뚝배
호음
직매장
요여
티라노사우루스
논메
소맷부리
##플루오르
##렬인장강도시험에
행용
##협사
마라톤
##저조
윤준영
##방각
덜미
섹
##갈레로
##부전나비
##라발레
다원
가져
퓸이나
##주욱
##젖힌다
쿠바인
곽영훈
쿨라
고진웅
##옥이
하이파항
##어려움
거래
##소영
##신상태
##사회단체
상침
바다거북과
북부기
##집류
##스티어링
조영환
류수열
갤
폐가
편망
##혜재
임도훈
##바륨
홍진수
갈마
##혐률이
변화맹
통론
네모진
배기수
임전무퇴
##설도
무예도보통지
백승홍
아헌례
자유영
트레마
김강호
##합솔
##고장나
잃어버린다는
임우
라이그래스
타래붓꽃
브렌타노
개박달나무
해치워서
톨레도
타단
아퀴나스
드높이
요한다
##십
##렬인장강도실험은
무도회
쿠엔틴
따라와
퉁가리
##선계
소결핵
##선풍
이경식
거류민단
앞당긴다고
조현미
범조
회전수
기경성
##굴기
##친열
가근
압류
문은
##복화
##리하이
개구율
##연미
방송법
김낙
체자
심상보
강경아
방상원
##정보연
복식
##우미아
출렁임
밝혔으니
타시
백주영
비흥
양호환
침구사
광덕리
조창완
창원공
선의취득
##학모
제가역상집
브라마굽타
##감판
김충현
정병순
분해했
##악형
윤우현
##직역
##도소산
특수강
##션리
박각시나방
정선교
##연결망
##시립
김은애
##사천
견줄
참조
##형재
위계질서
치르
##푄
##가독
##영경
##미트
신빈
특정인
박선규
교토부
번의
파키스탄
증거력
송현미
형세
베스티
인당
심재엽
산악전
폐의
칼럼
백문
##련명
##어라
##분얼
래퍼
절대로
유부남
서로소
사라질지
부전령산맥
금촌
토수
민간사업
하더
퍼그
##결
##권변
양희준
봉교
##혜리
조종성
뜀박질
성순
천향
정승우
##주총
젝스키스
성급히
맥콤
##거기
##이준
권태형
안재락
쭈그러
해서
밀레나
달라졌으며
안성인
신광선
기후학
신태선
사모관대
쉴링
##오데
그렌
##터보차저
실온
##광전류
피항선
##실면
##줴
##합주
반인
타락
##주정
회첨
##간본
발데스
뽑힘
건조기
자동신호
전유미
농상공
양틀
세조
##불린다
##보망
러프킨
장동표
##설계가
달일
적초의
##깁스
보퍼트해
지지표
면백
신종암
강해운
고학년
##골각
##조범주
##개통
송규렴
한선주
##꽁
양영순
재취
선발육종
죽대
월은
공산군
##계발
##주거
노에마
직결
##마그넷
김일두
번해
융이
##비의존성
##하계
##직무급
적란
##살리실산
링크제
오승현
금음
암호화
##오므렸
전화영
병명
긴뼈
##패권주의
외일
업장
최기헌
이송용
바꿀
수수팥떡
생장상
메트로폴리탄
문완기
착시
##수산화
발하
##성채
김예분
유상곡수
갈테
##건희
조수인
코타
조준호
##리아
찬부
##단규
행간
##활주선
나산
행주산성
##전하수
육리
휘선
##넬리
김치중
툴륨
##막영
조성학
홑담
조직학
##카시아
단월
자동기술법
양귀비과
뒀
트로키
##잣
이제용
##동내
##이접
관통상
김경균
폐수
대투
##손괴죄
깎인
공굴리기
##특성
지방질
로코
##들임
전연숙
암흑
스케치판
허남영
우석봉
##계엄
화산모
폐막
##파킨슨
##서측
##될
세운다는
정미숙
제어봉
관주
##여영
밀국수
봉천리
기생벌
갤로퍼
떨어져나감
배태
##협착증
##대감상
훈포장
권철
따옴표
강보석
현상호
옛날
##착장
송대선
##은형법
##건량
##민보
홍건식
함동주
박테리오파지
생구
세탁력
비보다
##석범
엄인섭
##털
카도카와
회사령
죽
박달재
이월드
파디
베르리
유령
고정급
수십억
나폴리
죽곡동
다진다
북돋워
솥뚜껑
##재상
##북경
새미
인과관계
양대륙
##접무
김성년
대외경
##할순
강풀
##당약
##티백
쌍봉사
벽화
윤현우
안종필
네바
그쳐서
주웠
##자채
주춧돌
정의관
이백만
챔버
어른께
쫓아갈
손준호
이강옥
신문팔이
생어
주어질
이봉섭
송명숙
##원상
완독
##화학공업
선탄
##골기
물외
재변
광혜원
혹돔
곡경
당겨도
김국희
##운송업
##술대
이형룡
##법선택
최기화
찬데
##굼터를
이선혜
이배근
##선좌
지오지브라
건축지
반승
천령
##성설
##세적
##염피
최명희
한국자산관리공사
하승연
최순재
벼룩과
공현주
박노익
##꾸지뽕나무
환염
챙겨요
안전도
면실유박
강성준
공화정
충무
한삼인
여흥
연극학
##웤등과
##방통
##자녀
##뷸린
명란젓
##로크
미하마
연언
##세초
##강대선
입목
단각과
해밀턴항
권동현
정광진
##방광
감독상
늘인
방소
##올레산
##풀질
가라앉히
보한다고
서식전쟁
설암
##별관
프로메튬
코로
은바
가정학
##도침
일찍이
테베
다국적군
촏
튜불린
의봉
상운면
돈독
침강류
##유클리드
##오물
박유성
누진
전소현
최진영
##괘
처녀성
염담수
##곤여
야요이
취약성
장촌
##황마
만흥
김진환
면허증
##습수
이창순
##시간대
##고드
스위니
대교구
파벨라
분차
요우
도감독
##선범
위홍
이인모
불러진
##화국
대여료
##분산성
화평옹주
안정신
##격도
효계
요동
##자수기
##두열
삼성대왕
간호장
##뭉쳐져
안전시설
토광묘
사용자
안철영
칭량관
주반
옥곡
써둔
##임재욱
##하문
김성중
공갈치
이칭
윈슬로우
##디다
##화극
훔칠
조은설
##포동
해건
장영배
전순익
##갑술
##전원생활
적임자
##도은영
박규호
얘기
위곡
휴가급
질베르
공수정
나무속
저장조
오성근
장품
##와퍼
명확성
##건화
유병상
찍혀
용암사
활집
조휘일
철썩
크라운
후진성
스스로
유기태
##관통
박리각
##칩니다
##국련
넘친다
가족회
강양욱
##위차
김두한
##국주
##화잠
고망
##편광
##모색
##본딩
핀
변형대
잠소
##촛물
이은범
백마도
정함수
##은주
맟춰
법무아문
##확설
##티르
등산로
밀쌀
정일몽
지신근
사조산업
##모단
##별비
손상목
반강
##리각
제해
뉘앙스
본답
일러도
서명석
서흥군
전길남
첨감
꿋꿋이
부건
##애완
##나빠
대상자
##식판
술띠
남기우
강현정
전설
오산리
안형기
##달콤
##불간
사자성어
데이터시트
생강즙
당진군
##주완
준설기
##는다던지
##완벽히
##타클라마칸
남겨져
##심치열
혼입
##야곡
##퓰라의
##이적
##아니할
국가한옥센터
구조층
##조범
윤재수
사방위
이택수
백미례
능가경
셸튼
연기자
자유면
고골
푸와
조형력
##경료
##자회
천민자본주의
고화용
몹티
양우현
##이경맥
가톨릭교
##아다
변비장
##충돌
##참산호말
춘택탕
박신양
우규
##드렌
단파대
순작
##히가시
윤하중
헤머
돌란
김은정
##식별자
정탁
##해조
스테븐
박민자
##칠선
정신보
부화기
##젭
임마누엘
##뉼러판
##변폭
연락망
정필훈
##강정희
거쳐야
물닭
##파면
순토
롤
전하량
##산뜻
유림면
견적도
##경고장
온화
장선식
팔릴지
김시문
이희명
총권
회월
달밤
##여고
합국
한가원
##스킬라
간고
시끄러움
##덴트
##산문화
##동화사
##아미
##쇄빙
##디히
절친
심민규
##거용
생리위생
연고자
점잖
옹천
##야경
전병욱
코델
케이플
만수천
물러났으나
##변개
##츌률이
바글
내왕
개속
수군절도사
선단공포증
콤바인
갱신
유한요소해석
정길상
오델로
골풀과
번거러움
유중학
협의제
물견
##근축
우글대
가져갔었
##털어놓
건져서
갸웃
로릭
##리커
강우현
비대칭도
무미
돈독히
표류
유접
이한영
김용빈
쾌
이종이식
##가맹점
소금쟁이
##세침
공아
장반경
##요처
김영붕
백순기
##점보
##순강
##도경
홍염
김춘호
양생기
홍현철
##광요
여상원
혜산시
계란탕
박수빈
고랭지
전했
리자
##관례
##위대
##지첨
이인산
##사랑
반의어
##밀어주
나열
피플즈
사대부
광배근
알려져
알형
##카비
킹스
##수응
심상
장기홍
##패스터
##평방근
이종엽
##계한
호밀빵
##대조표
폐혈관
##예술론
시놉시스
##속절
##근권
앞단
보리타작
에픽
울주군
배틀
우러러보
영양분
명활산성
앨버타주
##물리학상
손주희
상대주의자
##라스섬
##반납
나무망치
##천홍
##학생과
사천시
타이츠
기쁘
##렵니다
주간한국
최충옥
열기기
##분광
송영범
결격
그릴로
펜션
조왕신
네베
치메이
케티
마힌다
헌팅
##방습
##릅의
##무로
##건우
##실행기
##시에나
노탐
조장식
이미드기
프로파일
##스케터
##경결
##류행렬
조용섭
드키
박윤엽
##소령
조차장
손영삼
##월전
부서진
신득렬
황귀서
씨자
누런색
##피케
##제석
##지처
##세금
백석영
##려로
##표습
주의시
북신
묵공
송영출
##가자미
##델랄
정상옥
안봉영
의빈부
궁내부
윤민숙
외갓집
##부스트
목계리
잠베지
고성의
유용재
정하봉
허영심
봉사
##기독교
##워크
쌈
##보회
무진년
##백가
강혜순
##마이산
##경통증
긴요
합방
에노키
심빼기
##보체
##찬성론
아이디어맨
김영구
망운면
출사표
동결
술폰산기
##정류부
둔각
통해선
##페르니
연목이
워시번
봉곡
주기돈
띠지
월봉사
##대스펙트럼
아이스
산포
피알
편입생
##항여
##니즘
정광재
박성복
국화차
##풀먼
탈황법
허탈
##노틀
단항
최덕주
##한현
대어
아령
등배수
후실
황대성
자짜리
곤봉히드라
##갖춘
두우쟁이
박성춘
위인설관
##대가
공적
##퀴놀
##승국
##샾에서의
도푸
경쇠
례관
도큐멘테이션
후허하오터
장암
미온
불가리
할접
빈상
한강우
채초
칼리지
승강제
##한공
##고인
이병숙
김극수
박연옥
꾸중
##강성비
##좃
뺀다는
##외표
지염
서순
##농법
서동철
방통대
안약
##전목
##서빈
귀걸이
망배
이국형
이세이
장경미
의혹
최승환
페이퍼백
미나세
성욕
음악실
##조화
강헌
나해
반열
##방편
##내각부
##정기용
용녀
범신론
##공업품
격납
##정맥
##료화
금강경
##사업가
이동업
##미식
##막힌
속속
깨놓
기집
지성우
##아시
##송상수
##장기승
장재석
##감적
고려조
일로일로
##당최
##물관
만천
가젤
홍순오
담보금
중완
유선근
권기혁
교시
전혜정
선회장
눈자위
상하선
박재형
##변성암
새남터
성기월
공해
##여우
저열
##어피셔
마르텔
말리노이즈
레이번
김호정
박웅희
소존
##엑기스
쌍분
배갈
##자마자
##연태
##리핑
##는걸요
##감모
문혜진
우마가
전개도
##발열성
##도급인
레이아웃
##정강이
박판
##균현
들통
김수영
##미용
엉덩방아
혜능
대길
##관국
진주현
채완
한의서
##이호근
끌어내
공업
고드
유길호
아득히
환골
##위문서
##석비
##약증
권영규
##스트라이커
언성
##는다니까요
합목
종요
##영근
정일형
##가년
트리클로로아세트산
암브로시우스
준비자
##이루어짐
벳치
인권위
배주연
볼넷
김낙순
##데모
쌍일
##과열
최찬규
연준
겉잎
뒤쳐질
약지
근연
알리샤
내구란
펠리컨
날빛
깜빡거리
##자재관리
진행표
삼거리
##화익
각상
불어라
상여금
분재기
중의성
##구현
잣가루
몰렌
김종혁
송하영
##현란
옷값
전가산기
수호
##감진
조유희
피부증
신민철
강희조
##간지러웠
비누화율
겉도
이데아
막금
##녕
방공법
보셀
류동일
띈
잠겼
뇌진탕
이럴
##발구
입력
복류수
윤혁
##전환가
정자
감시경
유귀옥
심성희
암포
딱지
##재실
징소
##페에
경구개
##서밋
느껴져도
##퀴스프
국방위
##옻
##숙속
트윗
익스팬더
민병규
복사선
##정지에
인천광역시
연계성
구조라리
꼬리깃
##설여
##남태
##하락
##칭자
층층계
##외채
노인병과
교맥
밀리터리
송호성
##라멜
##코스테
심호
임도선
간고등어
##보복조치
홍석원
##벗나
박재간
정순화
리차
##주책
구학리
검도장
##혁대
##염법
교례
정훈
##수평기
응기
피노
이성도
노이즈
도화원기
오개
황창현
김용열
불수
겉치장
펠러
##개문
집수리
정봉섭
##집필
##강원의
##이어구
##탁협
전배기
박일용
##코렌
##염매
경본
저화
실체
##제충국
사브
속삭일
##홍성수
박한비
김진휘
최선웅
배수기준
악행
제레
##고기압
광종
여주기
만이
##은
##완두
김선하
택연
##각죽
칙
바라봤
효창원
##퍼블릭
##분효
##법칙
##후목
##강용
메워서
최심부
훼미닌
파발
##든다고
탐낸
가입비
벽개면
배정인
헤칠
관광차
오촌
초번
##구장산술
덧씌웠
문헌집
마가목
신모
##재쑥
백운경
트리핑
##모터
김남철
부세포
노명선
백운관
##산분
평점
##콜라이트
##즉시
반중
진합
정신통일
##카쿠
김송교
항마
시아리
멘델스존
##과채
양준석
은아
##흑초
자류
강신후
백광
손정우
##직방
혼합물
##승일
##신다
불발탄
측분비
토탄층
리처드슨
윤운상
압둔
##왕따
독거미
##크시
압수수색
누드모델
권형근
쇠라
##임정
##들여
나타났
소단
고비
양현숙
##수는
측풍
수탁인
유동광
배급
최영규
##장애음
##로빈슨
##돤
못
##보릿가루
사온서
오카나간
신발
김준성
스피드웨이
##해난
르아브르
실설
##매류
리벳
##종차
홍금수
이상하
고난주
마혜
##시혐
전군
워낭
탐색
흘러내린다
부드러워서
유가면
춘추관
잠제
조추
총점
##특설
건설
##연합국
채납
##로워졌
##설첨
설지
##뱀
어딜
양자암호
##차체
이한기
정준식
감미제
##차려서
비츠
작천
##김광혁
변수영
##모활
고콜
해열
용비
이사로
추연
양한
##쏘우
간경변증
##닦
떠받쳐
푸에르타
마르가
배논
감춰야
가세로
##활액
김경봉
##자축
송명순
##메에
이우숙
씨도둑
##트렌디
종전
고피
##회토
발탁
##골국
스위밍
셰일가스
축구공
배준구
세티
##속증
##저채
장학퀴즈
키도
##하지지
##등장인물
친유성
신기전
짚카
하미승
##미소
##티그
서현주
어우려져
##사구체
요양식
##보율
철물점
첨장
애기쉽싸리
바빌론
##단수로
비미국
##전환
현실주의
차광막
##지어
##구형선
##왔음
금계랍
제휴
손성동
백옥포
인텐스
##장청
사대주의
육조
##반현
##빈국
져야
##성과학
아강
저온균
대월
결산일
##념미타도량참법
꽃장식
하지만
##케이지로
로종
##저고리
목례
현측
트레커
최대식
##직물
##도피
##주연
##배열도
##하여가
최수임
걷어찬
관측반
##스펙
성학대
역행렬
##분식
##활지
이지만
##역편
일취월장
미성년자
멀티웨이
심은영
악조건
블랙베리
##신촌
##능률협회
##한철
김정섭
소양면
##노전
##홍보
꺽쇠
정진용
중매쟁이
박정로
##송해
##속현
영화배우
##세균성
공무수탁사인
에라토스테네스
국가부도
간동
상하수도
이행지
찰자
춘당대
남경진
##남조류
국무원
이덕만
유형위
##스노
이자형
침로
양회창
희수
고복수
##이먼
삐이
오층탑
##간막국
발화
방몽숙
##평인
회절격자
자리돔과
박명순
##미채
체재비
초과분
##대각
소제목
호빵
##윤방
송일호
초두목
엄상민
실행자
##양화사
##획감
공청
섬긴
남창
주모자
##정상파
김장열
송진석
##축적률
평대리
환형
어음법
도금상
##사이아닌
어릴수록
농성
고른다는
데이모스
휩쓴
취했으나
##동지
터번
삼층탑
삼포
##농하
현병언
내권
나뭇잎
##목대장과
정광렬
은허
노성면
##파극
강신
##커피숍
##박창준
박희승
장태산
강제욱
빠트리
##자효
##파더
촛대
가전
음실
뉘
육예
##모릴
고경남
##순선
신현명
어항법
##외고
무슨
상악골
모범
##후처
배동진
이현중
점령
따라다니
##샹언
##이행부
##윤추
애기장대
##영내
한달전
밀재배
섞여야
장효성
스크리아빈
게을리
콩자반
하루나
색즉시공
멍지
쫓길
한남금북정맥
윤작물
윤선진
##을가
##대기
##수빈
##수향
피임
가시털
##형광체
석란
풀어질
##최성현
##두진
##이승래
##러커
산림국
##지낼
약증
갈아입혀
##는냥
옥인
##파재
##니트족
어명
고가차
설궁
##줄망둑
##강타
조디악
박기섭
추핵
첼로
소관
맥퀸
카를로
##축모
검은목두루미
이중제
##오금수
성교
수산화물
다카오
회송
##화백
솔라리
물마루
##양용칠
계명
암발아
순이익
박환재
##장상태
한국공항
모로오카
전횡
응달
##벌상
전세품
기관지확장증
이민자
반패
콩장
처자식
강병삼
임경규
일신랩
##납구리
누진제
##하련
##신갈나무
##주합루
김문덕
##프리차드
박창은
홍주
에지오
##도트
쁘로얍과
##안유정
##영욱
##방독
##오홍석
김영종
쌍간
분진
마의
허재영
경산군
소백산맥
소란
세지
모셔왔
##어하
가수량
맥아
##별행
등촌
##고장수
함열읍
##안무가
##차단법
##태리
공격
슈클라
원리금
평차
##령실
멕시코만
##직무
프레스코
##혁석
이카호
박관우
##문영상
이해순
##다워야
주유기
폐기물
##숙상
수결
미꾸리
부인과학
##쳑
##질행
강신택
유왕진
##총석
소년원
아현역
인격신
이방의
나르시시즘
바이페닐
나대지
주일엽
##공사채
석류나무
송출
이창원
안용팔
류재윤
##은월
더욱더
채상
##개구리밥과
##김대상
류시원
##공부방
윌리엄
##삼투압
들을지도
##낵동
##권부
톤세
##스티지
##기취
황전
##흑우
곰보
양유정
##운성
용익
문회
김조순
항속
##민완
##구동력
비서
인근
삽사리
##일번지
번로
##이습
구문
아질산암모늄
아나콘다
소방상
양승찬
아이유
고윳값
세포독성
##홍안
우라닐
부드러울
흘러내려가
바로
우애자
##참결
##쑥인절미
김규현
용미리
##최병길
불능
광천동
코유이치
모모야마
카티아
##이수자
가을무
##업집
조태원
카탈라
클로즈업
노석구
기성복
들여올
##척로
##교재
수안보
##혈의
캠페인
동의
##두원
##통환
##건보
랩스
최선옥
##분손
##히트라
찍
##첸
##효능감
##오희선
권혁호
민영희
국신
민족진영
강길수
후회막급
원고지
##경수로
팥바구미
무용실
친가
운어
인디안
서정권
뽕잎
##손상
##격벽
##위봉
시대상
##오동훈
시나노스
류재욱
캔다
##식청
모인다고
좌수영
적당주의
##면호
##사교장
김용완
아퍼
##세안
파면
##로장
찾아뵙
##흰뱀눈나비
##피롤
임재윤
##가좌
풀리지
##상속법
치터
양상윤
박영식
##세응
최미영
##난문
고동완
국제무역센터
아이리스
주공
##복호화
##스테아
석의
##매관
여천군
강태희
전승현
##닭장
##검광
미쿠리야
##기공률
터져서
서툴렀
##상응
김봉진
망초
양지꽃
샀으며
##삯
산악
새뮤얼
탈리시
교원교육
##이제현
##사면각
노효
몰트
계안
윤명철
탤오르와
강정인
##달밭
##피수
서정헌
##트리엔날레
##과담
대령
성덕
숨뜨기
최원재
망종
번개
손태영
최현
##범프
손정숙
이은국
회담장
구활
지금껏
##지키
듀젠베리
##땅콩죽
##무논
##요재지이
손병돈
조혈모세포
편광각
##석찬
사이클로스포린
뭉쳐서
포락
가검물
##세정액
비행방식
희비애락
하굣길
당질부
##어반
##지냈
변형석
##버린다던가
강운태
##자예
##울로
비닝
##트리나
목성균
##카드뮴
주무른
##난전
수배자
봄보리
##토모그래피
천성
김학중
##과립제
괴로워한
공군사관학교
실족
정갑수
##체독
하낙
최진균
박재숙
##행단
##계초
테제
##양자수
릍
건미역
지표종
##연좌
##무반향
송신영
##착색료
우회
##온실가스
박정미
받아치
##부담없이
##중해
저울추
박우성
가죽색
이남혁
발짝
조형물
이행렬
연수강
김홍택
나간다고
한장석
불시
신원섭
이민규
카위
각시원추리
엘러
가수요
##시계산
피했
등단
##겹침
지머슨
박정주
손정연
관념
김성하
##그래머
대리
##각좌
누락
곯
베터
슐레
마대
백학
추암리
지고
아이스크림
곽동걸
##탈장
라고도
접안
##문원
남다를
##기후학
노재헌
##달라질
문교부
윤호중
##향판
페이딩
미국국립과학원
##접속
양성덕
강한수
##잡화점
오산항
측면
데리야키
애드센스
허권
조성익
동검
##신분장
구츠
##열린
##수취인
대낮
정동운
교세포
김병재
송주승
##쿠타
##판세
연체금
빅토리아
차석
충혼비
황만수
폴리나
채무불이행
배합기
괄하
##마상이
두송자
##석림
김홍빈
##환승역
망대
주영도
##현웅
##거고나
스위프트
대전회통
금조
##후천
구사자
조경애
프리킥
현대엠코
수마
김재록
중심부
각별
디키
받아들여져서
이권우
찬합
계산기
지세
##이나호
흘러갈
##정신상
이사라
한천질
강변길
튀긴다
##제가
송호창
니시자와
타푸
##어깨허리
우종정
##담지
##프릭스
우파
트리니트로톨루엔
##세출
영등굿
아악
브루네
조출
크로버
##신호용
자견
투칸
반려자
봉산천
##고사지
##영웅
##생장성
트뤼포
임춘택
##덧널
##차별
올가미
누창
##레이크
엄귀섭
##비례
불문가지
트리아진
##심해역
프리츠커
구동수
##원통
큐플러스
##주조법
악습
##소복
가스실
임호균
크메르
김천중
##짝힘
빈부
윤순종
##나루
두운
애니미즘
##간호학
광역
##리시
박창원
##오린
과이
##욱이
용규
##초이스
##막공
천변만화
지서
아밀로이드
김봉제
##걸리
농카이
찬반
이소희
##눈잣나무
중개사
##스위치
색재
현물주
이송오
지휘법
서유석
애기골풀
##사고방식
윤대진
황인창
##어용
##호명
말레이
이효리
비정규직
내내
용장
##생물소재
나상
벤슨
##일회
소매상점
열목어
정나라
##케플러
##용린
윤석준
유광욱
페튜니아에
삼재도회
속포
재량
김시형
안중문
이진배
봄졀
##기존
국서
강우경
정애
협재
어보브
##티아노
김광문
입꼬리
무서울
신경과민증
폰티
##반진
정성창
김병윤
지카
점하
파묻히
모츠
##상자
##도내
##양호
몸부림치
미네랄워터
##발어
##앞마을
심인성
##판매처
해적단
##하와
##취수량
##힘찬
##선법
##종리
특송서비스와
관립
최불암
악통
설량
동적전
##환국
주선영
박동과
받침점
##여경
##원출
을씨년
고여서
풍금
문태형
##대출금
여과기
전신한
물중탕
##부터
##원청
뉴질랜드인
평화자동차
##단편
최희성
도네츠
한난
다항
정선읍
침의청
최석인
애매모호
##혐기성
내전압
황허강
로큰롤
##절발
겉고름
##장관
조정일
회증
진신
이성욱
최경구
##도메
둔중
중앙청
##재예
##붕괴열
##토킹
##방언권
##전유화
보로니아
##예술제
마을문고
전구치
##오리과
##봉실
텔렉스
트래블러
##리자
차폐율
조조
답문
##혈맥
모리오카
학산
##정해질
클레이너
덕종
##예정이율
몰아붙임
금직
둔거치
김대건
##부결
젖어들
##강보현
이하용
장안동
백일현
임신영
명나라
차환수
정리대
면연
금곡
복명수
국민체육진흥기금
탄피
김예영
##가람
##면소
##관광버스
동화약품공업
에노모토
독해력
임재원
##충원
맞물
대출
##다툼
##표차
##인턴
##규레이
전지성
시논
##카치
##피엔
한기혜
##리덴
김완희
##반모
로브스
##치관
##북장
시례
이종병
##만화가
홍성연
##조척
##겅정
##아산시
지우
몰각
고례리
##느낀
이병호
바이런
효소왕
여동
집속
##자중
##소집단
활동도
알칼리도
정홍규
윤경현
베니스
김지환
쌍대
타의
##항공료
등가원리
배비장전
박성대
##부싱
##컨디
##왔다
앉혀
윤동진
내디딜
##김미주
악작
순
##레이저
염화수은
천남성과
성한데
트래비스
폐합
못줄
##교월
육서
칸
고창운
박주관
청계광장
정헌배
재건축
다결정체
고팠
##여진
박양균
##경계등
##간증
임대영
조양기
유본
##토트
의지
기호사각형
국동
헉슬리
##만음
장건희
##거슬림
새물
삐쭉삐쭉
오필리아
렌텐마르크
##칼시
##충우
배기가스
림프관종
임무현
쇠꼴
##기념회
##수복
##유삼
건축학개론
##문일수
이언주
처녀
강승
헤링본
이뤄
측량
터보샤프트
데르
김지연
따분
김치형
온풍난방
유연석
펙틴질
부엽
안종기
##시스템
껄껄
잔루
강화석
냉각관
담포
대추채
##두풍
덧문
연동리
크라제
리스벳
##스포이트
오리진
갑오농민전쟁
염금
##등본
변폭
홍우영
미확인
##페소
반포
이만부
물려줄
고래류
##윤옥
헌상
타서
모려
동살
산다구
##명승지
방윤경
##우편사업
모이라
달갑
멂
##정보과
섣달
##리드보
이쉬
##조경학
보리스
누에고치
집권당
##소패
김지하
##우속
##모호면
면해
청가시덩굴
워싱톤
페티시즘
드러낸다는
버르
어깨춤
##앞질렀
좌정우
##재임용
끌어당긴
빗나갈
##지노
층층고랭이
신문고
보만
행군
망구
새만금
하향처리
##월요일
##강세구
이시마
월트
에틸렌디아민
겉틀
##포럼
여령
##신주
소송계속
양재삼
##네터
##개간
##액체화
카리스
흘린
##묵이
풋업
그레이딩
빚어졌
신동신
##어명
카프릴산
튀어나오
그레이드
장섬유
이수유
숙기
대거
호야마
현위
##강동균
##석당
널
##척골
성영훈
귀옥
티스푼
목타르
송수구
##기증자
쥐똥나무
한기수
항고
보냈으니
경찰봉
##입지요
##고본
모로우
텔레
보일시
##부미
어람
조규화
##영민
##개회로
적정선
오리
##커진다
축쇄
이종율
도훈
느낀
##줄무늬하이에나
##페질에
서운동
##안품
##페쇄부전에
##지족
남기동
##큘로바이러스
##이노에
##무역상
독서반
고영현
김녕항
##케하여
##해양경찰
박용석
한광섭
##냉온대
과수류
이문열
##토광
##등용문
적법성
밀지
##탁지부
좌열
##상점
##최대우도
##대회장
나셔
정수웅
기소
김학준
##풍력
강위수
울려도
권태영
영해평야
##종영
서성환
##바이언
설한
한간
수성구
파묻혀
##김유나
##채였
마지못해
급행열차
금의환향
백승근
블랙웰
노심지
##암판
는다
##럼블리
퀸트
비입
##중리
물종
##와두
애장왕
##최희재
씻겼
입장권
##복상
동열
조건영
성동구
##미의
##완선
구포리
##호농
##백금산
##아케보노
여의동
들어
강근복
##뙈기
김형열
고번
##액션
외국인
##음반
##우포
뛴
한경호
이경윤
아벨
회전축
##자원자
##펌웨어
연습함
인곡
##반창
봄맞이
강건체
##체현
유영춘
##삭방
##일광욕
##렬실험의
낮춤
입법
주현준
재액
##유혜선
일독
무한원
수유기
툇간
##설후
적작약
광선치료
익조직
쏟
송인환
플레이
##소파술
장수진
들락
본데
이두희
##샥
##란치
##상충
##점주
##솔잎
이은정
동국여지승람
##물떼새
##토대
수줍
귓고주
편승
출신성분
##끄
##싱에
염다리
##태천
상용량
오스발트
##톹로지는
에너지부
충맥
잡아탈
스무디
김연민
란스
##십자배열
남만
##경매장
에미네
##반복수
##태분
임낙철
##구울
박보현
우경일
방어벽
고승환
정다울
##피해자
산비둘기
##비하인드
최중진
아스피린
막전극
안인자
접힘
##합명회사
##조독
양홍준
##여룡
김정영
##탁아
유니박
##광저우
##베트남인
##습의
채유
생과방
##용선자
사로
곽지
자굴산
폭로시험
##장애자
##한심
종자소
칼릴
내용미
더덕이
훅스
##유통단지
##이케
민철기
수련법
임재명
부옥
비틀어지
뭁체와
최준선
김주영
극명히
주운항
##박강철
루카누스
신유리
센카쿠
##부위원장
아디스아바바
##융은
삼류
##체절
##경릉
##제열
##북인
##논토양
모조리
##극복
비양
박성준
날카로우
일컫
김민관
화양적
드렸었
##치마
배종찬
아틱
해기
다락방
##배인
랄
마이크로트론
##열무김치
김준형
##뚝기
따라한
염주말
돌아갑니다
함꼐
##지경이
보관인
신입생
협수
숨겨놨
크레오소트
암권
밭작물
후성
범유
황종우
유혜진
이춘혁
별초
못골
##크로마토그래피
텐센트
##아워
##도랑
두꺼비집
조종두
이명화
##역당
티타
고영채
##령재
정충교
##전동렬
정태흠
애닯
##포원
발통
제갈돈
##구형낭
선비
한글갈
방긋
육향
올림포스산
김환표
##주첨
##능재
##위계
##신민
##문계
##신관
니미츠
지마
매소
방광경
코리아픽쳐스
곽수영
황현선
##드실
##사바
정근우
의류품
##티파
울인다
성강
의무국
검식
조원술
##야겠다
건축선
조명옥
매실나무
심희정
불붙이
가져올지
굴린다고
##칼라이트
##깔끔
##사미
##호분층
갑인
##지류
##도관
류복현
기막힌
박우봉
면허장
##다보록하
화급
활인서
김제시
##슬라이딩
##거증
##석주
이민경
두면
깐돌
대하증
오가와
함석판
사회
소무
##열분해
허상선
엄해
아펙스
보나르
##윤우섭
엎지르
자제심
##표수
공업국
##물무늬
일보
뒤섞
##만진
경상사
문현동
흡입력
이영래
루이지아나
장제비
헬리콥터
면제품
무생
묘봉
광록시
지울
영왕
소양댐
검독수리
오탁근
##박민규
지시스
의념
봉선화속
활수포
전기천
##휴관
충무항
김연아
##치소
가바나
최저치
평탄부
포토다이오드
##윤진호
##통신원
말려
파격
싸맨
플라스민
정준규
##호연
애니
짠해
소나무겨우살이
모양체
##루타
황택성
##탈리아
임덕빈
똑
##화항
보충
요한센
##혼성체
관능
탐닉
윤임
광엽수
푸드덕푸드덕
빼먹
음가
##니토
##물음
이진협
예삭
외핵
안검염
학용품
방미애
이력서
정재찬
라리
##판윤
대그
데리다
영등포동
도요토미히데요시
정현모
##증여
##요코하마
##문지원
임철수
안석모
주영철
##김종익
투기자
김홍탁
##준거
인기투표
정경락
##끼친
박세리
출력계
월런
김승찬
##담배나방
자가제
##벤조니트릴
한상구
전민규
##운고
별경
세종실록
##생명체
최병욱
##영녀
##청도
흥양
황금박쥐
조일규
맹그로브
##아구
발향
섬유단
##별사
##긴밀히
발광
##한량
라일락
여몄
호미질
합자
난가
##식온
##방울알
##공랭
로제타
##보통학교
##향모
##국장도감의궤
케냐
센체
부각
빛바랜
싸드
##우레이
소당류
##허릿단
구이시
원로
앞치마
##저온
유광석
##우미나
조태근
액셀러레이터
권기성
신동엽
승정
다쳐
소사미
용융
이당
그러지
후한
와우형
이카
##선광법
내각제
싯카
##음식물
##는다면서
##아껴요
##해시
직일
도기호
추로
##압구정
홍경민
##생열
쓰일
##불언
강우
##튼
김문기
능서
##추행
광동어
논다
인갑
##는다며
무너질
협의
유의선
정재열
내해
##출채
페인트칠
도음
내려진다
논설위원
##희마
##군파
박순동
골대
병꽃나무
##난마
장득열
박경삼
##필부
나정숙
관입암체
아랫입술
강신길
콜라스
사이크
교체기
쉬웠을
프리드맨
##국제공항
일향
중침
##도익
##부다
##라피나
더듬
정경아
삼켜
적십자
아래턱
##설한
##명희
갑곳리
##내비
기도원
사바르
##대사령
다퉜
하종화
##깅한
풀무치
음성군
##상임
##절육
후진
신도가
박기우
디아세테이트
띄워진
##다문화교육
색역
##토지구획정리
쿠마리
송구영신
초하룻날
##각감
박규찬
산합
물렀
안타까워서
골소강
##페칭된
우임금
추백리
호빙
진신사
반좌
노동제
신태영
정지은
이정
##파탁
잡영
배소현
양동윤
##강하성
##프로테아제
##구균
패엽
바코
세진
##약행
##오닌
##선세
수준점
##모월
강태혁
괴각
공공복리
치명
##집단지
매화산
이중숙
위저드
스택
수직선
최영한
##보요
보메
현대홈쇼핑
바리스
안선경
##녹피
이민관
##받쳐서
##수전
대형선망어업
꾀해서
저술
엠마누엘
##취약성
쇠진
##사네
저저
풍모
상사법
##코디네이션
##축초
록스타
##그룹
외코신
##길항제
보살피
질삼
보도전문채널
스토킹
광한루
##밤콩
유장한
##노트라
이승택
조명래
부끄러웠
##용개
의성어
##주촌
줄리아노
콜리마
뒤떨어져
한미정
##캥거루
##참위설
고주
임영철
##코스
스플래시
이인실
검성
자수성가
##애옥
재가
이쁘
친환
제왕
엔진오일
생장기
##전용차
리더성
홍현숙
판서
북량
##햔
왜관읍
응복산
##서적
판결
박기출
##정다면체
##숫
##했을지라도
회양
류광훈
정온
잡아가
##쿼터스
애드거
오지항아리
집무
한국토지공사
##요크
플라세보
##사고력
##훼이
##침법
##베르가
김준철
##막소
원숭이해
정세운
##박성현
원추체
배쪽
현경실
##략이행계획의
장혀
미네랄
신장세
##남재
유예림
김윤복
종례
박기용
##장터
##천여
글루카곤
##일면
억간
##세근
훈침
##면탄
꺼뜨리
삼례읍
전병근
초직
##저항력
면질
##펄라이트
은준
##체시스
##면경
취록
##알갱이
용비어천가
##편경
김호삼
육이오
뮐하임의
윤순진
비상설
##증량
직진기
##외구
앞섶
창만
들어올까
절수
중압감
물골풀
##가디스
##무석
다가왔으며
점차
전박
닝닝
##뒤집
사현
명공
한성준
혼효
제동통
월변
동기설
수염문절
사촌
페쇄회로식
장채
향합
강재성
변류
여인형
김소룡
라그랑주
군수전
마루엽
##홍성욱
##승진
조직원
##발효기
##헤파린
댄스스포츠
화웅
발열재
##슁기
##미꾸리
불알친구
삼달
절담
탐정물
오토
##균일
민속학
##남미
##신간
반올림
##성장률
##생장
전환법
##생저
소주잔
##식생
플랑드르
##비스트
정곡리
저림
진성민
산성염
##송공
사회형
차폐물
원설
##브래킷
사산아
신춘
관음전
##돌고래
팽
스로
적응도
##빙대
오로리
##애순
##분류군
정회근
전규안
신경종
개발주의
왕푸징
최정경
집산주의
황보
한성순보
남궁근
##종제
일기장
##교도
스트리커
쩽죽량은
사람주나무
괴로워할
레이어
도로축
구아닐
모반증
##싱하
##신속
현주택
줄대
이민근
윗길
##어우
번식
##괄발
혐오증
##로르
석사
캠프파이어
##프레파라트
박흥순
열수구
##수잔
임계규
노르스름
국의
부명
손샅
아야
##동극
##역시
##개부
##워싱턴
몽글몽글
##펠레그리노
희타
##퍼와
##약량
로커
##빌트
강효상
##라푼젤
이치
부닥치
##차폐막
선갑도
아언각비
후들거리
##길수
에겐
비탄조
##바나
항공권
##마임
##모았
포치
들이킬
과박
##막사
소눈
선정원
간파
달라디에
##창조사
##베린
##보험증권
코르네
##뱅크
##작료
##렬인장강도시험
위공
건재상
임진옥
하얄
##할쏘냐
조근조근
##누르기
##나간다고
대소
철매
##문외
약손가락
##촬영대
##석장
##변창진
고무줄
꿈결
첫닭
검은댕기해오라기
식별력
삼엄
화학
##정민
##애제
한수
혼타면
파이드로스
변정우
##신경외과
##절지동물
기종
가정문
##타요
폐디스토마
성종상
##보충법
장우영
거래법
플럭서스
광의
자미원
습습
환담
##섬도
##들인다
구모
자연통기
스컬
아침마당
글라이신
제환
##차동
악권
시라네
랭포드
##관계관
김수범
휘둘러
바다색
##화본
먹여서
##손상기
단백체
몰라준다
기아나
박정수
예정지
##냉할
박진표
편다
##박병무
창현
유윤
홍대
여의도역
조수용
이프
대공전
드립퍼
라핀
로보스
##성과급제
넘칠
유형진
구겨져
##니트
##봉숭아
##퇴
##신추
##경쇄
##결빙
총결
장문영
케이지로
구성명
부른다오
##닙칩
가중값
##분권
탄소막
민도리
##술후
기조력
페튜니아의
탁정
러스틱
블랙리버
##브레케
##한의서
표용수
가증
##점열
##복만
##음심
버금갈
##슈
지나쳐도
딸아이
##헌금
##고사
도화선
복부비만
찰스디킨즈
한명주
##미디엄
미요시
배급제
저층
##판별방
이승하
매분
새부리
일링
##질색
김효식
벌였으나
법력
유희형
박한기
독막
곤지곤지
김언정
백소주
괸
##소매가격
법당
##왼
차재순
##성문
무릅써야
연길
##투렛
소변불금
염원
괴연
남달랐
정호영
##폴리카보네이트
브레네
봉산군
##개유
##베스터
박순연
운신
##에틸에테르
모르
##훼스큐의
왕녀
##장석의
타오위안
시안아미드
가적
섭취
##락의
##서간
##제스트
여윈
##베이컨
##좀나방
부끄럽
대기후
##전종한
##백반증
##름증
신경질
주채
주운동
배창한
##수번
귀유
영화관
##구채
##생주
##탐문
##태상
##소켓
##광파
상량
다모다르강
정광욱
싹쓸이
정진국
광업법
##상혈
##덤
금은주옥
##심함
국그릇
안일한
서분
암하
강용호
덴엔
퍄력을
##스토어
병균
##바이더
##인사이드
질렸었
##불씨
트위스트
아포리즘
##영남
들불
딴뚜
강한옥
최첨단
##군척
부산물
수파련
##타강
##청라
펄럭임
앞섰
##삭면
##약한
이랬었
이순종
봉안당
이선우
유성규
##강작
##갈병
손해일
##틍성이
송곡
##현장감
##칭경
##현진석
법학자
받들
잉간
##우일
##흉격
구체관절
##만보
##층심도
준해서
##평형세
섶
조남기
치환
##사문
운흥동
흥인지문
망모
##샌더
설득력
추린
장경숙
##커지
오세올라
편해진다
##비진
##우점종
##잎양
김훈식
##백악산
##내요
연암집
집게손가락
포장로
##말약
최재황
듭나기
민준홍
칼로리
부도났
총연장
이율곡
##기간
다와
화수회
##보존력
유슬
##아전
독후
##찾아보
구건
김양균
현상
이운식
심폐
라우렌
오원철
##베넷
객선
백일
##폐시
조진
##심전
경우
전후
로호
할라믄
우유병
전경근
##모랫벌
연결공간
##타르산
조성건
##우키
정영환
싸워서
회청
명년
갈레
들신경
##복귀전
이지인
체공
##시켜볼
익
안쓰럽
##적부
파옥
##반각
미나마타
##영인
##혀야
송별
규류
비슷비슷
옥상달빛
콘스탄틴
종개념
##원단위
틀어질
레몬산
구약학
유리상
김승수
라이선스
카운터
모밀
동서양
부회장
곤죽
잠경
##굴방
##밀구
##목적지
화이트박스
##게야
담겨
위생모
##감추
##십일경
##박재
##박혜민
별양동
칠성단
명아자여뀌
당멸치목
곰취
양외
오귀
##숙정
외설
스크램블러
빌어먹
태녕
군악대
오배자면충
사전학
##대의
##섭력
##원원
충고인
##선번호
전상희
조배식
##실체감
더블이
최성관
케빈린치
철갑둥어
최영윤
##명례
##수형도
잠의
##디아세틸렌
##시켜감
##상담원
다승
게놈
성형외과
니켈광
이재걸
색다른
전해가공
##김순규
난필
윤희숙
아그네스
##장착
진미석
늘린다든가
차민수
##로버트슨
필렛
##달라지
율촌리
메스꺼워
##졋을
반사율
이형은
##웤자수를
막집
##비추정
알래스카만
##게이드
##류질
##예방전
이두근
알려줘야
박성규
##이병헌
##구타
조음점
합주단
##혼잡통행료
해동중보
##영업권
엇가리
라즈베리
임승용
정연상
##자연림
##렬억제효과가
칼칼
탄화법
##부류
##로워진다
임현철
틀비계
함양
이마무라
부담금
복소평면
디세
##중춤
소항
유의
##기차역
음절
##감시창
##디스플레이
##등속
##문요
마일드
##자독
##라온
##백유성
삶기
신택현
모습
조식
류승현
람사르
우선시
조형국
##한복통
계부
생피
와이어로프
취명
##지질도
##장조
최수열
미기압계
연타
임철호
렬계
숱하
주드
##분형
일깨울
##설파이드
안승
법위
눈망울
진도리
제적
조기홍
주발
돋
김홍걸
잠겨져
사에
자리끼
전승호
먹장어
##진범
손종현
소종
숙인
##대피장
기상
##막인
##감하
머물러야
##입품
##영략
##기업주
료의
##경추
쿠로시오
문영일
맨들
당중
국기가
나중식
읍루
농장
인공우
증오감
눗
##애증
##분만
식작용
맞바꿀
이철균
났으나
영모화
김종복
##일렉트로닉스
벽인
그르니까
물티슈
다카시로
파스코
##투척
이운
들어도
##간단히
##슈에
모계
라라
##낮춤
귀얄
##볶음밥
사령관
오수가
환조
앎
서러운지
##복접
정애리
인터체인지
썸머
채칼
##조적조
##보자력
패각
인덕원
백관
고독성
골짝
늑건이
##장습
##목지
신한
일진
##성미
유자화채
##류단
합다리나무
정역학
눈높이
외자궁
야구
기절
페리틴
순보
색색이
패럴림픽
##플래카드
네이멍구
두문
##마도
방숙
선도표
계신다는
충훈
최상층
이글루스
산보
연지색
혼사
##타바
롤스크린
김혜란
##양쪽
##몬테카를로
양창헌
이와오
땅콩버터
편집관
달가운
##문고
도판
##역취
부귀다남
아이솔레이터
##퀄
##삼리
뚝배기
산정동
이지헌
피용
금방울
금원산
승급
일감
##대질
##목초액
##봉래
올려요
##언사
##연착륙
최지호
장상태
##고군
##들여다볼
과순
##분쇄
모형항공기
유곡리
##행방불명
클로미펜
##거인
진궁
홍삼정과
조절력
폐종양
##부피
황신영
박철원
##재단기
만이천봉
##조인트
당류
그런다는
##마섬유
이재안
추모객
괴수
아준
초행
뺷대대예기
라고스
홍우선
방성용
방이동
##박형일
원성왕
자주꿩의다리
주희영
##빙하
젭슨
이럼에도
기상학
척맥
현포리
바륨
##얼리
그라핀
늘였
방탄소년단
쿳라
대하소설
굼벨
양귀
교향
##잡증
##삼치
길귀
드레인콕
광도계
##마하
몰타
이형선
폐형
사직대로
정현순
송민
전방지
비구상
이듬해
침질
금골산
##퉁아
##율수
덱사메타손
##쎕턴스
##튤리늄
가톨릭교회
모과나무
##리강
##농연
이찬
되새긴
서양민들레
##슬라이스
##트레이드
##등기필증
기흥
##길지
니케
국로
자기혐오
박상건
계발
나타
소락
##도착증
강부
감자채
검표
저버리
##침봉
##장열
가지산
하운
##럿동작
최석근
과전법
한혜연
북극해
홍성현
김창의
코탄젠트
피트먼
라트
강신기
불행히
##일제
액틴
혈기
주책
여실
##시행법
##징계
스크라이빙
유학생
##절망
##입식
포고
압좌
##주동
옥주현
때기
측정기
납딱
나사말
천라
찌그러뜨리
##단불
##채린
윤석일
백영민
강희용
##페그
##쳐야
엽침
차회
조력자
##광색
##프로스트
플레밍
끝막
야영객
##쇄신
미륵불
##장비
한성욱
승리
유아원
##화양적
##역추적
##한수용
박주선
성육
##렘수면
내배
적측
회항
편파
오일펜스
비공이
##조달
초교
##여좌
만동
담금질
##앞판
최덕
##늘어짐
조마조마한
유영명
클린업
그럴듯하게
아사바
형정
한임순
활유
위령
큼지막
##병석
##폭언
십자공
금강산
란카
##위수정
##세계인
사가
##인석
교두보
닻돌
토안
조명계
수관화
##광장
##룰린
해방군
최승희
이승목
김함겸
##봉행
옵티마
특종
몰탈
##군용기
##홍운
토했
프리젤
아스파탐
회복기
광정
박용두
##잠비
##발스
##등분제
마상재
##경제법
##술방
불응
안세호
조성묵
취실
모함수
예비품
한희승
##마투
##관문
양용
신일순
선언서
풍석
다리미질
백화춘
##울
사이트
호형
##분류기
##빙하기
민순
##이진석
##칸디아
칼리슬
캔버라
단일염기
고차식
##야금
##화관
김만흠
보들레르
실천론
한속
조명화
##고열
황숙기
김기주
##현식
황록
강미숙
육환장
단칼
##최종호
갈치조림
이하운
이재문
##난분
종합안
이단형
##판결례
##격리실
야콥
##장현미
꼭지
##농약
정혜
##교표
##덕성
정상립
강주
일조시간
군인
##족제비
인편
쁘랭땅백화점의
외안근
낮출수록
##교향악단
퍼시발
##선배
쿼리
강형욱
우당탕탕
충과
김표년
##단소
##여백
쿄스케
유경
기획회의
##보주
금치산
##장일
높여졌
##극치
##용광
등급비
인숙
신현식
가냘프
##장거리
제키
국방과학연구소
삼시
갈분다식
요샌
##스러운데
임균
##스캐너
카시오
광가
과숙아
대부금
낙후성
##반닫이
##화영
찬우
송호정
##개연론
각책
열팽창률
조맹
대역
##악간
자매리
나마
내버려둘
강령
흰물떼새
윤장호
고문숙
경부보
갈퀴꼭두서니
창황
태종
##간색
빗댄
이측
그럽
이후영
가달
멧부리
어빙
춰서
박종엽
##구강
포토커플러
요나고
계집아이
##태음경
최문종
중지리
##업인
##할막
##완자탕
줄납자루
김정태
로댕
모리무라
약한가
심급
##상좌춤
앉혀서
닭발
##매매
##디의
##태기
##몰러
##정형시
##박격포
증도
##져야할
한승윤
##인터
문숙경
##수모
##비
숭인
밝혀낸다
전정식
##가충
미착수
신웅재
김경록
##서추
홍쌍리
꽃살문
장희석
##철제
##양방향
골프채
##경안
투석전
양계장
남새
채현병
강대호
##성진
##빈지
##전자장
##셔링
달솔
혈통주의
묵서
웨스트모어
윤태명
파브리
운수
고깔모자
박운진
날염기
갑작스럽
제부
브레드
경례
끈다고
##조자
참정
도손
인순
##볼링공
휘핑크림
##우진
##인태
마음고생
안종석
주탄
##조사비
결정화
청람
구분기
카롤링거
남성원
##클라크
석촌
뱀장어
맨더
연송
##아주
발효균
문태상
중계국
엔지니어링
돌산도
향상성
##적온
무시
긁어놓
##복주
##독본
##신영준
제한제
##권영걸
##츈근씨의
남태칠기
교육자
박주환
지기환
경거
별내동
훠
레마
과부가
범죄소년
##오하영
##빗방울
촉석루
홍성헌
채성욱
흥덕사지
노킹
윤환구
##행령
페깅
요역
각대
남석
처진
증립
##선거제
부지불식
김천규
싹튼
##국립대
앙등
등강
김복자
##항류
원심력
백승태
털색
국화수리취
해피니스
쑥설기
찬드라얀
스테니
이시자
##수락
김대근
도아
비망
스와인
해인사
응에
나수
##철소
마티즈
출납원
##김성식
##감압
관측탑
아르항가이
화평
노나무
문현식
##아천
조미경
약혼
##침착
방향산
##누워서
김승미
안영섭
전례서
김유상
액제
쇠뇌
##민주희
##카리용
이입도
위킷
집어삼키
##장보고
봉금
잠겨
##슈테
이무용
온풍기
비장미
태어
주병권
##랑크
당도계
##외장
##국학자
운송료
##뿌리벌레
현거
##초범
##부를
강화식품
전창덕
##들쥐
##더블
마이크로코즘
진간
##여항
코바야시
춘포면
장유경
##허준수
유지기
인우
판금
은폐물
가져올
개권
제택
##면강
움막집
##새우난초
부르크
섭동
##대접근
##당적
정병주
보뺄목
매출액
재갈
벳푸
케타민
미란다
호위
조설
##현미경
요금
##주선기
##오염물
항해업
심미학
상한음증
페원두박을
박위상
##므가
게으름
##에너지법
채로
##래공
##방직공
매긴다면
옥천군
##관서
##공침
지수현
##협조자
##중앙관
김은이
재생품
##며는
소월미도
##가늠
김병원
정효연
야오이
략에
모악산
소빈
숙박업
##구와
사두품
품계석
박종화
김상범
정현용
기압력
육박나무
##작살
참요
입양아
##하변
장기완
연백평야
민경록
황태원
명의인
김한곤
대갓집
도박장
약이
문영민
##이형관
광통
##박안
물어볼
우역
배장호
상압
스크린
타농
박상완
##쳬계
진흙
미지지
화산암괴
##방제학
상음
깽깽이풀
천명환
저잣거리
장동철
가디
초콜렛
방사무늬김
조용선
김채원
불규칙성
후나바시
##팔리
발굽
##양승룡
앱
김영천
자빠져
##위나
##측색
김민영
고성진
##측정학
평범
문지연
물황철나무
##한희정
최진경
##난폭
등롱
##반성식
폐곡선
양웅
배재형
앵도숙
길러
마저
##남세
육월
##거주
##가례도감
등연
성에
쑥스러워
쓸려가
##법리
옛시조
안병상
한재동
##복서
소의
##이행시
##이명규
중간권
##녹인
곱새치기
필사본
곽박
전경애
누려야
더러우
물바람
천가
서무송
격
아비바
##조은정
군고구마
지리구
##표적
가프
##얘
기장
군파
##매너
##혁신
##학유
진원지
복원도
톈산
츠카
레이트레이싱
##송자인
로엔그린
산업공해
##저항률
##육량
그려야
상승각
붕산염
전민희
오철호
재송
소노부
강선일
고경순
##동아일보사
##대수표
떠나간
떠진
홍소영
물품
##사울
현정은
수도료
양세정
놋소리
##코돈
념이
선포
측일
지윤
열나
자학
지도급
급여량
##이체
침감
##호지킨
##중립성
떨어져내려
사마르칸트
##독후
##건채
창녕읍
##배계
##단모
둔탁
뛰어났으며
무능
치조제
다원주의
밀접히
왕골
##인입구
쓰기
눞이기
##규호
잠긴
최경숙
##베이지안
최지우
##빈뇨증
장천면
입법안
부채춤
말감
##백후
하재
구면경
##항아
런지
##칠공
조성수
구멍탄
이정현
한덕현
##보디가드
김충길
터뜨릴지
##득실
##피람
##본간
##형률
##한방
최성백
타이틀
땅꽈리
시차
서부일
황은수
##스릴러
최철호
박우정
정찬국
##컴프레서
##래환
메시지
##할레
##고동완
발자취
역어유해보
꼬리
유치진
태미원
문이
##시도
장과
천진호
홍병희
산동항
철륜왕
이형상
설종
피복층
##메리
콩꼬투리
##역량
##각고
내측
권아름
조흥은행
맹도
접종법
##저상
##기능기
마셔본
윤태
박풍규
백반증
진성진
신복기
##버렸으면
##동작
##엿
흔해
향약구급방
매세
##단수
##점멸기
##단핵구
이바나
이규섭
웅성거림
이강정
교자상
의건
측량도
갈일
합성초
로크너트
##항이
##수식
##단축
나란조
원폭피해자
만들어진
이혜원
실절
된장잠자리
##이용제
##박범조
현격히
##음양설
타약
##정치국
##긴장
##간예
삼중수소
종자기
류훈
##조이도
##볼
섀클
##보크
금눈돔목
브레슬라우
집합론
백양로
선로
한길체
휴경지
대종가
사만다
조영신
공비
호바트
##제목에서
##인동
민유중
##호만
##걱정
최우혁
##거제
벌였
이재봉
##빈발
자연치료
통태
##해준다면
두등
##진학률
도로유
패전
##오이지
성곡동
최영애
##집행
##왕가
##효사
비단길
악착같이
##풍정
평생
공극
보증서
습격사건
공조팝나무
곱돌
패럿
##어
요게
역전
치모
성모자
시골길
손성완
##마르지
정성순
꽁치
송승현
유년층
##화성시
조경민
고문정치
메디케이드
김란영
혹세무민
윤은정
셋잇단음표
##세리
##갤럽
김갑기
갖추
##출외
##가극
벨테브레이
한춘
임성일
법통
##레지
지식욕
윤여헌
##이형상
쿨레
일사계
##놔야
통곡
외지
액량
##횡단산맥
묘화
분야
근태
오이디푸스
김리라
##누르
권문
굴러갈
탈아미드
##들어오
꾹저구
채화영
##선분
한지혜
리포이드
안중호
열병
요입
더그
##비움
소래산
##헙을
노재관
게시문
##갱의실
청저
꿈틀거림
##백연
큰수염박쥐
화산추
김성
암종
순소득
웹젠
칼데아
허재훈
올려붙이
쉰다리
잡혀져
진남
전달
개찰
##유도전동기
소득세할
##로비
##역저
##영색
탐석
소고
##퇴토
위도
의함
지암파울로
##투레
양산수
배현웅
종말점
##플레이
한흥
이윤지
서당
월문
제강법
미주
경주시
##역공
소비에트
임지형
오덕
탁구대
##성립
##기아
지바현
##착화점
테트라메틸
최영길
김이한
진본
맞아떨어져야
##촉경
사동문
뉴튼
번진다
필단
##포계
습신
##서비스업
##제때
##인도주의
관중
허형구
권상철
부동심
액포
이틀
##조영법
월굴
박호원
##손유
전수한
##단시
윤전기
심완섭
##구업
가루비누
남정규
박종주
리플릿
##유역
사포닌
강숙자
송금인
웨지힐
사대
죽장면
촌간
그린다든지
곽종형
따낸
야쿠르트
위투
조문상
흘승골성
한량
##쳇
시사저널
##스팟
##김중규
임홍근
항온
한원
된지
서시베리아
##복청
##업진
외양간
##결행
##옥시다아제
이채
철거지
##한탄
##흡착열
피땀
족문
고쳐졌
멋
문지혜
황지연
징헌
농학교
##편집기
##설계두
##도끼
전자리상어
갯별꽃
##나물
움직인다면
옥리
페플러
핸섬피플
김보현
땋
마니주
그쳐야
##기항지
온담탕
최진수
현
##상확
화과
##유도가열
복형
운동
##된지
동암
쿠프라
성영신
한혜원
##종단면
이재광
최소수
노르트
쾨니히
마득상
남과
촌각
##배청
다이아몬드
박장훈
##흥분제
김홍건
##션트
##작스
산림청
##득표
에어백
심수정
애경그룹
송지청
베노밀
영부인
굿거리
모슬포
##더빙
폐첨
이인섭
신동성
허준성
여국
옵티머스
##공개
김희령
엮인
##산화제
위전
석한길
##물법
##부문비
강길모
김재찬
치근관
융사
민사사
보타이
김영탁
##덕림
샐던
콩설기
관리회계
좌익
열파괴
상담소
##경변
깃동잠자리
김성란
피라니아
##촤는
박기학
박혁
##바콘
선종선
김대엽
기공구
심재원
##다혈증
돈
휴톤
물리학상
코헨
##계출
송봉섭
증거법
##제령
식후
적대국
나쁜가
##인에
조숙종
쏙쏙
##연우
제해권
사질암
##미초
편집실
##가전자
원상봉
이와사키
새색시
뉘여
이스라엘
##지쇼
기구대
##중소기업청
게걸
##전작
조밥
##폐회
벅차
유병률
불거져
회침
생식
파킹
잚
조건부
##직의
최선경
구진
##금연화
##변통
갱이
아다지오
강호준
##어의
포크댄스
##유발인
인터록
김성녀
##메이크
가스레인지
##부승
분류표
감정값
이덕배
연적
부왕
당여
##박계영
이진덕
##포뮬러
##메이크업
##본곳
유룡
참구
황갈색
##분별력
상도의
생기론
##도덕경
윤남열
##코다
박경문
이종삼
준상
여겨온
만수리
##스러워서
양인환
##콩
파더
훈련장
핸드헬드
정경연
칼집
##혼동
##권형
이오노머
광저
받아들인다
##브레인스토밍
##여예
##미적
현자
광환
정신문명
사각뿔
구슬옥
##이행연
신보수주의
##골로
주민세
투지력
김진원
최은옥
##증위
증발산량
##전격전
석차
교고
피부간
게장
긴장증
다운스윙
타순
##알정
일반항
이환경
노은경
해냈으며
김장환
협찬
즈음에
##동치미
무거울수록
서행
송경화
옥의
고영찬
##최현우
하숙집
차실
##전염병학
##면부
##토부
양진우
조절지
##자유직
##풍국
어제
난탄
##약어
들풀
##성체
과밀
카야
총자
##두합
이천화
접지선
##응체
이세철
방전함
##금자동
인터랙티브
##는다구요
명산품
가분수
박규식
문채원
##쌈지
##이아고
보호용
##혼탁도
도위
에디터
그라이프스발트
어느덧
##총선
이진용
서지역
무작위
릴리안
##궁인
##인상
벙
##안평
##명민
쥘리아
민용기
고노
##연폭
넘쳐났
##백복령
연삭
##수직
수신형
비아냥거리
도요새
##원가
##변조
##소관목
홍정표
유정빈
산지대
장인희
브레즈네프
덕천
복합수
##등상
건더기
낮춰서
어은
박원동
소강당
##후평
당규
유영우
상민
선왕
월서
하이로
##종감
##터만
김학만
##로워
##근까
트위기
기어간
팔회혈
공동논
##세뿔투구꽃
근정
전소영
태양일
##한전
##까락
고은
기계식
노인병
한인섭
따온
카보나타이트
안경자
동포
##가통
본교
사고전서
공치
탑스
신자본주의
삭박
##일반외과
접응
##웨시
황병일
티슈페이퍼
거쳐야할
쌈이
임석진
등덩굴
참여연대
박병도
이현기
박용우
##보드카
권창현
박호영
등온위선
반대설
점열
##포도상
##전촉
당그
재단법인
##망가니즈
##부정근
하민수
##칼로리미터
유살
착륙대
발효효모
##면허장
##여성지
덕량
##채종한
##는교
##뽀개
##필진
한번
##숙료
안동욱
##분광기
##문사
##자투리
권기석
카티브
단열로
맞물리
노암동
간량
##킬
산갓
##친데
잡아낼
##가격대
##박미연
##짝짓기
옆새우
저유
개살구
##인건
박경민
신동령
침제
##상재
숭어과
미혼
신효순
뿌리압
복원관
동정
월화드라마
김성석
꼬리자루
##유압식
장암리
##조용래
주동범
탑재량
인도어
##건축물
피루엣
##건망증
대나
##긍과
매워서
섬잣나무
오인욱
깔창
송효숙
논란거리
##더욱더
뷸균
다수파
##센스
버지
전민석
중단
##생명력
엔젤
강부성
##재첩
권태연
안기
삼풍
신진용
수달
##간첩
##제작
##릴린
##징조
벤느
##란탄
##쇼어
화유
조질
##운동선
관전자
##뒤영벌
##바로
목강
한민채
음극판
##는다든지
육학
양궁
##일도
차외
지능범
이건원
헌스
##협소
##천안시
스포트
고장률
비지밥
지참
곽민경
##테이크
##드빌
고종철
호슬러
배종렬
설득광고
##미끄럼마찰
죽변면
##진두
##키닌
##발간물
점복
김양미
##임양
##오슈
##김영숙
급전환
##강오
잔적
이순래
##발토
##도애
##계소
구인숙
자원자
라플라타강
박영관
눈먼
##천부리
##침애
##후물
##명원
황족
위비
보성
정무경
통일벼
##중합효소
사마귀
##우배
##출유
허만
갑신
타올랐
##습윤
##궐기
긴털가루진드기
유수영
소춘
이인영
보편성
느껴졌으나
임기석
사관부
이나모토
야시로
##긴
손유경
##진금
질정
##짠지
메타리
상피세포
##초목
정평
액비
장기영
##우명제
조치원역
##생겼
낱
쓰임새
##허준영
필한
##문현
에비타
##파식
겉실
김한구
##산화력
##화석
의국
양원식
박희진
아데닌
토코투칸
##수용비
##소의
김상호
김미희
잃어버린다고
붕당
돌려보냈
강수인
##침구류
표력
안용
##집들이
이축
창미
##농수산
어는점
검수인
##어웰
전화위복
카시
갈기갈기
번순
패션
천위
고양동
##중단의
##저명
##보균자
마리
송국리
공준진
황미애
남복희
곽경신
박은경
박미애
##역평
전결
이단하
발저
쳥계전
비워
밀양역
코그
이중체
강낙승
스팁스
청주
##응고
차광수
시기리야
정무직
정오각형
고삼면
김득연
차문
단풍나무속
대부인
##캠프촌
##지벽
가사
구목
국제상사
##밀발
박주석
##석유공사
빛나
##올랐
한조영
아스타
저개발국
보일라
회수
시대극
후분
결합체
감싼다는
임환섭
##효설
아래
##혜택
##벨
상이군인
##한꺼번에
디지털
##병기
클레이톤
중지하
##퓰레이터나
정광
가두시위
##맹휴
##서술자
잡학
당상
##습전
##빚
##잔여물
남수현
##알라딘
##강혜원
아잉
##녹화기
##얼라
##동가
##자숙
##직
##감귤
탄신
영락없이
##충동구매
상실감
열다한소
렛
부엉
올라앉
##전세가
무실
인수인
서민국
##방비전
인준
눞혀
##투우장
김정철
흘려진
##재학
##요진
팥소
##월트
조계
판타스틱
##파괴
로타크
안성만
##구입
귀주
극동
##마이코
맥박계
비행정
페기
새발뜨기
말술
빙판길
라빈
김학의
박기원
남강릉
듦의
##회시
최재민
##여성군
금우
반길
##학망
검팽나무
중앙서
##고려사절요
깃든다고
실궤
장기학
아무르불가사리
내준다
왕흥사
##과전류
##남아나
박한용
부단히
동차
##정족수
삭발
효열비
##류산
보로
유익설
북부간선도로
다듬이
##부족액
##해손
이정률
써온
##세함
색청
##베이더
길러져서
악과
포식
아이데오
버츄얼
공통근
##처용
전야제
알칼리요
##동률
정소걸
양희영
발행일
나영우
페가수스
##복중
손형민
무연탄
양육회
자기장
전수환
##알현
김옥균
유관종
가오천
할례
대문
##행검
매슨
최선진
##인지주의
가황제
산출량
낟알
조경모
##변태
비바
임승희
성영
주침
##인센티브
메아리치
둔율
정혜숙
이병순
송태복
알릴기
천원지방
##금식
##경외
만부
권용범
신림면
##천예
파장동
발근제
허난
퀴닉산의
빈한
아슬아슬
##일태
##공원경관
공중선
광수
망치질
임정아
##펩
귀미
양태도
##구골
호르몬제
##김현욱
앚아있네
갈수
김낙제
안병일
약계
금합니다
고등동
##도미
이염성
##행한다
##김만진
석막리
이해길
프런트
정글
공배완
##인호
박범수
도천
##상정
천시원
브레멘항
박용휘
말라기
오해동
##저출산
##주무
퍼치
##보허
끙끙
돌능금
##락토글로불린
##기회인
미티
수출불
사업부제
줄리
동도
번쇄
육군기
허만욱
##최재혁
주원인
##포행
살리실산메틸
기골
##박영
스틸웰
박윤서
대과업
입방
##차적
##유개념
혼성제
##자옥
아밀로
번드르르
이윤호
##극량
매스꺼움
##예공
간격
목측
전금
##순차
##횡동
종교사
박주범
##정균
쏘렌토
배노조
##민가
##강구
성계
한외
배한
무권리
##장재
이륜
태고
피조물
##스탠딩
효자도
입각
강의수
차성기
##쿠릴열도
##정이든
##임학
젤라즈니
두동
최명구
드려도
스펙트로미터
시모
##즉응
페잊
이승묵
꽌시의
##음역
볼래요
##부원장
최태부
##첨증
신대방
날숨
발표문
허미화
완효성
유초
##모강
##로즈마리
원산시
호쿠토
##한다던가
구결막
포에니
##마취제
전망
다중화
점화기
##갈청
자필
베를라헤
##서판
이흥식
홍일선
자유연애
출탕구
##찍
##토출
문선진
김재정
구태영
##대신
##관광객
서진석
박승화
곁들여진
웅숭깊
조성원
##인승
반혁명
벅찰
장윤성
하니발
주영규
순열
앞바탕
양두
##어려워
##징구
식풍
훨훨
유민상
의치
유백미
아인
상관습
조철호
영태
이계도
선민
고봉
오근태
##모타
경국
결백성
삼민주의
외교부
조유현
##원간본
##드림
##발레단
##망대
이재건
반지하
아더스
박만섭
동자동
건희
소학생
훅
##낙천가
외친다
##지휘대
##묘간
현탁액
급속히
##계승자
희유금속
##박형서
태겁
##미한
##발파기
##군의관
주근
활성산소
##김영민
김나래
대산
탕개톱
##주간지
길흉
김창남
##체결국
##소업
강석웅
석정현
##빅뱅
##동반
그룸
벼애나방
구원
여서
옥그릇
##캬
향해
삼림욕장
애들러
##화진
강둑
위문
정인성
의료기
비스라
티로시나아제
균일가
##이건범
유선형동물문
세포자살
보비
로젠뮬러
##니트로실
표목
##일으켰
##라우프
진찬도
##발파공
##어딘
황소
선고
여미
양영석
문수영
진창현
##삽통
박수선
홍기증
##주목과
조태경
김성한
캐묻
최백규
##투야
김만유
절음
폴리아미드
여론
완고
못난
황종국
마사오
깨우쳤
시려서
##난쟁이바위솔
퍼니셔
고두
혔
약포지
매클루언
추형
김순양
침구멍
사이사이
보여줘야
나일성
##청환
온당
에케르트
구질구질
장랑
화개
항바이러스제
구풍제
##쑥갓
##간급
창작
##봉상
##모사
트릴
##물벼룩
꺼낼
##연염
보조선사
트인다
##만고
필운대
선명히
##잎집무늬마름병
오름차순
형리
##정희남
##유라시아
성능
선보여야
##조조
수해
죄지
사이클로세린
생치김치
개산초나무
완전화
##급강하
키울까
노감탁이
장정호
토함산
##정제기
##염제
##순소득
강익선
시종여일
낙수기
닭똥집
황정민
노은역
이재모
가배항
##화단
탄성판
최성민
##폭발
##장인성
탱크로리
박승근
군사재판
##진저
갈회색
해오라비난초
권영숙
대중목욕탕
##악순환
박미소
##서릉
##추벽
김기남
##노심
최호순
홍촉
삼라만상
총명성
##철산
마음
최관경
특사
정밀히
미르
세팍타크로
##기마
할러
##김현정
##인플루엔자
복날
##모다
유도후
고석훈
##검역관
원두막
생겼으면
페틸에틸아민의
마레이징강
헬멧
##예행연습
반포레
바위솔속
##수연장
##비췄
##창계
폐각
##베링
조미영
홍성룡
휘호
휴머
경남
최효근
##재거
박기찬
교면
최상길
느껴
블루투스
야크
##울진
구본식
##변색성
농림
치루
운남
찾아간다
미뤄온
##최영찬
##목동맥
##켠
렵
##스트레이션
안한별
##배길
##동배
##힉적
서형식
선대왕
근왕
##두루마기
매인
카풀
##스푼
제염
조면암
보크사이트
##수라
##분소
##차보
##도회
박경택
위규진
유음료
##최초
민옹전
호복
전념
정운호
##재정
##렬저항
오병택
고선웅
세담
천만세
유경훈
천체
##동자주
##못할
##번개
박경훈
달구경
오세은
권혜
부동
훤
너리
당알코올
조파판
홀수
레보도파
##크롬강
바지락
##점염
한국문화사
박용예
전주천
댈러스
박진혁
잎채소
지하경
##양도
생활인
##불퉁
##열람권
##건축비
##옥시
##세레우스
숙설
중선거구
##유균
##유효면
후보작
##종전
문다
박서
##방어선
감천만
준령
##식물섬유
##어인
겸화
##둘레길
##부탁
김갑수
수천만
##보통학
단풍당
##제과점
굳어질
세르
기타이
##항공권
딸
오바마
##어천
특선
##김충일
개미자리
조선은행
파호
포토트랜지스터
부암
##굴강
노구치
골안
##챠우
프랑스어
##수임
##발주자
##바스프
##율
##김대욱
경찰국
류선무
기병
##공보험
##커먼스
##연광석
##동변
돌문
얼버무림
##오부
암기와
박승봉
이차순
보여선
청반
자행
조영곤
참나무
캑
보호구
애드립
##뼈대
송배전망
푸트
섬기
싱글브레스트
##콜레
알뜰
##식물체
##호남선
##될수록
##원표
신철균
##전명식
마스크
개소문
류덕영
##영기
##절벽
##준비
##편찻값
##송문
사함석
##분권화
평사량
가까우
시럽제
이미배
##보증금
인엽
류지열
한상겸
계열화
##협만
이우형
페롭스카이트형
##진행자
가로질러
화소분
##루수
##지방형
##코비치
##다공도
##좌령
정석진
이탈로
편비
책력
##러버
하플로타입
이계도함수
강미형
##참모
##겉질
모아질
모딜리아니
밤콩
줄비늘치
추길관
가뜩이나
##광판
연어목
##닭강정
운산
생이
공용
선과
##들이
##김영국
서러브레드
##경실
키텐
##출연자
김선애
##궋
##추착
매실차
기여
스킨로션
땀샘
##건너편
반데
##대승선
신석호
변경
매회
이유림
이주한
외우
브리드
멍이
##민찬
역명
불볼락
천정관
정진주
술라이만
오차막대
뿌렸
푸아티에
신연활자
카무플라주
딸국
접두어
영송리
옮기
막기
육생
임승철
##교회
##구르
가용금
모살
정해정
천연림
##측사
베틀
였
안염
배지수
계청
곽정
원호곡
어치
##서랑
리포솜
가서
풍광명미
##버리
장소희
세심히
##면밀히
##이주석
##축언
##보행로
통일안
논리학
분타
##공일
세스에
고이즈미
##여형
##심단
강정규
전량
##토층
타망
김미도
##브라우저
꼭지쇠
사미천
##정고
옥거울
살림살이
당자
금반리
이행일
동졍
##천곡
##독차
백복지원
##한양도성
횡관
가숭어
비닐알코올
크리프
벡스터
미국국립보건원
넷북
##신평가
사진관
##고각
잠겨야
기울였
적방
타들
효과율
##최만
시험
지름
자치기
##한곡
염정
도출
백춘성
##주주
강철구
신집
출수관
안효범
옥해
청라국제도시역
윤원재
한영
##증가함수
삼층석탑
##가금육
##저사
##생장기
##트로나
주울
느려져
이철갑
##정충의
##협장
##심와
신장규
옥포
펜실베이니아주
용약
##역제곱
##옵서버
극장표
조피나무
범행자
루시페린
성준
##간열
##포면
##패거리
정격값
찬반양론
통용화
박순길
고정판
디카페인
##춘산
최재원
여부인
켓
##현금화
가까워질수록
##깃발
대장장이
메추라기
낙성
무안군
위샘
##은께
회피제
참전하
린스타트업
##해옥
##트라베
오덕순
미터파
강남길
제일선
건비
이춘녕
뒤통수뼈
교독문
임씨
##동란
내맡겨진
그만뒀
##워싱톤
군방
##갈개
덕학
페달
스며
연목재
라니티딘
##단지그
대전체
황종호
기악
산등
##밀알
애니메
##가정의
구안
안재홍
##국조오례의
저어
##후궁
캐주얼
##냉수
##간호원
레골라스
공선
##기하학
브래턴
##지나친
극야
유정남
정우균
정형진
##칼
송영현
##수류탄
박형숙
고당질
리즈
떴
토템
##염색가
##프레임워크
##남규
번암
##구태
수출환
특강
##노정
공장화
미어지
죽는다
배구장
공극도
칙명
##전성숙
알바레즈
##술파타아제
이창헌
노올
발령
열권
늘린
회계부정
주수종
##은닉
##벽용
##홍철
김동숙
진홍기
늘어난다
##수식어
안정숙
이호연
홍화문
벽련
찔뚝찔뚝
축의금
##지은정
##본금
대구대
정동석
군자금
분미
뇌리
사마르
장혜란
말나리
박광우
포피
욕은
이성옥
이사다
리알
신세포
양두용
간부급
윤원섭
살서제
##틂전단시험
##분별
넘어섰으며
페삭주거단지
명인전
개당
이루어져온
##땅재주
##한포
##점지
반짝거려서
견련
##목축업
산화바나듐
슬롯머신
##참반디
##사정거리
##조후
##룬트
콧속
##배당
##바이브레이터
##지미
##니트로글리콜
준거성
클라인
##은행장
##촬
외조부모
치폐
김창욱
최경은
구강성교
품종
##충만
니오
호반
황선웅
##골통
큐톤
겹받침
긋
주속
정쟁
##신통이
황요셉
유용지
##파괴력
용담동
##객유
외씨
걸렸으며
일주
압자
노보
##추웠
진단
플래시
만삼
종덩굴
맑은
질겨
전기전도도
포켓몬스터
정훈목
매장지
간전면
##의료비
최현경
##표제
##뻗
##렬응력
휘어진
##급신
임영희
##저수량
자립정신
갈아입히
시과
승승
최만식
매호동
##참석
살림
비엘
모듈
##가져다
길조
##역질
인공섬
##변리
김정곤
정시훈
##이블린
정해둔
방문자
##안압
밑동
엄존
##탄다고
신혜원
권상진
셀프
##난각
##혈증
조광희
한비
미지근
견뎠
남춘천역
롱비치
의채
##땡
##다천
##스러
##신경자
주야간
비황
유태종
협작
그레
구도심
줄도화돔
무로마치
##장식화
하지
컸었
##판안
##략해석
연주
모전탑
##산견
##대로변
##정력
파종
소논문
공문
문화촌
##성민
남겼으니
과법
##이춘열
천연덕
화형
황소영
임지애
월정
지명인
까닥거리
##능학
불완전균류
배주한
##천가
배원식
왕십리역
자각심
마이트
세속
##단색
##거침
김재덕
태장
##시뢰
산수동
규장질
재공
##태자
자른다고
휘저으면
백향
전달자
##비탄성
김광남
지출금
산업예비군
지처
이기중
##솔
빵효모
횡치
사들였
##회전각
##괘불도
##적비
인말
##팽윤
깨트렸
비교급
산업기술정보원
짚
무림리
보드등
##물론
하이텔
무념
이유경
##자매
손권익
엄기범
신유학
##수출입
의례수
에덴동산
인비인
##기제품
분백색
기묘
정성택
정온성
##들으면
라든가
킬번
베르티
##강동원
박성원
성해석
복도식
이동점
##아니스
녹시율
창양
정상현
물려받
##아닌가
네즈
##자순
##울초
메타크릴산
면사무소
##문호
박충식
폭뢰
여덟째
함풍
##말장
##부세
훈훈
강희일
##상배관
##가쪽복사
##이현승
피스
빠듯
각본가
빔지
김영창
다가왔었
김태철
##토금
찰기장
##포필
##오곡
포르노그래피
##왕골
##칠리소스
먹이양
호차
##황연숙
##압수배
일까요
교향악
납부인
필라티
##회질
##장쇄
다룬다거나
##호킹
청줄
석촌동
스노클링
이정택
개역
시안화칼륨
정규행렬
찰각
명주군
난타
아이즈
원개
금석
간호사
이행연
##퀘
##예찰
낙하지점
유진환
류수
완사면
국산
쌍곡선함수
##박은주
고소영
##골배
장여진
분탄
안병학
기든스
베인브리지
스테이트
김영주
랩퍼
쉬우며
드라
양화석
장령산
정건화
강혜인
송대건
##미친다고
샌드맨
##강석오
살아라
##고서
##자산
범퍼
##미곡
걸요
##유리온실
이원덕
아테놀올
고석하
송예은
편직물
윤용구
구본기
##서지인
##방어율
하루살이목
##욕의
유고
육도
이춘복
조정관
정재하
##노르
박윤석
픔질
완조
신젠타
##엽당
##스피어
##한색
##외층
빼앗긴
##온중
북스
고안
##리놀레산
이가언
정상모
박기
김태련
오오성
연하
배병우
렌프로
경기고속
쑥쑥
##판지
##피다
고되
처세술
사석공
게슈타포
최재옥
꺼질까
위화도
삼각인
계산동
##재물
용드레
포수클로랄
홍성주
##용수철
덧뵈기
고먼
봄기
##포머
##만산
거성
감행
틴트
채병선
트랜스퍼
수원천
슈타
균교대증
임강희
범해
과장법
##주직
봉현면
외정
이미미
조성동
입혀져서
권하
옥션
##몸털
강석환
박춘병
##변풍
세이
피피티
외만
##달체
##어사
산화니켈
들여도
노심
연구윤리
최현택
윤영남
무승부
모래주머니
##해로도
후한서
니마
대율
##필주
괭이사초
매입
##메라
실존
키치
달궜
이왕록
이나스
##등서
바고
인쇄용지
##예술학
제국주의
키플링
##사위
##빨리
조일양조
지두
##바늘
##헤드라인
하이저우만
##성축
##장골
간내
유권자
번역명의집
로트렉
과로사
망동
수류
황인숙
신경민
운동원
식민시
하수오
거림리
찾아간다는
##마력
##수뢰죄
최은혁
이핵체
##세위
##시경
##오트리
춘사
김이
이강명
율곡로
##희필
##두폐
##김우철
##인목
대말
코프
될수록
폰덜
채워야
##시장
##신백
구육
##루자
낸
서건창
용탑
심상현
엮
가린다
권은선
##클라우스
##하울링
루만
강경자
박승용
류지선
##순금
##임계점
공창
황도현
##태만
##조습
우롄
반가부좌
김남호
##폐구간
좌창
용돌이
펠스
훑
이종환
##창비
저고
만하
길장
과학자
##관거
이애주
적기
방접
대기과학
##외환
고안자
벽효과
김성탁
결과수
##딩시
파자
홍재근
금욕주의
##일변
##서어나무
##로즈
##시머
##조수미
비트맵
힙스터
이순녀
진점
일판
황해익
조고
투리
헤쳐
조감독
폐색기
김영래
따뜻이
유승원
##모간
특희
앞장이
##프로그램
스카이다이빙
##유즈루
염절
노출
##엄마
사회극
##고가
##조벽
##연육제
##착관
##급약
나바호
김철기
이병락
알레르겐
##자존
임영훈
최병창
##법무
##네이트
박종철
##부조
사공도
라면
규장
##민호
구수용
전쟁물
##연탄
##소독기
우중충
거도
##프레싱
편대장
황선아
##정보인
남원시
날라다
##자폐
선종
오갔
부의금
##질돌
가크
주민선
민속제
등기법
관광특구
쌀새우
윤현숙
##홍필
박가현
##인공섬
시맥
캐비테이션
배익순
물려서
##텐다
브라이스
최유영
이태권
장희철
구나
##형정
이병혜
옷의
풀망둑
풍성
##무대
횡압력
롱스커트
##바라기
장당
황화수은
##특별시도
##채선
##비전론
개구간
수합해
교감성
배분
##단거리
북북
대외경제협력기금
점액성
오대산
##후초
이은혜
포미
원태
##발컨
펴졌
파멜라
##카이
##가지마름병
##육진
##성열
##박달
오만석
횡경도
##먹혔
장동혁
의빈
활판
노상호
회장
위조병
##함형
홋
##츈가경이
##대요
김채옥
중추
파라가
검사계획
##허당
내륙호
##셈법
##제학
##화처
약해진다는
박흥균
암흑성
장예지
##총론
가디너
##하장
디밀
은중경언해
구성
판저
수문리
차보석
남궁은숙
비타민제
대한조정협회
철골물
북괴
송홍엽
##민주
##총점
레졸
이재돈
##야생오리
##점구
이지우
##추측
##준비서면
지구라트
타렌툼
움켜진
고막이
느그
임창훈
청룡산
엘
천신만고
풍차
화예
북한학
##용례
반디나물
주아영
흉곽
##코비
은숙
이종건
파프리카
혼탁액
헤어브러시
##스트립
안심동
##결산
이재강
조은자
##달통
##카드리
한테
비가림막
##광고란
꽁이
진중한
정용선
##수열
보길도
함게
##보화
지오다노
##늘상
열립
##청별
갑주어
##채워
의간
##표우
엠파이어
빗접
##진형
구성조
지체부자유아
후배
쇠물푸레
##달맞이꽃
##집산지
##보행자
관천대
망부석
##공간군
윤기상
분선
페결핵의
##감주
바르샤바
얌
##구제율
##각수
변의
##극궤도
아세틸셀룰로오스
안전색채
견유학파
시환
새앙
난색
목욕통
기본음
요구
우분
요관
판교
한스
##릍
박형래
##정진원
쓸어내리
트레버스
정도환
##수공
태초
##교양서적
조노
지상현
##패션
면자
여생
나아간
낙농장
값싼
강영욱
이카리
모네트
##박근
서남원
##행나무
출혈성
##미칼
문체반정
남승완
장문
윤지욱
이승우
취임
결정편암
##육장
##예복
##라우터
##듀스
지필
실레
아닌가
덧붙여져서
피임법
언어교육
곡선동
예컨대
윤회주
##만청
김현관
경안천
곽창선
##신풍
이귀봉
축약
##호문
세네트
##우이
오상룡
벨링스하우젠해
구본열
##윤업
##핀수영
서경
초밥
##량식
교도
폴리
##하반
##심의위
스마트러닝
프레스턴
배성철
##혼합조
##황나
원유승
염장어
##계획서
원자단
삼산화안티몬
배추밭
누대구조
맥놀이
판가
미주리주
뉴스그룹
황혈염
##집종
디버깅
한태수
##연니
##곡각
플라이스
씌워서
권동오
권기한
##냐니까
마안산
##상포
문장가
##기고
익위사
여석준
##아송
우려감
##김한수
##엔디
최천웅
성회
##듀티
##건남
다름
##아라이
##수구가
환몽
정인영
##의중
정향
수돗물
##마령
초미희
신홍경
##자선
작도
##조성찬
##변희룡
##사원수
붙임성
##체증
장종훈
##치조골
##토전
두천리
봉은사
##이기돈
데이코쿠
##천척
전깃불
##친화성
독설
문보경
빌헬름
정현교
개과
탈구축
##신세기
##인용
##두루치기
창호
고서화
한정일
두근거리
##프리키
물가자미
조옥귀
##특발
##광성
##결론짓
증보
##태청
중봉
고삭
변상현
뼈진
지느러미
##항량
어찌저찌
##씨엔씨
##패드
조철희
탄소세
권갑
밝혀냄
부준위
##논다
진수장
장명선
서걱서걱
##햠량을
##가묘
홍사만
드러낸다
바꿔도
##육종
에단
동격
우즈베키스탄
근전
몰라주
##주재관
##시나이
이해충돌
##피낭
드리워진
##생성자
##레토
내무반
너른바지
권재성
눈썰미
손승철
저류지
##어서리
감국화
강윤호
돔구장
서권일
족쇄
산산
미륵봉
소축척
상차가
##린이
현외성
##랭스
낙농품
크롬몰리브덴강
남해도
상재
이주형
허남문
디오르
헛간채
앵글로색슨
이춘우
돌담길
화태
##우이동
문영래
박범진
##틂전단
적령
금령총
전위계
##화이트
로페즈
##선매
들어갑니다
##형성력
##권순석
손승혜
배창원
성두
진즉에
그리웠
레이더
팔아넘기
구명
불거지
##추조
강한별
벙크
##농기
짦은엄지폄근
남포방조제
용천부
국승우
전미정
김학이
알레그레토
##허용정
##갑두
익힌다
의해
침상
##집교
테이텀
구자현
##글편
황근
가래과
##재류
홍일
유처
##후란
알록
툴루
텔로
톱상어목
용버들
억압자
매터스
지달
##리만
편강
##운회
급훈
##막대그래프
김성초
회내근
합쳐저
신청서
빼돌릴
닫치
강영민
윤도현
내연산
##동평
박지명
밀즈
오리로
##김주연
엑스선관구
쇽업소버의
호라
일본어식
입항료
##치커리
##빌더
유선우
##한규영
구성비
실행
##이연성
##맞췄
##아타
##수상기
출범기
벌려져
조기형
상해일
##변전소
##섭이
##청결
코더
황정구
테트락
고현리
자격상실
무생물계
##고수부지
중심점
예제
설비품
셀레
##류월
고등어
##만을
##영수
개별사건법률
김천일
##시비
##마법
자연낙차
우주호
사트라피
북안
운주
여흥부대부인
복합제
##그나
##동희
##일품
프로
##봉강
자유상
##임영
투항
퀄츠기판
##안배
박진식
도치문
##트랙스
장웅기
김광만
##원정군
포장비
차왕석
##소외
크롤링
도해
##샴푸
강중구
빠져나온
들으면서도
꽃수레
##유의차
발조
고식책
하동준
다완
세형동검
야밤
정대훈
낭
이세민
##제표
##재림
김정주
구현모
동광주
##데온
##김철희
구의역
##소타
##타케시
##피분
신세영
##필두
닥지
뼈져리
조합비
소싸움
아안
##섬모
사르곤
감은
##환한
##융식
순수비
모세관수
훼
히드록실
명시
소수점
##애원
박희천
##누정
##상색
##화대
출타
##동토
##환기
##번한
차가워져
유상정
피독
린뱌오
온마
##열기관
항성일
야키
##앙양
모로코
진경태
##타낸
프로듀서
노성진
고지혈증
되뇌이
강선대
##코사
조태남
##접안렌즈
황군
쓰러진다
식용유
숫
의장
##원두커피
평양지
박혜성
호창
##착히
유한길
이종빈
자바인
지리바꽃
송신기
루테인
중이
숙사
헤맸
주업
전라북도
탄계
##임은
##지출부
##안정세
초막이
##경희대
##니고
돗대기새우
대상시
양식화
고기후학
뒷부분
뜨거워진다
##닺히
정신계
시류
##외연
##밀로스
러버링
생필름
##웨이트
양질화
한상익
##매점
구루마
##플레이스
동회
갯질경이
올릴까
대건
켄싱
반사지
소성공
##곶
메틴
위생국
원림
##쟎아도
총후
구춘
##혁신력
부담감
독도
소매상인
##성벽
유삼상
##김이나
##세문
##신용재
##문제
##암벽
살충제
##감열
##장군봉
##운재
시광
거부형
살바도르
신종인
유자망
유수역
##계단식
여성주의
##염공
벌곡면
##자교
조태오
관할권
진태하
국립대
유현진
전구기
새우젓
남예
남긴
스스럼없
시민법
이영
광디스크
##박한
##굴헝
이난경
계사
환율제
##양속
##리놀레
학여울
송은주
뼈대
##구백
##안의
독식
세모꼴
길눈
우람
박성선
##용절
허락
신동헌
강현재
입원율
탑재기
선수기
오훼
환투기
과학
##실생활
##결관
##다치
고병열
한정선
상급심
##닥나무
##원집
까막사리
##조선철
대체재
하병주
이상일
라파엘
연분
대공습
심은진
책의
##밀양
##유기음
##외직
불실
별내면
국경선
잡아들이
합쳐져
비교적
무시로
임창희
##할진대
##우발
약속
링컨
계제
이강혁
##최장일
이차돈
영리사업
낙제점
##렬로
중일본
김경련
수로서지
페널티킥
용화사
최인기
신기선
##전귀
엄미리
오지혜
##처해서
공공복지
##게재
로
복화술
강찬형
이동열
이병복
##공급사슬
##엠에프
알싸
순배
포배
봉독
장극관
정순모
일어날까요
##윗부분
##스탓
맨다면
패턴
능철
메마른
발행소
파운더
사술
비안도
사무직원
팬지
##연신내
암청색
온천장역
운동복
##석민
알류산
병존
이상로
##등질
최선영
뽑아냈
메이트
이마리
##착향료
유무
##수연
코믹스
기계가공
해진다
나무다리
배토
##합변
##착유
이란인
온천장
자타
정부현
슉
##떨어뜨렸
랴오둥
작업가설
불출석
민병두
내을
눌려
스위치보드
다종다양
보조비
경폐
죽재
고설
에브리
##고게
평창
의박사
##박상선
구자중
속생
관점
##적간
판티엣
들썩거리
##고수
긴꼬리
##쌍자엽
코웨이
고적
##울릉
마당질
조영우
이백철
허리선
레셉
김지화
서양화가
##유량계
오가리
겸사
삼실
접착력
소소
소머즈
앞설
촤측
##휴가철
##장치도
이계연
김상언
경관영양
근부
##래이브
중연
##난통
도와준다
미시간주
##타닌
##다영
래브라도
금일읍
킹
##봉화
행정관
선상인
##영당
##빼기
맬러스
장준수
시크교
노마디즘
##류위
쪽방
도규
##끄러
낙산균
아스투리아스
##김홍민
학회
사나워
나룻배
정완성
성태연
부시
윤기홍
제돈과
상측
내륙
##애역
흡출관
##배단
전기장판
쌓음
송인근
당히
한국인삼공사
교설
서양화
병원
홍석우
이동순
하와이안
휘둘리
##면충
선전전
##유산지
비현정질
##오론
슈왑
비석
헤트너
난알부민
논개
위절
파성
##린린
트라이아진
강호순
##접합부
가호동
떠지
필독서
밀거래
부착기
비견
세시
윤지민
젖비린내
##근순
##단비
로요
극지연구소
##물질감
매물
순진
정삼각주
광탄
##체모
백성준
##패닉
안락
허기복
화분낭
##보존계
박행
김성휘
트레몰로
군계일학
투표장
안젤리나
박세웅
##주기만
간당
석류풀과
뚜껑덩굴
아라곤
신시사이저
김두완
##오현
이건기
최성원
귀틀집
조민하
##강찬
##낭중
전구용
수급수
매죽리
##공칭
뮬
강모래
##정치가
백본망
내불당
##더부살이
신동아
지망생
착종
유희정
임용석
##혼영
유허
무개
지진파
박승범
류시욱
블랏
신학진
전상엽
스칼
상내
칼바람
기용
우정하
측백나무
개인상
##와흘
왕진
삐걱대
##목욕
모래찜질
##소똥구리
기산점
야부우치
외국선
##멸균법
행정심판
선순위
지식층
지겹
테퍼
삼천리
클리브랜드
신영수
울려서
헤아린다고
뷸균형이
도망
원호회
##돌봐
저류암
##전송이
##기로
차주영
재천명
시의전서
갈조류
##색병
구축함
##종무
##결역
##불치
##경영재단
저사
##작용량
##굴삭기
은둔사상
소요액
이창환
와일드
전성표
##안동정
장은하
최종점
이종욱
박막층
대수학
양극
관급품
프로작
강서중
만다고
얼룩덜룩
##뒤치다꺼리
파운드
##국유
체당금
인상기
군사규격
실히
##학선
장상
##입용
페나
##시천
분패
마음놓
벗겨서
##위매
##매출액
단산
식민화
동촌리
임종룡
통고산
##수령
##수집자
근중
준공도
박경화
고프먼
짝살
실체법
이근삼
물새
##군위
덱스트란
##렌치
##문광
정대
얼룩소
##샤넬
미래학자
달러
충직
오정애
챙겨볼
굴절도
##조르그
##인비
이재춘
강석윤
고수연
부정합면
방국
준다던가
##어단
변정환
융자금
##소듐
요석
##근지
신락상어목
##단사선문
##속질
엄함
##분배비
김순규
##류명
채워졌
당뇨병성
숭례문
지준구
흐름곡선
백성희
이뤄졌기
구준모
구경비
자등리
지브리
균혈증
##이완범
##일까
##각비
이영근
문방구점
공모자
박대진
구황
그딴
임안수
##승양
나승우
류춘렬
케케묵
잔연
##안팎
##본뜨기
성대
그물강도래
민영규
##부운
##쩬
##프랑스
나팔고둥
중앙교육진흥원
김치관
신정호
영척
수벌
임현준
병서
주원자가
##한섬
비품
화들짝
신상품
이혁기
채텀
##유은영
상채
중간보
수마트라
칼륨장석
두지수
##각기
##조개류
##용승류
권준형
물래
영업력
킴
청초
##장운
##시그널
##구릉지
##카메라맨
##목간
유동완
##무일
##타당도
환승역
##피고인
##빙하성
든
##통공
##흘수
신태식
넓힘
##경계값
알칼라
##상용
고상균
길상문
땜
김겸
고교야구
송경빈
##푸도프킨
##장속
##케이브
심한지
슌야
우모
선정릉
##제작사
익스포져
정양숙
김설희
유리체
음경
##싱크로
##환류
##이브스
샤우어
원청길
절면
##디딜
혈훈
##히어로
내려서
차용금
##건국
##검정콩
형제간
부드러우면서도
석출
집주
곱셈법
##교함
신촌항
개여서
꽃게
##상단
남기곤
강길현
##레이브
##김대중
##열약
협박조
다이토
##헌안왕
윤영웅
홍석범
음엽
챔퍼나운과
국어사
##우인
톨라
주무정
도치오
희맑
감각
유소영
##겸구
백선민
컨버스
구매처
강무현
##해본다
한화진
임찬빈
윤근
유혜정
박봉주
##수용력
##고사리삼
김대윤
##행신
##솟
라우너
향공
##의경
우스워
##직각
노수용
##탄젠트
다핵
전영자
불갑사
우심실
제네바
박중곤
선반입
생
##장수
유세연
##엉덩이뼈
덴코
##회음
##르네
띠장
권민택
김무열
##모동
##음정수
##영일
박준식
##골키퍼
설골
##게라
고영규
맨체스터학파
코메리카
당사국
김강주
김혜신
##비계
위해서이며
시작품
##월도
##초우
섭
공극성
##레메
배준형
문지른
금호
양심
마름
회색질
##김석우
윤일성
손기락
김만배
성지은
회의자
프릭스
##리안
만주인
##목뒤
옥기진
향점
동지공거
얹은머리
촉의
##겠는데
##뿌
착화점
염시창
권동수
스프링
##교정술
도서대
돌아오
##나일론
##갈까
##일상
싹
판과
##배나
보퍼트
##몬테
##저항손
마리보
##강의식
스콜리
사피로
박동희
##끝판
해당주의
프로파일러
변상요
##걸린다는
박병래
##방한
고섬
##파군
오르내린
마르소
헐어
여본중
문연심
비엣제트
일어
강천구
산란
꼰사실
한형수
신디
관현악
##가변
동북아시아
치환기
생동
##지하드
브레
##가류
##강구조
전상원
김만회
##날숨
퍼렇
점령군
에카르트
주재홍
##강열
쉐어
##발피
옥류
전정희
황상무
금과옥조
맞주름
##용마
적황색
##화반
##차개
김범용
##체커
검회색
프롤린
##인덕
배명진
##보호선
돌발사
티몰
수산청
##칩과
봉대
파나소닉
이근태
훼미리
##황혜신
##스윕
누그러질
윗수
개채
지겨워하
##정사유
복자품
필사
##파조
##이장욱
합집합
인문학
마은
유원규
##본정
##사원
타이완
##사예
한건희
교실
노총
##붙인다
신의손
다인용
정우수
##처짐
엘더
김권수
탠
초소
칩거
건조도
한지
##족계
마관
미래파
상거리
정수훈
윤상우
대호지
여하튼
정금리
유동식
착각
관장
##린르네
신용카드
잔득
##첨의
##애플리케이션
사집
##깅토크가
이창남
인도고무나무
고병현
연가
##고고도
##황의록
언사
##으려야
##강효진
앙페르
장인어른
웹진
김윤민
##지원상
무스토
##약식절차
명암법
임성재
송파구
맞혀서
큰원추리
뜸질
쳐다봤
완당
##달팽이
손맛
##극궁
##소방선
##강쇠
바얀
포물
찐쌀
합의부
##홍섭
##하도급자
악양
##계육
거버넌스
조상범
##광무국
금천교
러요시
주권론
김증임
사령원
##피재
도로
만날수록
고무신
드러낼수록
말뫼
##착비
##라플라
서경석
##체계
법속
이주인
한인택
엥
투석
홀소리
대필
진닝
안현숙
야하기
홍범구주
문현준
##농업지
주법
아폴리네르
##전답
이경우
라소
워노
별관
##당파
휘류
##혹등고래
서규하
##약주
흉기
##삼척
양승옥
종묘사직
들괭이
오의
빙정석
##도매상
여름
신위
##분해가솔린
##장정식
##야어
##일호
보류
##기능사
서응
모셰
즉사
##깨묵
매끄러움
게오르그
외제품
토회
심홍식
여성향
한상인
잡보
##붕산소다
이유진
##비경구
장민우
뜻
기하공차
타래난초
래미안
암각
김재순
윤성혜
##황우
##절면
##량풍
노문리
윤중현
##강약
##갱신
##반량
##신광수
##핵의학
##내석
##프레인
되
조평
##퓸공급업자로부터
눌러라
강진성
##중휴
착선
튀넨
페센트로
모현
복제기
동남구
##코튼
어려워요
고려홍
##졸로
골라인
윤기택
##인천
원주각
##이윤철
댁
향적산
##선경
악필
확대
##안료
송인자
비셔
유잔
타원뿔
##저항기
불천위
판석
##만일
##위하
##겐
김형보
##선시
##세만
의담
가랑
한광호
쓰러질까
에헐
##기관수
##흡수계
맥파계
천연수지
투기성
놀렸
막대자석
##트레이시
실패기
폐정
부드러워진
구덕리
##동맥
용혈소
후륜
박상일
엥크호이젠
부동시
##기갑
##박주연
향비파
교정청
##므드로마을의
지성호
기어감
변동현
##평직물
프로필
뒤덮인
족소양담경
##받쳐
##언간
양남
##미셔
##우성
십자배열
##탕수
봄배추
나락
##척
용면
##외장재
어른벌레
신암동
날개
이해진
##마이드
밤톨
##적층
공모전
##다더라구요
##산선
의결권
미라이
기환
라이더
##중학생
##퍼린
단오굿
지저분
##현측
##혁명군
글리콜
##건폐율
플로지스톤설
현진권
급진
강구연월
학성
##섭취
달구벌
복사기
##고본주
아쿠
몬트포트
심설
배양섭
신차균
##아볼
권정혜
수신함
##나선
날짐승
##코이드
박남철
트리피
##분일
대목
##명관
목장갑
고용자
##위즈덤
엉덩이선
선주
겸하
##탄회
사계절
##파빌리온
옥답
내화도
##촉의
각분
##강재
##그려기
격자무늬
##종별
조수희
출궁
속벽
나아
##오조의
##색표준
플레인
기양
곱상
##곽전
##유기성
##주취
##상실사고
첩살림
승화
트랜스미터
바우만
치포건
슴슴하
문준연
##경기
세장형
클리커
##개인세
칠일주
갑판실
##올린다면
그랬던
하념
청록
하네
##틂전단실험
##완인
##방복
사운드가든
##안연
##오수관
##된목
충주
끌림
차종희
와중
장영희
사민필지
##옥기
켑스트럼으로
법조
조인준
##명화
##신화학
가져도
품관
기사
방사선량계
세느
##호행
##투한
이윤령
##입소
##기염
서여주
독사
##반가공품
조중길
어량
추념
맥위
베로니카
진흥책
##구성요건
##시칼
구본능
유방염
##풀버
최종인
안나푸르나
욜
##쇳물
##나찌
이동설
정당방위
##한다
맥노턴
##글리세
총동원령
##헬스
시가
##설정은
손상근
강수지
##소물
가옷
##엔아이
비행등
하숙비
##옥창
터프츠
##퇴적물
##낭관
욕
##참조팝나무
##스타일리스트
권오설
손태호
성성
금동현
##아홉
##플로린
##간극비
##이진열
##수막염
북한자료센터
외실
하정민
##용양
박문기
##메웠
이희주
철골빔
오드리햅번
##청자와
현기증
한도액
핵가족화
##역등
그래미
지사학
따라다녀
준변
슈카
각
어처
모집
구동우
이탄
##확증
웅동
흡입제
세차
찢겨져
쇼콜라티에
회외근
람지
##육성종
##비면
기공사
인청동
등신
##버글
##꺼야
##확률론
요오드화메틸렌
내질렀
영보
##엔스
연석회의
함재
마당
글렌
방도
새서
고기압
##짚대
##홍종
##전업농가
자이로스코프
부서져서
선등
##문승
##코포
끌어당겨
속일
병풍나물
이중보
카터
##보쌈
콜드퓨전
##크롬산
윤영조
주형욱
최재하
##오각형
##국제기구
##테스트
성대히
토
태프트
입란
경명대로
문호준
홍주화
##지방알코올
후생노동성
간부전
약장
선수
##라임
##푸샨
평원선
##분총
임성혁
향요
##전달품
월포동
빵집
조세영
표준물질
이경국
통썰기
간질액
##치매센터
기억술
오므릴
다푸
이작
소니언
생산재
노관규
동백리
팔달
옻
루스키
##폐심장증
##장운영
##산란강도
##무력증
이디티에이
바크스
어울어지
평라리
##국제중재
한정동
파올라
민곤
여그
이태행
박성
##연체
밝힘
##전어
##짊
김권필
정철순
꿋꿋
##수지
##립지
순백
학교차
궋을
탁자볼락
##김의준
최희윤
##목전
쪼그라드
만조선
예방
전봉희
대모산
##제척
##진퇴
##유송
배상한
게다
회자
자생종
##사하중
산신제
남일
##경편
파일론
##숲길
길옆
김문환
퇴적층
##이어졌
##로동
중량
##장취
##판진
송진섭
윤준
##수지판
재소
##곱창
민영은
이중희
##게시
한민
##버팅
복신
읽혀졌
이광용
##안유
잡유
##퀴즈
##광환
구호소
낮췄
##당장
가상존호
주렁주렁
##코뮌
놀린
자은
아닐라이드
모센
##능강
패의
재료비
용중
아마직
테라칸
하연섭
강경헌
##한별
주성민
철도교
정석주
##무열
신현권
##제병
패퇴
미역취
파랑이
##슬러리
비워둔
길핀
##의학교
##부린
웅천천
김진광
##외호
기술공
##에이전트
##공진법
##조온
관연
소찰
정준기
개평
주변화
시우
##윤경은
교래
##티람
폭우
수창동
신연
몽촌
스타일리시
선전물
쾌적성
뒤집어쓰
초사
공드리
도머
큰달맞이꽃
정성희
소운반
끌어안
천매암
가메
##한국기계연구원
충절
##최대용
##세나
중질
##국산화
만진다는
##은결
##비뉴
##외교비
색소폰
규찰
강연희
강병수
김용미
더위
##민성
##부죄
이상주의
양승민
##노면
양광희
녹문
딱
##최명
늦춘다
배근력
##숙태
함수론
김범수
핵막
수입세
##중핵시
체첸
이오타
##타원체
박초
북카페
##스타트
소화력
김상휘
부파
##한자
장만
##젬마
부형욱
하대
##온습
목균
##구판
방울새
희토류
타모츠
강강술래
조장희
명백히
##가능
떨쳐
유흥목
고수복
박해미
오원
##난관
윤성기
개인용
교차
트
##퀄리티
##맹
탁상공론
성수채
##스투
##게임즈
포어그라운드
##풍후
이장렬
##드폭
##패옥
##칠지
양륙
##통어
살균법
##정비소
일반도
나파
간위
신준용
김규효
거래소
닭의장풀과
상덕리
##차멀미
##이스터
활쏘기
내고
##도저
이희연
##행건
전원배
아바론
녹십자
유진상
호출기
비아냥대
염주
꽃장포
##크램프
화극금
연안선
장심
고깃배
쌍꽂이
##토만
##골격근
하지나
기관계
옹벽
인요
당길
##취미
##수성장
##평창
남정호
목쉰
새틴
아아
큐벡
고대현
##프랄
어지럼
통기공
##께방
칠교도
과외
##아양
방보
나졸
##기중
소동
단월동
송윤근
##광원
출구
##별궁
##팔의
배추통
##풍부도
소국
삐
##밥식
##하이머
경일
##리그닌
##예선
손해전보
##전기장
초창
##바구
##셰드
풍비박산
선형종
##일으켰었
자연신
한의
맛술
정미화
통탄
투닥투닥
살폈
##필설
박래경
마운틴
루두
정항
##연석
김란
장고항
유나
즐겨온
조제
##회첩
하룻밤
##제협
배고파
##음변조
떨쳤
핀란드인
가수원역
늦
##른톨고이
전영주
##인감
##우선권
어색
돌개
윌콕
살롱
##채결
카낙
소증
남교
자기주
사그릇
떠올린다고
논리식
##미경
##층층고랭이
##긴다
황응연
##좀꿩의다리
##탐지
급정지
드러난
듯한데
유승
상궤
해쳐서
입체전
애슈턴
##앙이
##고조파
강일준
##탈립성
##축상
조민선
운사
녜
##검사필
총세무사
비판주의
비스콘티
##사육
산만성
##제주항공
몬타나
서태
쥐
##찹쌀밥
정봉인
김종봉
광암
##후비
거시경제
내다봤
##영홍
장현선
신면
피막이
오플린
저메키스
##퍼머넌트
##모계
서인균
정성
##김선경
염화칼륨
감귤시험장
탁지부
깜찍
이용삼
레스닉
하이재
##엿볼
왕후장상
건드려
##운수업
연관재
##맥병
김만주
양감면
빨아내
고혈압증
아달
골칫덩이
단기성
결정품
디아조늄염
권태
위요
제곱합
##안전벨트
최영목
전은경
퍼시벌
오호리
##명의인
##패브릭
김우열
원유성
##부형제
선판
##삼선
##자옵
사후
부이
헤이하치로
건목
인공호흡법
##이엄
늦겨울
락앤락
두리안
경동성
##아르마
최영화
권수비
모잘록병
보안등
김종헌
위풍당당
##요실금
##통행권
무질
##갑을경
베페
최수훈
김덕건
부녀회
서소영
극품
##동과
임신
구차
간엽
시드넘
장제스
일그러져
##성생활
연필향나무
휘돌리
영상미
도약력
정은아
마실래
잦아질
비닐하우스
안면
장세원
잠공
하라리
오카리나
##첩적
출급
차광기
김응환
봉황면
##피운다
홍건
이방자
그리워함
안형준
##김정아
##바우처
이진원
##징비
찌
첨체
카렌
속도광
##추후
스노든
유릉
목재소
그런디
##탱커
수년전
보낼
##브링커호프
김찬명
신당리
풍호
##복학
아바나
##아무르
조종국
중핵시
##윤종
##잠상
송승연
##위연
##능변
##윤동
정재석
##딸
윤홍
##김이배
평형설
크로스바
겨레말
연마지
끌리
이덕권
겉치마
서희석
문장수
엄태환
적적
##전개
##형각
애기거머리말
콜웨지
##잡단
##폭행
통학권
준결정
최연왕
##세대주
원심
좌하
재워둔
탈상
맥국
변화순
##라엘
##완충제
씨름
곰의말채나무
충기
유분증
##진동주
없앨까
이안
##툴리
종목별
##목욕탕
##공기실
스퀴즈
대북
##니깐은
유영상
##속적
##알루미노
군위읍
##염진
소유
분수공
모조
##티록신
##고리
클래리
김지경
위켄드
허성기
바친
안옥희
##비만아
따슨
갓모
##유전체
신용인
국민체육진흥공단
에밋
까를로스
적설계
##오윤성
서종철
접촉면
##요결
조훈희
브레틸리움
##설험
##겹치기
##쿠마로
##항상성
팔뚝
합성수
##안드로이드
봉
박주열
행패
떼이
황승미
공한지
##박순찬
불노
##티
##거국
##켙을
제물론
방지기
조수익
극상
##피딩
전자음
메인
##무용가
##륜형
잠뱅이
##루터
속이
배성희
##배통
최영호
창매리
장일식
인각사
연노랑
백운거사
##야영장
나병문
증거조사
눈썹
림보
##수임료
##심재철
금경수
윤성혁
화전놀이
##다아
출납부
양도인
##세스나
##홍미영
토픽
##문직물
인리
드럽
경음악
신등면
비디오방
중주
몹쓸
모빌리티
##사격
##담배인삼공사
의기
방화대교
##직모
이경량
##청원
궁박
##적계
##측랑
공동수
##에제
동치성
##전인자
##칠보
특별
무박
방수화
잠세력
##미즈
##함흥
펑라이
강수차
##든
##변상태
##황자
레스
산악인
노계가
##여염
등감
캐미
##망년
##스러울
압점
김형성
미탕
도서관
호로롱
에워싸이
자강
##도석
박돌봉
통가
임소라
##상찬
##나왔었
페릴렌
##세미나
갑작
##증강
##땀
아크릴산
행가
공영사
스쿠프
##띌
된다고
해상도
##지극히
신정맥
실인증
역린
##배종태
노스캐롤라이나
안병찬
도령
##입회
##견루
쾅쾅
임계수
##특명
그럴싸하
최진모
##담설
##최다수
타케다
벌어져서
##양자
안식년
##올
하지용
채숙희
카탈라아제
고출
##문향
고홍범
문철진
김선집
##어링
##제조품
##묘산
##설렘
가목
##아르고
##틂거동이
어려운지를
대려
엘코
유홍석
등록대장
일체유정
##세항
정진완
##메논
한성열
##메틸셀룰로오스
이점선
편치는
##오더
스미다
##후미
##고문단
##결정질
##청분
엔터테이너
정교성
황의형
면대
소설
공개경쟁
여음
##해선망
솔개
딕슨항
추효상
정진영
풍운기
박철재
##중복의
##출전
김완철
단촉
##방략
모제타
속도선
##송림
골드스톤
##이병천
한영호
성책
사조직
배종순
##시체
박대우
암전
##비버
브리핑
##두장
박혜령
##류방
조윤구
비교인
산거울
동메
김주관
이백현
##은채
등록제
##사제공
정순희
나노
돌아다녀
미용술
조건
김기선
##불어
서종원
다급
진남포
나아요
골풀이
정민교
상공업
##굼터도
##저회
수증기
##충재
열실
노수현
거버너스
##적탄
##쉰다리
김성구
##차향
##숙설소
##사친
##견교
끌어당겼
##상미
남미주
뒤탈
신문지
기준계
동훈
문어포
신원동
지암비
경운
##관직
##능행
##일주기성
계육
매화점
정구
방답
칠산
##서단
##염간
라샤펠
병시중
정재완
김순애
달랜다
##백홍기
##처군
##위즈
##질화강
주제도
##문화축제
##기디
##동처
##함몰
의속
박은숙
김형락
속곳
이중권
정택
베트남
남현욱
수캐
장순웅
어
##아무리
정수선
살아간다
##챙
조양강
한수부
경로계수
모아뒀
##히드록실
##탄화수소
쉽니다
##나사이음
써내려간
김호범
난포자
이승의
대조사
하위어
포트
##자애
선우현
옆넓이
##경절
##미동
현대시
장고
사로잡혀야
버클링
전성한
육개
버려요
조진현
어휴
족대
흠집
##수행자
##젓개
대항동
인류세
민춘기
##옴부즈맨
베게
##가인
성가셔
충무동
닷새
차장차
윤창호
소론
##낙농
횡령
난전
으므로
유학자
재커리
##비후
쿠데타
윤순옥
정성기
장수말벌
##실체화
최후통첩
도우심
##최고도
외교관
냉철히
##인물
붕어구이
흑체
극성기
##휘
별맛
데비안
집구석
로물루스
##화구
##부근
봉긋
박미은
제갈정웅
조르조
엘가
문금희
##교반
##카우치
부준
##따개
디블
간접세
박인섭
##암류
카길
##컬링
유니레버
근연종
##끼운
박웅
##통적
##두승
드멜
##우회전
##준걸
한수민
계내
##보재
##침시
##아세트아미드
##수정란
최명호
대통로
기적비
내분비기
##제로
탄전
옥보
전은선
팽팽히
양람
##천총
##관경
우성
##화성
원양어
어두울
##치술
##려거나
번쩍임
문옥표
시말
쇽업소버는
세탄
이성신
서광선
윤현식
멋있
##시켜도
병태
##재활용품
황궁
헷갈릴
조발
##산운
타악
##온단
홍덕균
배어난다
##고리바지
##우트
담석
계량컵
이한울
황산니켈
날아오르
가벼운지
박두일
운전기사
몰아갔
천태사교의
아이린
목작
극추
##시강
가상구
김해천
##쉬크
체스트
엘비스
##쳤었
깨끗
모여든
늘어난
행수
##몬톤
고리버들
아이레
법률학
장현승
받침
전영권
효종
리턴
##유양
법환
##리플렉터
산이
김아현
겨자채
##전영
##돌산
##합동식
##퇴단
교대군
네트워크
##성범
마다가스카르
##쐐기
##야하기
계림
시무식
금강사
됨
루틸
기견
등온선
골타
더샵
##탑원
니트족
동뢰
##침전물
뮐러관
##반촌
정상국
나뉠
##토했
정지혜
니시노시마
신온
추거
상륙함
다알리아
으려
주교회의
거듭제곱
##회귀율
깍둑썰기
정승
##수집증
숯
월즈
부스러뜨려
##동하중
열전달
선혜
반타
랄리벨라
글루타르
##농학
장종관
측로
바다열차
##강과
##암석학
신기원
나이아가라폭포
엄혜경
은가
고무공
와들
대학원
이창완
내놔야
순역
##소형
아이스링크
##지파
정종상
슬그머니
허재용
초한
접어놓
하승철
##알데하이드
담보부
이재필
윌크스
녹막이
노랑물
유리지
포토레지스트
줄때
##랜
##집개
박용선
뒤흔든
최동원
##양태
풍기동
연골성
##허혈
##당절
##랜드라
##동성
아이노드
민광준
함재기
터크먼
##오른손
##입점
휘동석
컽보기
다모
##노정현
##불순
##각자
##사온
배추김치
두들겨
##장주기
생선전
##수진기
영화동
##련제
##신증동국여지승람
김봉주
조규성
등심선
약했
##콤
이인향
한조몬
앉힐
폿트묘가관행
아키라
##지주사
최영로
##권내의
##략양상을
임한욱
소요기
박윤구
##술가
말엽
중외일보
풍겼
오토캠핑
기른다는
결행
반신
##청약
고준영
푸자이라
도란형
보여야
페러
이규석
##목신
##대주
##죽저
기성품
때깔
장영봉
오종규
이문제
정원우
##생풀
미분기
치료감호소
만곡증
김종린
##배틀
##욕생
부축
달까
약고추장
앙투아네트
##간과
강림리
수직관
후쿠타
##파노라마
강우방
##태소
젖먹이
유인목
##팔꿉
보리된장
강수량
구판
테크노스
똘망똘망
성남대로
표류선
배재민
##가장이
##그랜트
서회
수유성
##이오현
양희원
##투통
##당할
##강지
진영주
박금란
##멘도
양생
위성공격무기
##적노
강압제
하드만
##약물
##쾌정
유전물
아래턱뼈
피터스버그
##정재하
겉단
양식집
##왕래
김건영
최인환
정보망
##부군
김인규
김환석
##반향
##근래
##병요
박해용
울고불
##치전
##향찰
실프
카겔
철술
##항송
임은기
주기율
리미터
조운동
옥살산염
스태그플레이션
백현숙
당초
생석
이정림
네프
##아고
옥성리
##강화군
다원유전자
내시사
##등전위면
쥴리안
##난함
평바닥
김양오
관함
섞
놔둔
##전환로
조한욱
##문예
협동조합
번번히
채깍두기
잔존해
##을께
드세
##시트룰린
담자
아우러진
##실래요
##단정지
냉하
##배저
아오자이
박태호
브로튼
추강
이광범
##증성
황정익
비인면
뿌려져
##타래
##로빅
##정보
##올기
전종화
##누누
송재길
작동식
정고
겹겹이
##아매
이문구
나용
##암장
##스럼
노혜련
갈
##휼비
양손
투사형
된다던
권경원
##더만
사교도
문병근
##배임
##온경
##틈
##난유
포어
##황세줄나비
백성혜
원진레이온
##포르노
현단
키보드
콜롬바
헤센
염하
을사조약
보였
하람
가로세로
흥선대원군
단풍마
김재성
공산품
음향학
##때로
오스
박준
버텀
##안업
##류인
지창
테베레강
업인
구남서
자남극
정중희
백마고지
유병민
펀칭
추출제
무뎌진
##헙요인과의
##산업재
센터
멀뚱히
조미숙
총기
마사나오
인스턴트
김하나
##기평
##고마이
우듬지
평서형
급여금
대추주악
루핀
##츠즈키
정용민
콩잎장
천수파
불연속면
보수제
##노인수
찔렀
##안보리
##지속
교역
매사
예리
##강수준
##장리
그거
##홍형옥
심규동
근칭
##모쿠
##소홍
잡힌다
백운리
막도
##로세
다크서클
킬러스
오상윤
군사
쇼와
평화상
김재휘
천등
긍께
문자식
유선주
##시가
최민혜
아키코
토목비
안형진
##맞춰야
조광제
##주공
봉안
##이냐
띄운다든지
추상표현주의
눈가에
세워둬야
##견인기
균종
메추
독극
##양용
정해석
사생아
##정상회의
##이남은
##핀란드
볼크만
##뺸
블랙삭스
용진면
경급
착공식
젭
##당괴
이주리
##집상
정기옥
밀정
봉하
##온위
##소락
##부척
미즈시마
외란
바데나필
유보
이강이
보유고
텍
한소끔
양윤정
표시판
부의
점동
저먼
정해상
박원규
문정환
밀려와서
영업소
##은례
물우
##마모
탈
##글라이더
가슴골
글루코시다아제
들어감
중화물
검보라색
목적격
각점
내판
##저성장
##업쇼
강경구
##래디
##파이프라인
##저면적
부릴지
송세일
이수증
##참죽
관공직
정인서
##경체
옛일
겐고
위계정
바캉스
존중히
경관형
김소선
지광습
##진배
##설량
##상량문
집고
붕사
삭과
지렛대
##징수
연설회
콩국
##회견
안정규
##목피
##준사
찝질
##나옵니다
##만재
공보험
타말레
콜백
화학소방차
운반업
원인
메세
안전봉
여서리
절대
폐증기
##곤충기
변태성
군호
채운
앵두화채
개두릅나무
##당뇨병성
태백제비꽃
##초상
대남
주입구
토탈
공변
포용성
##시부
##혼식
##던고
알락오리
단형
금가
세척제
선해
백지훈
##요직
송일석
##유점
잡자
아베이
##난포자
구성우
백성욱
페스카라
##보증
잔손
만나
##캐피
기다릴지
##진양호
생물체
앰뷸런스
##배디
실라
##청홍
작은방
벽동
조경준
지팽이
성흔
##궁합
##볏
고승곤
순회
막대표
문성혁
원망
두둑
알아낸다면
##드래프트
화생
홍지원
용춤
이명근
##농정
김상렬
##원정
##한천
복마전
휴광
##조영환
##시스틴
##파괴전
##환군
##폐활량
나아갈수록
권숙
종묘
약표
임종천
포곡
안숙희
##지온
##살타
##향축
이승현
이성식
류황
일거양득
동악산
형인
제니
업신여김
카마르고
##마렌
##락토스
사망률
##라소가
염화철
복학생
꿈꾸
다뤄야
##아보
장입구
공기비
##오전
강봉균
등록
노무라
##저탄소
친다는
##박광성
쇼이
부들부들
마리너
이보담
##군축
중앙원
담사
샴푸
뺏
희곡
##고세균
##도담동
방어기제
##시청
##레아
친손녀
##추리물
나을지도
##필비
옴의
번구
본년
커튼콜
김세범
신광영
##시형
##소경
##연극
모식종
##부활
##별내동
총약
임채승
친위대
##화장장
##신쇠
##포명
##집법
##감김
설쳐서
미수정란
회안대군
##독소혈증
##테스토스테론
거류
강태경
센토
오직
##극종
동덕
다툼
박태건
유철희
조각지
##미풍
##세탁물
권정
아니요
배준호
폴리올레핀
충적물
##등온
구워져
띄운다
제비나비
대사조
채희경
##데스
##보양
##능신
자이언트
##룔은
##막강
홍민희
정유식
##사체
사유서
황홍석
궁시
박애
둿
엽축
록음
부비강
과립
정태완
영금
화장법
영민
최현명
열벡터
##멱승
안테나숍
조벽
##계협
득상
자급률
##여신
길산천
##갈라진
암기
인정전
##귀속
지하
점강
녹양
일부일처제
무노
조감도
그레이시
곤혹
광업인
운강
조재원
쌍줄
군남
##커스
총대
##카시
산티니
융희
숫자
##아재비
서상원
지중화
진호
채병덕
빼냈다
##혈지
로리나
왕치산
##공격력
##동양
정귀
난대
지질
일렀
##암세포
위임장
이강빈
오준영
갈고리
포도
##적색
밀파
계속비
##뺀
프로그래밍
공리론
프랑스빵
좌우명
##광접
##극피동물
최해운
전재
두부찌개
초당
장흥읍
서정두
긍게
##올린다는
지그시
정태자
일격
내곽
충보
문영석
감리회
정천구
##간목
##바람지도
레니어
가경동
모화사상
청사조
##처처
끼리
마히토
외형미
##루덴스
물씬
헛다리
미평
##용조리
##대상기업
대조차
##영심이
##설신
우국충절
##혈행
알려져서
공보부
##덕스
짝지
허문선
##관리법
##평성
경과구
상면
이철완
##엽자
빌라노바
낙인찍히
장혜자
##불합격자
해야함
##넌
##곡축
##타타
##헤침
데이콤
클리셰
주십시오
안성규
##박호정
무창
김순관
적률
##사능
도이
미상핵
담레이
##상아질
이홍미
##합류
##고성호
수상기
연인
##픽
갈탄
##탄화도
신참
고를
개량
무엇
집지
##실없
맞물린다
읍부
한현희
조합최적화
위엄성
합력
튀겼
##관변
##과하
그라비어
고측
과료
무책
볼드윈
신경재
설정선
아질산균
김동섭
묵납자루
##화통
##옌푸
스몰
##발린
##가점
##물간
보료
고즈넉
간승
##식순
평집
추동
느지
장서연
성범죄
##구포
수백지구
##급병
폐기종
아트리움
초자체
##타탄체크
김규배
##연례
##진단학회
화양누르미
학습장
##지무
수염상어목
헤어스프레이
강윤재
흥암
##당겨져
이금진
냉리
더해만
헌초
##정형외과학
##성동
북분취
##치성터
##공보부
돔발상어목
스테인드글라스
장영휴
##도균
##올려진
##축지
방사광
말뚝망둑어
체용
베아트리스
##접하
뽀개
구상안
##배증
##사피엔스
##미량
부처손
범한다
##사막
조진웅
신중일
맹신
강형주
아랫목
김범주
노유
##에겔
길고양이
##칢단면지수
##성윤
한국불교연구원
마니카
경산
##레프
##라라고
정묘호란
수위권
탈구
파수
##지원영
최건우
##므론사의
점봉
##또아리물달팽이
양현덕
하이
##사재
헥사데칸
지휘기
김연섭
이백
##영양가
기관구
##충안
##촌의
##부정성
##가희
##완형
코번트리
##백실
들른
따로
파곡
홍진원
##아야죠
평양
집성
민생
중유
##모향
김인표
옹관
어두워져
왕좌
사립문
견상
콜럼
원융
소하성
석차와
군청
뜨물
##끼움
정갑섭
네덜란드인
사별기
마타하리
##노영순
웝스톱
##우위
윤문
##최정호
래시
오영기
##법관
푹스
전라선
배명훈
주영창
흩날림
한대웅
능군
##옥화
해리열
##밥쌀
##렵적
##박대
김경추
티오요소
김동식
우스꽝
주혼
##예물
로츠
##불이익
세절
##미과
##륨
##방강
김동휘
비정
사당리
뒴비틀림
마악
##교통카드
##진했
##익유
성순현
위자
정관수
##브로우
##식민주의
송영운
##논사
인성
박경석
주천면
샤니
##티쉬
성전
박남선
조언자
##시켜라
조수아
정진교
##체내
박의정
수양회
##하카타
##소년사
##경계기
강훈식
고승익
##강북
##백경
##토니아
방준석
회피성
금지법
감호역
강용기
티타니아
##프로테인
이헌수
해골
황광호
쳰
##진입비용
##아치
뛰어다닌다
취면
##케터링
신택수
튀긴
도사동
직각기둥
자산액
##인증서
##덴키
##한다구
##전자기
관세음보살
기곤
합격
##버젓이
##활구
태현
초내
클로디
틀어박혀
부아
##만목
이회선
##기청
##우익
트레드밀
신체형
##습도
녹토
주영애
경과음
이돈희
생긴다는
##소배
##여과법
오리일
단마디
사도행전
소형차
대여
제비붓꽃
##양카
##부분압
추수감사절
##인라인
단어집
원자로
샤를
임미나
##잔다
고양군
뒤편
##기본
##매원
연라
오솔길
기호표
금관
태웠
회구
##렬인장
##경환
백거이
희망차
송영민
거스
복숭아색
손순룡
서명규
아역
안대진
묘현례
경관복
충량
탕수육
##피커
##창극
##으사
심현우
##거리의
##예학
잭슨빌
##기상도
임한다
전귀
파생물
음성도
##쇠진
쿠커
계조
##음부
늘리
##껌
더덕장아찌
##양념
##유치수
퀴노아에서
##새면
황금철
텀블러
의류
김도령
행정부
홍석철
트리에스테
##사탁
김정림
착용감
반사음
한가의
##이천광
손진책
송형규
에스콰이어
야간작업
##용두
들
메인보드
##이정순
감률
##정삼각형
시공미디어
상골
응결제
염산
관리기
오윤희
##율초
##연당
물어내
연방
##달걀말이
고창수
외미
##초형
핏기
문안
라이온스
우선변제권
조병인
물자라
##리아나
깨부순
스트리킹
지칭
보톡스
멱집합
유진희
즐겨찾기
배합률
##동모형
뇌조
톱코트
##하크
##정신병학
도항
붙들려
##참새그령
##믹서
##원익
##마슈
숭상
병풍바위
##김숙진
료
##스토리지
머리
휴가철
현모양처
덧붙이
##빙결
서번
해인
##포르타
큼
##리큐
동등
안광석
앞설수록
정맥동
##짐치
##분배소
스피노사
##쳘
하영복
손진원
풍암동
여대학
##내채
##방식제
케이퍼
##사마와
##단년도
홍익
파봉
##탐닉
편부모
##코넷
인돌아세트산
문외
나온지
##예망
채단
권순창
조학준
몰라
##박신호
고문리
나무뿌리
##류추
##넛
가와고에
버려야
와일드카드
휘수연석
##새끼야
작품성
상태동
호지
주먹
입궁
정춘성
한니발
무협물
암피실린
조교사
한국인
##뉼라항목
당산나무
미끄러뜨리
##활법
오성권
비다쓰
이상숙
덮밥
##광차
조소현
유색
최경주
##작구
##연속파
재장
박재수
안광식
정병산
부사과
##아찌
황전면
속상해서
##척추
##다도
무릎뼈
피라미
초과수
독점
인격화
##신면
##동법
문옥륜
양견
동물성유
##부식
산고
의황
##비잔티움
##아스코르브
독서대
아궁이
##생업
김사라
포토스
##양관
##탈감
고해바치
##문무관
고사카
꼽혀왔
고인다
메이오
북한한류
임대준
##마법소녀
##발출
유렵
레이아
뱀고사리
조만
##경희대병원
리사이클링
매드니스
천상의
하리마
김제만
뺷삼국사기뺸
연료림
##깔
전선혜
수표법
##함부르크
이등변
달려져
##라셀
이수련
##초명
이쉬타르
해부러
도호
공무
##사력
##윔
심정지
##슬로바키아
미술
##김종민
##술의
면적
##국학
명예박사
김진홍
##단반경
##개박달나무
티사
설마리
##합금화
##풍욕
악덕한
##팩토리
소차
##대훈
명승환
##체했
헤프론
전투
##회귀
무염
조동범
##논인
벌개진
##조협
엄혹
##중량물
##간담회
한병문
페찬
##아현
묵시
##펴질
머리뼈
기교면
만난다면
주격
송준태
##총가
공간파
생산력
예회
##장족
훈툰
##악마
유한체
##석명
건강법
용산동
나와라
##사망계
인간관
##인성
잔가지가
도솔
아닐까
마그네시아
여현주
##영향중
성영애
##연과
식생활
군림
버트런드
수렴청정
송태민
##관력
구희연
영토
##단재
최지원
다자란
맷
적운
##죽원
파리모
##집행관
철공진
교결
비워둠
최문선
종품
가그
##조력자
##기본법
유수생
방탄의
##피부밑
##호실
##복사선
##멜라
돌아올
설쳤
정효석
##농노
공정고
##감봉
당산로
필률
설린
반복
선철
고생태
다령
죽원
겹
##골증
표출법
검단산
##봐야겠습니다
남녀
##김상덕
총참모장
광시성
##농이다
용이성
기공도
##대순
낮출
##춘인
##객증
박용승
부등류
월항
##우경
이한욱
신성규
##착개
##유독
노스우드
비튼
##줄어듦으로
##용무
##루틴
이지선
천주학
유종호
춘반
애송
박영근
천은숙
고리대
중압
충격파
##줄래요
##남군
도검
토양산도
선상체
겁난다
##신조어
서경덕
클레이튼
##아카이브
유희란
##찡그린다
##배수량
이디야
##담수화
티켓몬스터
##경량
아산항
##군현
##대칭형
고소대
##전인수
교과서포럼
##법대
문예학
최인상
##낵터
##카르보닐기
숄더
고친
십각형
##이용의
윤찬
송구
고구
활차
모음
피에트
김인득
##트랜스미션
국빈
소모증
아차르야
막한
야파
##행동선
김호림
천진
구두점
전개
역간
동원
짝퉁
성숙란
##프로리그
##샹이
독가시치
홍윤
경강
깨울
졸업
비수급
버둥거리
이신호
역내
김권양
##길라잡이
박영임
##효단
##공향
제육볶음
조분쇄
음속도
##리카
우응
##원치
공간음
##통경
치받
에러
맞붙혀
솔솔
##사난
##봉래초
##유속
치밀도
라셀
흑흑
역마
윅스
부익부
열매껍질
한전산업개발
##췌암
불입액
##로제트
백인기
최학규
##신상
의화단
김보희
농작
그노몬
손영주
조상영
강인숙
##패들
##그래닛
오명호
센텀
군보
정동리
무너진다
건혈
육미지황탕
부정기선
국민복
##마루노우치
황주성
월연
가젯
세부분
##계인
비겁
##능시
보루각
까무라쳐
##층막
오윤진
권이영
견인차
템플스테이
파계승
##닮음
아테
##스카이웨이
##놀부
##실교
##도파기
정철의
살펴봤
증감제
펨토
##불성립
인벤토리
금마
소용돌이도
올라오
산도르
단골손님
와전
본다든가
이규목
와이더
송호수
브루
강해야
매시브
##석취
특진관
김근택
##대숲
곽용섭
서진열
##양변
겹쳐야
임정환
환지
브릴리
양화전
미뤄진
시추탑
리영희
육인수
메뉴
##교상
벌기
박주연
낱권
바늘꽂이
참갈퀴덩굴
김민준
내륙하
##부녀회
올케
박일호
이주석
류숙희
##변류
쇠골
증익
섬유상
오락장
감쇠능
##타구
김상준
##응공
프로시
빈빈히
디졸브
##공기비
융폐
예란
##갑리
염
##불안전
##용현
집합물
황학수
장윤창
##철선
파래
##개장
전화선
사동형
쪽팔리
##전용진
개갑
##금수
##혼합주
포쉬
##뺸이
신희문
노국공주
내진주
이주훈
전병재
방사능
자세히
위무
운동력
어긋날
우편료
낚시찌
##박태
쫓김
##철거
##식이
##소공
##시원
협지
금강리
멘다
김병선
##질시
왕현종
##꼬마부전나비
등차급수
##구론
빈민층
흘린다
전효성
젖샘
한창욱
##트루잉
갯봄맞이
##정준
##피타고라스
관절강
##탈출
올리비에르
##극단
전판
김광영
##소머
##관공
홍예선
##저온기
뿜
##방응
##선암
##소항
높임말
소화액
물재
##통재
모의방
요순
##동관이
##질치
잠수병
지준범
차형
맞모금
##강력범
##가스실
흑린
팔굽혀
##문화상
##우소
##발원지
##경식
납전지
##억새밭
유현선
홍세원
##줄리
북학
##할배
신음
최윤태
종석
신정일
좌부승지
쇠물
쌕
가진동
노선영
##한박
##지움
##교육가
##빔
##치민
증조부모
##공표
##단대
플
성어기
바리니
이천식
##학문인
꺅도요
적막
건데
##메이트
석염
##락하
황산암모늄
##롱고
##소프트웨어
유도체
##교역
난관결찰
탈놀음
##연마기
중앙체
부산
허윤
조율법
선무당
차탁
페칠레의
긴한
시즈오
콘래드
보모
인기척
##결정계수
신소정
맥길
##향남
부딪침
##향의
##활유
먹선
잠수종
이센
네오바로크
레트리버
김항규
##병욱
겼었
##별벌레
모델
스위치
##내주
올가
##용서
이루어져왔
##승교점
요르단강
위조
황토색
최현용
안세희
이성은
표준셀
막힌줄눈
장로교회
##편상화
안산천
감찰
길병문
서울제비꽃
##건락
야마키
얼룩
히브리
##액표
윤문수
김철원
클로델
##바켓
야경증
성완경
지지띠
##작품
##소손
기제품
##독맥
방은령
##기계강
두리번
##서형
굳어졌
깃대종
##협도
종인
괴이
통옷
##전송
##인과성
##악청
전원구
##왁스
활용형
##야수
상제법
조원
##세용
괯
횡취
##결체
회적
##생필름
##장해물
미니콘
장설
동해사
##인본
##이동층
##꽃차
유제
신흥기업
팬케익
맞잡기
양길석
일물일가
##쿠폰
황산구리
임선
##혁기
실거리나무
근지
##듦을
핵융합
##장년
신영철
율학
윤창주
훈증제
##매칭
생판
명재진
##다진
민간단체
뛰어내리
검력계
최원열
낚시인
두두
구리타
좁히
##편영
갋
활판술
##쫑
매파
조까
신입
김시백
까다로워서
준들
김혜인
재발주
참판
혈토
김리진
없앨
우레아제
##복치
##취혈법
##오프셋
측량술
인릉
##책방
들오
큰그물막
춘향가
이은희
감모량
볼끼
최영래
적앙
정계숙
산증인
염리동
종량
##당지
자바섬
##진진
##아리아
군의
제조품
김감래
이진수
##통역사
##설계자
##석회유
유격
##루지
간첩사건
김봉한
채수용
##전파사
##틴트
##정보망
##실기둥
지새운
흑점
드브레
강익수
##병표
수도회
입교자
입상체
정혜경
##염파
받아들였으며
##원직
기다려요
##주령
텔레콤
##사범
넝마
문명상
고재호
신기정
이해근
베이델
##이총
김승현
##적사
##식곤
온박음질
화사
##아티카
칡뿌리
서비스업
##펍트리에디터
오택림
항비
##지저분
##프리미티브
김갑인
##선생
프랭크퍼트
정완
##사항서
##재미없
진터
##거담
분생자
##공청
오니
양성모
전창완
올린다고
식상
##곽공
중하
관용어
두드려야
##구녕
주조
교통콘
##교동
헌강왕
##계현
약리학자
##유희
신용존
최순희
##광합성
비갑
매니큐어
##화외
갯개미자리
애벌레
##코딱지
##밀판
##소모사
태양중심설
김우현
담헌서
감정이입
산출고
공동동작
앙소르
기분파
자임
불러일으켜야
상부인
노부야
태클
이은수
엘리시움
원준
##코이
##자창
##스러워져서
미그마타이트
석동일
늘린다면
##명료성
서등
##페롤
유해진
##플라이즈
슬퍼질
##애종
들릴까
##머코
쇠창살
##천익
물냉면
##세관
서혜석
문변자
최현정
여왕벌
근린주구
노진아
##밀착
죽산면
##생리대
##당신
##척살
이건상
##착생
##물질대사
##종관
인격자
석명진
원출
볼멘소리
##나아질
##한연
전반기
장석호
쥐락펴락
물풀
##페가
고익환
훼파
##찬양
##침삭
##무용극
젖혀야
한국합판
비골
공작기계
##지으려는
##치과
선면
경부고속도로
##간청
##신경종
손상진
완하
##유효상
과분쇄
##온도결
여환진
긴오이풀
풀치
분분
육제
##암흑
절세
활액
경도계
##국화
대항해시대
고르
##삼실
이경림
내유성
정비석
##창연
근경
##침몰
현영섭
민공
철전
##고려인
나타난다기
사궁
트로이카
##교살문
쿠르트
압통
춘향전
##태문
##모달
##독작용
개막
홍승찬
성뇌
##양원
##법경
충치
롤란드
문투
##다약
독서욕
찍찍
자선기금
강시
권영성
##횡령
시킵니다
##사채
광다회
출품자
현생
구로역
##모티
##절함
##전람회
##으르
안김
체이니
##카푸
##미국인
김좌명
중상해죄
야자수
유불리
브로드만
심정석
진초
분해서
##승렬
이수환
미방
염해
김용태
##티타
사헌집의
##장재용
슬링
##박경숙
븐
닥칠
차경아
육종학
##고령화
배목
김진선
받아들여졌
임재헌
대한의학협회
나그네새
구만리
거쳤으나
임정빈
##가랑
항응고제
유의어
임질
##이지아
엄은희
이십팔점박이무당벌레
##가두
어찌어찌
투휘
키시모토
마주쳐
##매드
로커스
대능
##호닝
박대길
향주
전하성
##와이파이
동창원
세탁물
강도다리
이변우
고주파로
통풍
오랜
하십시오체
##당견
역형성
항도
색조
친해질수록
연강
찌글찌글
이옥기
##배타성
서계원
측정의
##오른쪽
딛
선보인다는
생명체
##가송
##비독
서만철
고등어자반
##알칼리염
김종보
윤길영
정인경
묘우
감도
윤곽
니커보커스
허순
팔봉면
함혜리
##꽤기
링거액
##야산
한공의
췌액
병풍산
온이
구집
##터로
##발관
명령어
부클
태액
트라이얼
후굴
##김제
박보라
부론
강산들
총수
##미필자
##카르
동화율
평택항
체첸인
##요트
##병원기
몸부림
##지도부
##필디
##장연
엇나가
##배기통
꼴
양석원
열인
기술가
리오넬로
김종민
##실변수
##김균
유양
우이령
습성
##으셨다고
라무
북극성
뒤따른다는
##의기
최광식
##타나토스
##성평
절리
과립제
조성교
최대용
##텐데요
##글레어
##넙핀돌고래는
곙계
혈혈단신
##심마
부들김치
파동수
오장팡
##개일
##우스
문양전
생략법
##압통
정철수
##압록
필요
측후소
머의
##흙벽돌
송창빈
재심
##박원석
##카시시
병립
김영록
##단백성
개기장
##람보
##병폐
질레트
유승엽
주결
권병혁
배양일
우함
화상석
##곳곳
총량
바뀐다면
달아낸
비찰
김장권
관노
##대도심
##외보
돌베개
천고
##불결실
줄여온
정민환
이병인
##톨루엔
##함석
이익선
유욱
이현보
사각근
매주
##군단
아셔서
중견층
##뷰티
송경자
이왕준
정원주
##교통경찰
내려보냄
장진영
##엽비
장두건
원지현
중간고리
##뉴저지주
원종인
##여겨
##진왕
조정자
파인주스
원일점
박용걸
고장
##변화율
입속
자형
##앞이
##양통
폐쇄증
##호황
이억
버로우
##하키
따라비오름
##복분해
고무인
박승희
##왜건
수격
##경사각
##가정정
부족량
##덱스트린
##카스
보여진다고
##보물섬
##택식
이븐데
서일본
돌소리
테라니
##보급선
곡령
장영환
파닭
개구
##존경
최희열
##전직
명하
유재환
##근채
낙성계약
##규도
밑바닥
##솔이
안네
##두관
이형진
미켈란젤로
접질리
노천명
빨간집모기
김부진
조범연
선투시
한필순
류순호
##멀
둘코
박현미
예인
숭엄
원합니다
급금
엄흥섭
재검증
입제
나이트릴
쿠니나카
나아간다면
이연경
##스텐
임성철
최창호
김흥민
나래쪽동백
##침체
박덕배
사피
실중
권계
조무현
##향로
##측정의
##더뎅이
점유율
찌푸리
박기오
##외로워서
박세기
도발
민경옥
바닷새
##장어구이
##은분
이현종
축성법
##씪
##누크
다기능공
이초
알젓
##요약
##충용
이원혁
렘쿨하스
오케스트라
동려
리간드
지친다
남영도
개두술
안상인
##전본
강구책
백개자
최호규
악기점
지워진다는
오갈피나무
최상용
끌어댄
이동필
패영
유리창
얼루
##씌운다
주물사
개화일
오세윤
나이트로
##줄흰나비
사변형
장신
화석림
구석구석이
홍대의
속미
신완선
남권
##건습
뒤떨어질
건각
초고속도
졸림
된단다
토네이도
안성훈
김해동
##둔은
강천석
포데기
##해맑
맡긴다면
히마티온
##이미지관
가락지나물
콱
몇몇
직원회의
하종원
##캅스
##잠깐
##강민규
비빌
맡겨진
하규태
성
##오용이
##해시계
엘리자벳
사결
건빵
##리어
지윤서
이은일
직영
양창실
착즙기
발전동기
구매품
##스풀
출출
현은민
협연
##엽관
##각괄호
##거리
어반
##슬로건
용동
##강현재
이랄
증심사
당월
타니가와
정통부
김주태
콸콸
한바탕
하면적
남남서풍
##쏠리
애쓴
##결궤
##뇰은
간흡충증
##목록
지그
##변축
이선의
비공
녹엽
헨레
##라이프사이클
이경근
##공사관
생긴다기
스도쿠
##무파트
수용자
광탄면
송은영
김성윤
비순
##순자
잡아오
라구
극순
##유량
공사
##영등포
새호리기
##판사
##김만
개작
##로레스
##여권
##치미
##파고다
중력장
퍼뜩
##순항
##이직
##병코고래
오배
색입체
##글로벌
죈다
잔무
규획
변명섭
수광
이를까
하이포이드
신경환
호소다
방량
##콜로니얼
셈법
서중
##토마스
조동사
##비약
##무담보
헛돈
##가게
리츠코
깨어날지
율서
눈물받이
누하동
걸러져
파이
김장순
복방
녋은
##부욱
규폐증
항구의
운다고
노팬티
##야유
점쳐졌
황신
류신
안쓰러워하
거치상
##신경망
비글보드
오크라
##표한
##이선호
삼인
황재영
분매
강병옥
화서당
유원식
##디젤유
##나이트
승발
강정민
조성준
군관민
월계동
##향저
유용화
##라이징
조율이시
코나
##포탄
김진백
##지중해
브르노
균열로
지려
김광희
##육방정
우장
김선홍
##등반
##장파
걸과
##돌체
백고좌
박하연
히피족
경측
파파라치
업무
##주거미
테인
##포복형
##송대
세기병
내시경
##스테시
##스카
##부호
제작물
정경우
성하리
##에어백
부채살
할로탄
머캐덤
송호섭
번스
삼족오
이강덕
##부드러운
##진인
##선족
##체득
##광채
응진
차폭
유경미
김영애
집파리
##담천
맥퍼슨
부삭
김잔디
박찬열
종수
##변성대
백승연
##예대
##지제고
##룡문단
##촐
전항
조경서
홍종
갈륨
변별
가르쳐왔
김조영
보충군
경험론
##교제
이봉희
이의
공직
박성철
##젝시
편수
##망용
샘
대국자
승교점
이하카
문승재
##지나간다
이부종
##요카
소밀
곽윤정
봉화산
홍명
전선주
박영균
##래주
겔젠키르헨
광신자
송희영
떨어진다고
인텔리
이용규
##뮈어
##여통
김수재
아이작
조경진
##해결사
전현무
##빈해
남녀평등권
장대규
끊어진다
##비린내
##센텀
더불
비접
조영진
임은하
강영숙
바율
천마산
##마이크로캡슐
##감장
##염업
##점두
##치기
적유령산맥
##조작자
##후인자
##강희
##지발
함순
##의정서
의공학
외양수
후신
강스
##틱
중앙당
기세
협조회
액막이
추의
무거울
송현석
채무
사양
신호양
봤으나
번지르르
역연산
##전리
임영환
노홍균
왕전
보행인
##무리로
춤곡
거둬들일
최병돈
무교병
백기현
##미도
노박덩굴
맥완
김상희
크론보르
정마
하제인
노철호
예주
안검
길잡이
##가공사
##이함
잎벌레
한수련
열량계
김유민
##트리코
##늘어난
##편각
##금속업
##족도리풀
##대지진
##실조
##동연
최종후
##자유주의자
바실루스
북위
##셔선
옥좌
안준선
펍프로
##쉬면
##벌리
성인봉
수평실
##찬연
##돕
##박남기
인토
흉부
이춘기
뺌
부정문
##오니코
##히카리
신승균
##소순
전동일
##직필
첩지
더럽혀져
##의총
##기밀비
제이슨
극초소형
##권리분석
올까요
타본
산수국
녹사평대로
이두아
환구
그린필드
##퀘스트
설중
송인암
##유대감
릴
아홉수
키부츠
##복토
처용무
##방호
동향면
정영식
거름종이
박힌
정모
폐회로
국속
개면마
허묘
부하사
포톤
괴정
늘어서
질개
마십시오
쌍떡잎
실실
손장원
부식제
황헌
가워
##연무
풍간
이배호
변협
##대한국
조규선
옥탑
김재철
##예산안
##주입기
가속계
마지못해서
쌀독
##남식
땜납
음주
##저이
토루
##조역
탕정면
대배심
홍정의
강승희
황성구
안치용
##대게
조선인민보
석가산
차식
슈멜
##양조장
종개과
초조감
남학생
수트
황대현
남당항
충신
이삼수
헨더슨
하석태
광주면
임묘택
조리도
역사관
##클로로히드린
바다뱀
전일사
한열착잡
##형상
듀엣
챌린저호
진이
조토
저극
홍영대
확답
오리엔
##민욱
두터워
##성혜
답글
태허
페쇄된
문권배
이남권
이헌정
콤마
##행상
누군가의
모리시타
##합투
##갤러
##뉴저지
##질병통제센터
사업체
오오사카
전포
##조종성
롬브로소
콜리스
콧수염
##응대
전평국
소감문
항온기
적집
유은아
김도순
내려앉
비린내
##드릴까요
검정볼기쉬파리
급가속
##들길
##아메리칸
은하면
얼룩진
정수리
##포화
노르만족
##모으
조총련
청절편
##박상해
로프노르
구조망
지롱드
##벽운
큰데다
열국
돛
##모근
류순
직설
배소
만져진다고
##세느
타나카
고도흥
낄까
문상철
##준양
엽수
박지화
영구기체
안정구
##개침
##캐드
새롭
##어이
야나기다
부산관
##모바
플라톤
##개골
박준열
고경민
얽어매
명필름
보렐
서질
그레고리력
농경작
##악성도
##숙사
물러날
산령
시맨틱
##종류별
막판
##양윤
송용진
##냉소주의
##오대산
미츠이
틀림없이
드려야
##일랑
로문
곽희
##종결자
연두
뭉크
조흔색
김연자
역극성
꾸며진다
##몽은
울프럼
고형분
알려진다면
송인혁
오수철
유대우
##미충
윤형숙
##안정기
재정관
전차로
##큘러스와는
김의명
해친다고
총집합
촉석
이희세
##초안
꾸려진
뱡향성
##남효정
##탁본
##측백
##대소장
##김범수
부친
양영은
##봉지
외출옷
미라
##척수염
##동도나
황간
##미개
##든가
자동차세
민연경
재활용률
벡셀
쓰가루해협
타액선염
##스러운
쓰다
##퍼짓
내칠
보낸다는
붙였
공통
타카기
픨동말동
전신홍
##종피
##삭조
##주워
##아라미드
수불
모가면
##생육상
임석우
유에스에이
##예탁
##싱크
집운
가문
최봉철
##털색
##최아
##급소
##회사
뱐응
복측
덧없이
외군
난폭
##취항
##한란
##봄비
##타용
유영주
소추
복현
##반비례
##단임
상처
아무러한
생활어
박정홍
##올림픽
왼심실
##신용정보
##이견
물레나물
평창읍
김송일
흘러간다
갑관
폭격
##풍건
시미즈
김하람
교부
침샘
엔터
##장교복
##종신
메칼프
##마난
발달사
진덕
전동싸리
드로즈
##실사
##국립극단
무화과
수민
고중합체
양준영
##태통
##토굴
##웅도
환기구
##금옥
##마색
스피로
석발
##효익
몸가짐
##퇴직
사윗감
쵸파
박경량
재환
이나은
코윈
각서
##연동화
##유흥주
##정정한
##조종술
탑파
소애영
마르타
서원식
##휴교
통신문
짝산
토르소
남기선
##유록색
정세민
##포켓
##이시
헤로인
강할
차위
한갑수
##조성우
##압구정동
조석
변별력
##현가장치
문득
부총재
귀엽
포집제
휘끈
교통망
회가
옥영석
디메틸아미노
폰툰
##두마스
소기업소
번원
월선
아토
서유견문
폐족
휴재
만목
##코발트블루
대청동
포동
##삼상
윤정구
게리
공사관
성형미인
권동연
김형무
임종엽
슬림
콘퍼런스
##군수과
이희우
##오커
난균강
차반
동국중보
학명
떠돌아다닌
허형석
##홀로그래피
좌천
##모르핀
##덧대
배긴스
남양군
암팡
오산시
##커서
##양륙
블리치
##설조
앰배서더
빌딩
모첨
순리
##이지원
폭포수
##진복
달맞이꽃
##용방
황영진
##떨치
##협약
장모음
##볼란치
변혜정
##연락처
##헙법들
##용점
재탄생
이준엽
광다이오드
##훌훌
육병
##카
신형호
##손춘호
##상진
형
안종범
실만
##위탁자
##꺼려할
송규봉
분설
##나노세컨드
미량
남산동
터짐
오명순
##지구대
##잔유
악풍
##보섭
제조소
헤마토크릿
용융염
비금도
범섬
전명근
쥐참외
서로마
연황색
화물선
험불
계량수
##하광
불혹
##와트
유홍
남화경
정창배
##다녀
소잔
도쿠
곡아
후급
휙휙
조장
##알아보
꾀하
##페메린염산염정량법과
인해
심혜숙
##재방송
윤병건
중심대
잘려졌
지브
되내기
각도주
황학동
뒷발굽
굴건
중두
파선
이원군
뒤돌아봤
청량리
##수입액
고침
기하무늬
실국수
##조건
뒤척임
체
##운발
##의미
권영직
사뿐
##부선
##신학기
생체
구경
세르비아
움직인다고
무한경
점탄성
종사지
국민대표
김명찬
끊임
피로연
##발레
빙기
지우기
꼼꼼히
송철기
##여현
환경관리공단
##하성
카라해
홍한국
앞당겨진
길부종
부추
##의협
##아세틸화
풍백
제수문
김창집
초토화
잠수의
한행
석등
운동자
##전조등
이상이
탈색제
행림
윤성원
##강간
이보근
##폐각근
꺼트리
권진
간랍
권용호
로라
타나
##바이트
##학술회의
##연마재
##만변
황대원
##소울
##이미미
김윤선
##피싱
코베인
까스
##츨채취진단을
##축항
##아랫배
세상아
##고화질
##증운
금오산
##하완
지새웠
검경
##냐구
격벽
구르지예프
김병도
병리학자
볼스크
기변
불루
##문호성
들켜서
장희정
면용
계리사
미나리아재비
박기웅
최재경
##우무
##범성
움짤
##컨설턴트
오형근
##목마
##피난지
화리
정원규
이철위
기이치
자극취
안타깝
칠리소스
##알레르겐
접안렌즈
유혈목이
요크가
제철웅
문예
지구전
포송령
박종효
##전각
##상승적
목뿔뼈
롤랑바르트
##종기
급료
치타공
헤르쯔
##진석
주세국
도박자
##현구고
나합
##후박나무
##색전증
변일균
##절정
조작법
##교내
열정
##고박
##포역
##기전
임병찬
맞혔
프레이징
신휴
휴무일
전자기
사쿠라키
다식성
보낸다
##을소
##소승기탕
상완
명시성
움켜쥘
##큘러스에서는
##전기차
정참
조광순
쳄버들이
##합기도
서길준
중심시
##노관
모록
##일서
##이초
기상법
남성연대
##화충
전석원
##류오
중환자실
도결
내마
##삭마
이주진
영종도
##호복
기초제
김판욱
##발의
삼두박근
이두석
으름장
##창봉
화화
##직비
##부식성
방세
##당단
지긋이
김하철
식별자
강길호
##수찬
서병우
경관직
##강혈
목질화
방영주
##지전류
매점매석
상태기
원종화
소녀
##의질
복발
##팝스
안전기사
경무
전명진
##강내
향상심
##가공유
누아르
체납액
올라온
##서종진
키텔
늠
앤데
##남정숙
홍순재
유동열
대문호
지켜줘야
전대진
##획지
임한다는
브리넬
##경과
김지향
보육원
운치
##애로
##야리아
##연차
##정술
연결차
이루어질지
역삼투법
나호수
흔암리
자치통감강목
##지표지
방재
양경수
중석
심선
의복
셀레늄
시어서커
##자리나
경원
고정불변
접골목
아물
종량제
박성균
데쓰로
##사취
하이튼
산월
하윤도
##콘칩
혁신
라공우
대상금
윗몸
계약
문현욱
##마그나
카지미르
나이팅게일
##래요
##부딪힘
고춘수
발칸반도
정민영
눈부셔서
##희용
##즉위식
##강할
##구스타프
댕겼
구접
김태운
해어
##조한경
##논리
장괴
##지표층
역소
활자판
짊어질
##읍총
##측상
박재득
임세
##신장형
박종석
##방약
##북한이탈주민
##운조
떡붕어
##술지
화환신용장
김태현
##회민
회동
##잡힌다
박병인
열제
밀전
제서
##계기
제크
상주물
기만행위
낱낱이
거주지
##초도
주패
가상보
##심사원
여비
출결
##완납
청소부
모기방동사니
운진
##땅벌
##해정탕
사식
거품
##성력
윤엄
##산토쉬
##노은
성태경
##음풍
촌스럽
일단락
도입종
라서
포셰
##면비
##용추
##지브라
##프론트
우기원
##강방
정부미
고용서
##교육조교
원부
풀모
남겨질
우자원
다과
##험
씨름장
손지환
소릴
##산사태
어패
행정지도
이메
겹녹화
대청해전
마인드맵
진환
##이상혁
바뀐다는
도량형기
##양생방
##황
##우물길
티아
##가전기
바하
남명희
##통문
테스코
부자연성
##삼초
##나사산
##친자
이동봉
##손분
갠다
보족
막골
조항민
관비
##자판
수정란
남포
빌려와
원론
전주영
##른형
##환경보호국
##박기의
정단우
##관지정
논한다
##스테반
윤혜순
##집착
##피이
금남
역목
##약밥
##약지
원정일
묵수
탄산철
꿀편
정지현
가정생활
아산만
##고교
##결합
##경구개음화
해결
양진환
박응식
조기웅
김병근
포타쉬
담뱃대
##리듬
대릉이
##레위
##나아
주우진
박행자
관광권
##밀수죄
하재철
강도경
신경식
송지선
정한호
##대구치
고한서
처해
선다형
정준용
이것저것
퀄퀌은
김동문
보안경
##여역
김경완
지극
복룡산
##전위파
비온
아미타
강동
##데일
극렬분자
관례화
##출당
흘러와
고영준
##자적
##연극론
강성수
이영광
오펜시브
총저
베츠
##준재
김대우
호실
한창규
중상자
랜드레스
##민신
##락톤
슐리
견행력
김진재
조림
변화무쌍
조진일
##목적형
김애령
어판
##치여
세초연
##수술의
먹넌출
메싱
지번
##해적
##직파
홍성재
소골반
공유지
조심히
##매상
청정제
웰컴
벽탑
퓰리처상
##비체적
군신
##매염제
플란다스
##승과
신현수
졸곡
배판
##비와
장영광
고후
쓰인
##두민
뒤트임
거슬러
권성철
진달래
보자
앞장선
납입
믈라덴
##적용
##김승철
##감식초
추한
술곡
허용학
주안
##정과정
조생종
##곱해
##소쇼
삼영
네거티브
##동림
통판
베르가
아루스
차관회의
봉평동
박경록
떨어져도
##다이어트
가레산스이
총조사
##사회인
##흥룡
##극판
##기욤
철도
##각의
정년제
돌출보
둘러진
##러브
##라인더
##지자
##전자기학
##체육
##두수
##변화법
주진우
##면구
라살
날씨
##많이
전기밥솥
##나인
키스존스톤
로난
클라우드
##해액
##고방
쫄따구
인품
덕평
인상화석
접하
진촌
선초
장기빈
북촌
##말똥성게
멍석딸기
##지른
치맛단
##반약
공영권
소굴
퍼덕퍼덕
소전제
양망기
가로수
##줄여
반계수록
서낭당
쳇불
폭로
크레센도
이첩
##해양위성센터
##당아지
##연창
김나현
선입
생텍쥐베리
프리핸드
##졸도
##영양소
분산계
뭉침현상이
뵤른
##견중
계룡역
##역필
주산맥
##반외
가드
##산수화
김금자
붕적토
##수소화
무역항
생겼
호모지나이저
저마다
테이지
##통계도
하테나
과소비
##소외감
교잡우
고정애
포크커틀릿
본파
##표영
피펫
국악
음암면
##말음
윤소연
모형선
중실
평남
##신미
강고히
귀교
김선관
##아롬
경박
##치제
게오르게
싱글턴
뚬팡사리
손경애
양조
##지폐
##총비
알뜨르
아중
##산증
##감공
김규만
검정망둑
##세익
위태위태
고수명
##이상헌
클로츠
##트랜드
말살
김준겸
양식점
석화준
##연장
삼척시
배진현
간접법
##일성정시의
연직
놓친
우
딩굴
서란
하용우
붕타우
##변이중
술패랭이꽃
문대
표현파
요코이
신서
아랫길
정한경
육식자
발유
주성치
##노약자
윤성수
소타
화소
김본수
마이카와
강재원
다수확
흡연실
##도물
카즈오
##자감
심한
송민선
##중구
호네
##다라니경
##거처
타세
초일
은근
##이프라인
터치스크린
신전략
노병호
벌레잡이통풀
조프
##인스턴트
격지
##한임
##충민
이희두
##게통발
##잌스피어
##퍼시
##우비
중투
이곡
##투르키스탄
프리뷰
##치바
짐대
박상표
##용해
망가니즈
랭거
##봉욕
통혼
##목도
특송화물에
뚬팡사리는
안수호
황종
탁견
##혼직
소시호탕
방범대
빠짐표
##걸림
손승남
등근
성공리
##흘림이
##기류
##뇰
부모
합니까
##전진기
나은혜
연암
##칼로치
##규장암
박정오
##초종
약용식물
이기상
스페리
##원다
##왜화
돌아보
과고
북천
##재배
용암
##아족
황황히
곽은숙
트랜싯
##량의
##연습림
뚫어져
##영양사
경서
##거반
레일리파
미호종개
##수해
##과체
안트
정제기
몹시
알도
서현숙
##면수
정호기
해동
##레크리에이션
구한
남재현
금남면
재스퍼
##친환경
흙덮기
멘켄
이호동
##대대로
##범찬
##재결정
봐준다고
##전기자
허원실
##리향
얼개
원주형
작설
##쓰야마
##소저
##진다든가
신랑
보수
##므파탈과
동나이
뇌성
##생성
큐빅
수순
적환
혈연
저그
##페티
조남수
##정치용
들린
자연촌
허비
흠경
##피움
타이프
구역증
##공죄
클리도노그래프
탈호
##군사통
공산댐
##리스타트
확보
##과고
##대매
##교정본
##법문화
김경렬
뭉쳐진
##송풍관
정태
안효정
##깄다카이
유언호
##플러시
친할머니
박혀져
명사
##휴사
도미니카
염상
태양절
김주창
라디컬
방매
대식가
박춘순
흡입
춘삼월
날품팔이
융합체
이다미
##취관
병신
석빙고
북대천
김동남
된다든가
폭연
어설프
슷한
이금탁
오승아
##복은
##개념
칭도
분별없이
불성립
저탄장
신수옥
김도년
탄도학
##번원
다이빙
이성홍
민대환
산림동
로경
박병곤
##로켓발사
말라치
격식체
크로그
천운
첨가형
정의민
희종
김안
##로셔
황림
좁은가슴잎벌레
연화의
##퇴위
주정
김양진
##돼야만
권오근
##어화
성남숙
단음절어
정복욕
정봉일
삼층장
지나간다고
##득진
##세종
##데오
분투
황금향
##신부
##다이가
생활실
##대족
별개
주어졌
레오나드
가스배관공사
류희삼
타방
##지목
##아국
##득희
감염자
##껨
##아서
##편입학
##거세
쯔비터
분위긴데
점자
신정환
[...]
